<pad>	0
<s>	0
</s>	0
<unk>	0
en	-0
er	-1
ch	-2
▁d	-3
in	-4
ie	-5
▁s	-6
▁,	-7
▁w	-8
un	-9
▁a	-10
▁.	-11
ich	-12
▁e	-13
▁m	-14
st	-15
▁un	-16
as	-17
▁g	-18
▁die	-19
an	-20
ei	-21
▁ein	-22
▁b	-23
▁v	-24
te	-25
▁i	-26
▁h	-27
▁und	-28
▁n	-29
▁k	-30
▁z	-31
▁das	-32
es	-33
on	-34
ir	-35
▁f	-36
le	-37
ar	-38
ten	-39
sch	-40
▁zu	-41
▁in	-42
▁wir	-43
▁sie	-44
gen	-45
el	-46
▁au	-47
hr	-48
▁der	-49
or	-50
▁ich	-51
ti	-52
der	-53
em	-54
▁ist	-55
au	-56
▁es	-57
ein	-58
al	-59
it	-60
▁al	-61
▁p	-62
lich	-63
den	-64
ge	-65
▁er	-66
ach	-67
ben	-68
▁an	-69
▁ha	-70
ber	-71
ter	-72
de	-73
icht	-74
▁ver	-75
ier	-76
ur	-77
▁t	-78
▁dies	-79
▁ge	-80
▁l	-81
ol	-82
▁r	-83
▁j	-84
ung	-85
▁be	-86
▁den	-87
▁sch	-88
um	-89
ür	-90
▁nicht	-91
mm	-92
nen	-93
▁"	-94
ro	-95
▁auf	-96
sen	-97
▁eine	-98
▁von	-99
▁dass	-100
▁als	-101
eit	-102
▁o	-103
is	-104
▁mit	-105
tz	-106
▁wie	-107
ck	-108
ann	-109
eh	-110
len	-111
ra	-112
▁uns	-113
ind	-114
▁so	-115
il	-116
▁war	-117
ig	-118
▁da	-119
ent	-120
▁sich	-121
re	-122
▁wen	-123
▁le	-124
▁st	-125
▁man	-126
über	-127
▁aus	-128
▁was	-129
▁:	-130
at	-131
us	-132
schen	-133
▁sind	-134
▁um	-135
ahr	-136
▁aber	-137
▁für	-138
and	-139
ön	-140
tion	-141
be	-142
▁haben	-143
▁?	-144
▁wenn	-145
ft	-146
iel	-147
▁hat	-148
ag	-149
ehr	-150
▁über	-151
am	-152
▁wer	-153
▁ges	-154
▁ihr	-155
▁kön	-156
▁mein	-157
än	-158
▁diese	-159
ff	-160
▁vor	-161
▁im	-162
se	-163
och	-164
▁wei	-165
eu	-166
▁sp	-167
▁re	-168
ehen	-169
sten	-170
▁dem	-171
om	-172
▁ar	-173
ik	-174
▁je	-175
▁pro	-176
tw	-177
▁des	-178
kt	-179
ern	-180
▁sein	-181
▁also	-182
▁men	-183
▁bei	-184
chen	-185
▁einen	-186
▁-	-187
▁nach	-188
oll	-189
bt	-190
▁ih	-191
mmen	-192
▁unser	-193
rei	-194
▁können	-195
▁hier	-196
▁ent	-197
▁oder	-198
elt	-199
wei	-200
isch	-201
sp	-202
▁werden	-203
▁jahr	-204
ut	-205
ah	-206
ungen	-207
▁geh	-208
men	-209
▁ander	-210
ien	-211
▁gr	-212
ieren	-213
ste	-214
ne	-215
zu	-216
igen	-217
▁mach	-218
▁kann	-219
tig	-220
▁auch	-221
ell	-222
ken	-223
ation	-224
▁einer	-225
rau	-226
▁her	-227
▁1	-228
▁dar	-229
▁einem	-230
iert	-231
scha	-232
▁nur	-233
▁ko	-234
▁dann	-235
anz	-236
gt	-237
▁sehr	-238
▁etw	-239
ück	-240
aus	-241
▁viel	-242
▁wird	-243
li	-244
ort	-245
▁unter	-246
▁all	-247
uch	-248
00	-249
tel	-250
▁c	-251
▁gi	-252
os	-253
▁gen	-254
▁menschen	-255
ess	-256
▁kon	-257
ör	-258
▁mich	-259
▁kein	-260
fen	-261
▁ihnen	-262
▁gibt	-263
ute	-264
urch	-265
äch	-266
▁–	-267
issen	-268
▁wur	-269
äh	-270
▁leben	-271
▁gesch	-272
▁ab	-273
tzt	-274
lau	-275
▁--	-276
▁te	-277
▁noch	-278
hal	-279
▁sehen	-280
▁alle	-281
ab	-282
▁am	-283
▁dieser	-284
▁etwas	-285
ing	-286
og	-287
ischen	-288
und	-289
▁durch	-290
ät	-291
schaft	-292
dern	-293
▁mö	-294
ang	-295
▁gro	-296
▁habe	-297
▁mehr	-298
▁vie	-299
▁mir	-300
bei	-301
▁wissen	-302
▁welt	-303
agen	-304
mal	-305
▁zur	-306
ver	-307
▁wo	-308
ul	-309
mmer	-310
ot	-311
▁sag	-312
ri	-313
▁mus	-314
heit	-315
ke	-316
ün	-317
▁groß	-318
üh	-319
eil	-320
ige	-321
keit	-322
lichen	-323
ko	-324
är	-325
▁wirk	-326
▁einf	-327
▁we	-328
▁zum	-329
ffen	-330
all	-331
▁ganz	-332
we	-333
▁2	-334
▁zwei	-335
▁bes	-336
liche	-337
▁ihre	-338
▁en	-339
sa	-340
tr	-341
▁meine	-342
▁wür	-343
mit	-344
üs	-345
▁weil	-346
▁hin	-347
▁br	-348
ellen	-349
▁wirklich	-350
tiv	-351
▁zeit	-352
▁wurde	-353
tet	-354
tzen	-355
hen	-356
▁dieses	-357
ass	-358
ere	-359
▁machen	-360
ähr	-361
▁inter	-362
▁neu	-363
▁einfach	-364
▁sel	-365
me	-366
assen	-367
▁nun	-368
eln	-369
pp	-370
for	-371
▁immer	-372
her	-373
äl	-374
ische	-375
▁lie	-376
▁gew	-377
ick	-378
▁me	-379
▁verb	-380
cht	-381
ru	-382
▁ch	-383
▁pa	-384
ht	-385
▁unsere	-386
ungs	-387
▁tun	-388
bst	-389
▁fra	-390
▁din	-391
per	-392
acht	-393
end	-394
ühr	-395
▁kle	-396
wer	-397
▁jetzt	-398
he	-399
ob	-400
▁bis	-401
chte	-402
ges	-403
bar	-404
▁se	-405
ad	-406
mmt	-407
▁beg	-408
pf	-409
▁bil	-410
▁ne	-411
nte	-412
▁gem	-413
lie	-414
▁gef	-415
▁vers	-416
▁hatte	-417
▁viele	-418
ze	-419
▁keine	-420
ner	-421
ran	-422
glich	-423
▁müs	-424
rie	-425
▁klein	-426
inden	-427
ktion	-428
▁denn	-429
ehmen	-430
▁eigen	-431
che	-432
▁du	-433
leich	-434
▁selbst	-435
▁leute	-436
eiten	-437
▁tat	-438
schie	-439
tier	-440
▁ber	-441
ster	-442
▁ob	-443
▁soll	-444
▁ger	-445
onen	-446
ichtig	-447
stell	-448
ingen	-449
▁geb	-450
▁diesem	-451
di	-452
▁gel	-453
äu	-454
▁sagen	-455
▁eines	-456
▁waren	-457
▁müssen	-458
omp	-459
dem	-460
▁dinge	-461
▁diesen	-462
la	-463
olog	-464
▁dan	-465
ble	-466
▁wieder	-467
ßen	-468
▁sagte	-469
▁alles	-470
chn	-471
▁mil	-472
▁weiter	-473
▁heu	-474
▁glau	-475
ger	-476
unden	-477
▁jahren	-478
▁andere	-479
▁erf	-480
▁son	-481
gend	-482
▁bin	-483
ma	-484
zen	-485
▁zei	-486
ler	-487
▁nie	-488
kommen	-489
▁art	-490
▁nat	-491
▁kin	-492
▁kl	-493
ollen	-494
▁bl	-495
▁damit	-496
du	-497
▁würde	-498
ser	-499
qu	-500
▁anderen	-501
fl	-502
▁mal	-503
leicht	-504
geb	-505
zi	-506
▁wel	-507
▁ste	-508
▁zusa	-509
▁stel	-510
auf	-511
▁per	-512
▁entw	-513
▁heraus	-514
▁proble	-515
▁vielleicht	-516
det	-517
▁zusammen	-518
▁ex	-519
ichte	-520
angen	-521
nis	-522
▁verst	-523
tisch	-524
▁ja	-525
▁schw	-526
▁gl	-527
ist	-528
änder	-529
▁gut	-530
▁tats	-531
op	-532
inn	-533
▁zw	-534
gef	-535
auen	-536
ität	-537
ekt	-538
▁wahr	-539
▁or	-540
▁fl	-541
▁geht	-542
hn	-543
des	-544
▁best	-545
yst	-546
under	-547
rä	-548
▁jahre	-549
▁dav	-550
tern	-551
▁gleich	-552
▁zurück	-553
ache	-554
▁milli	-555
▁for	-556
iger	-557
lt	-558
▁erz	-559
ystem	-560
beit	-561
spiel	-562
fe	-563
▁teil	-564
▁entwick	-565
▁frau	-566
▁kam	-567
▁muss	-568
▁heute	-569
ug	-570
ale	-571
▁schon	-572
nten	-573
ion	-574
▁arbei	-575
off	-576
ächlich	-577
▁techn	-578
ill	-579
uten	-580
halten	-581
▁warum	-582
▁dr	-583
▁drei	-584
öß	-585
pt	-586
br	-587
▁letz	-588
▁genau	-589
▁reg	-590
▁ide	-591
▁pl	-592
▁gegen	-593
▁möchte	-594
▁kinder	-595
äre	-596
▁mo	-597
▁pass	-598
▁einige	-599
▁ö	-600
▁dort	-601
▁sei	-602
▁ir	-603
▁einz	-604
sam	-605
zent	-606
▁3	-607
▁de	-608
ast	-609
stellen	-610
hl	-611
cken	-612
▁tatsächlich	-613
tes	-614
art	-615
▁macht	-616
ationen	-617
▁brau	-618
▁ben	-619
▁davon	-620
▁oh	-621
age	-622
ok	-623
elle	-624
tigen	-625
▁land	-626
▁verw	-627
tik	-628
▁bede	-629
vor	-630
aten	-631
▁hand	-632
▁möglich	-633
rechen	-634
▁denken	-635
▁tag	-636
▁jem	-637
uchen	-638
halb	-639
▁besch	-640
▁wichtig	-641
▁zie	-642
▁paar	-643
ak	-644
▁fr	-645
▁hei	-646
▁mensch	-647
▁spr	-648
▁hatten	-649
▁weg	-650
tt	-651
000	-652
▁mei	-653
▁geschichte	-654
▁bild	-655
▁natür	-656
▁größ	-657
alen	-658
achte	-659
ahl	-660
form	-661
▁grund	-662
▁könnte	-663
▁arbeit	-664
olle	-665
esen	-666
weise	-667
mlich	-668
ine	-669
iz	-670
ichten	-671
achen	-672
▁ma	-673
aut	-674
▁;	-675
anden	-676
dien	-677
▁ihn	-678
esser	-679
pro	-680
tige	-681
ologie	-682
mer	-683
▁stu	-684
▁gehen	-685
gel	-686
▁fre	-687
▁darüber	-688
ennen	-689
ändern	-690
▁fun	-691
▁wollen	-692
▁verl	-693
aum	-694
▁woll	-695
ade	-696
ant	-697
▁schn	-698
att	-699
▁beispiel	-700
kte	-701
uss	-702
nt	-703
▁'	-704
▁meiner	-705
ap	-706
kl	-707
▁pers	-708
▁weiß	-709
▁lei	-710
▁wurden	-711
▁werde	-712
wo	-713
tlich	-714
▁sicher	-715
gr	-716
oren	-717
gar	-718
▁seine	-719
▁aut	-720
reich	-721
net	-722
äd	-723
▁jeder	-724
iv	-725
ierte	-726
vers	-727
▁ihren	-728
▁vielen	-729
irn	-730
zeu	-731
unde	-732
est	-733
igkeit	-734
für	-735
▁problem	-736
▁funktion	-737
▁lassen	-738
▁sti	-739
ha	-740
▁komp	-741
fr	-742
hin	-743
▁ph	-744
▁währ	-745
▁führ	-746
▁lang	-747
▁tra	-748
teil	-749
schieden	-750
schein	-751
▁sondern	-752
▁gab	-753
amen	-754
utzen	-755
▁dazu	-756
▁irgend	-757
▁natürlich	-758
▁sta	-759
▁erzäh	-760
▁erst	-761
▁interess	-762
▁doch	-763
▁will	-764
▁5	-765
▁während	-766
▁sol	-767
▁neue	-768
▁wor	-769
▁hal	-770
▁unserer	-771
▁wäre	-772
▁kommen	-773
▁wasser	-774
▁mar	-775
▁bewe	-776
ander	-777
▁sogar	-778
▁schl	-779
▁vom	-780
▁ersten	-781
fer	-782
itt	-783
änd	-784
ktiv	-785
▁mon	-786
▁frage	-787
▁versuch	-788
▁hät	-789
▁denke	-790
▁zwischen	-791
▁einmal	-792
tra	-793
▁finden	-794
▁19	-795
▁gemein	-796
achten	-797
▁lebens	-798
▁gerade	-799
▁nichts	-800
zie	-801
ühl	-802
▁näch	-803
▁glaube	-804
▁geben	-805
im	-806
▁gemacht	-807
gie	-808
nehmen	-809
los	-810
▁ohne	-811
▁nor	-812
▁ihrer	-813
▁kur	-814
▁denen	-815
alt	-816
▁dafür	-817
▁anf	-818
▁kommt	-819
▁wissenschaft	-820
gehen	-821
▁20	-822
▁schu	-823
geben	-824
▁pol	-825
▁lö	-826
▁besser	-827
▁letzten	-828
▁würden	-829
▁scha	-830
▁erw	-831
keiten	-832
od	-833
▁frauen	-834
gew	-835
▁ins	-836
ßer	-837
ften	-838
ativ	-839
▁kre	-840
▁qu	-841
ss	-842
▁zeigen	-843
gan	-844
erik	-845
▁4	-846
▁gehirn	-847
öl	-848
dr	-849
ce	-850
▁betr	-851
▁sieht	-852
bl	-853
▁hau	-854
licht	-855
▁verschieden	-856
ören	-857
▁verstehen	-858
▁prozent	-859
▁passiert	-860
hem	-861
uter	-862
schei	-863
▁uni	-864
▁meisten	-865
▁ok	-866
▁fol	-867
cher	-868
▁spiel	-869
ys	-870
▁rei	-871
ierung	-872
▁daten	-873
▁erste	-874
▁produ	-875
chten	-876
▁konnte	-877
▁bi	-878
▁min	-879
▁stellen	-880
▁sa	-881
▁ganze	-882
gung	-883
tschaft	-884
▁etwa	-885
▁daran	-886
▁vier	-887
▁millionen	-888
th	-889
▁sollte	-890
schl	-891
▁bew	-892
ört	-893
▁dank	-894
▁nehmen	-895
▁arbeiten	-896
unkt	-897
ahren	-898
ünf	-899
▁fragen	-900
str	-901
▁ung	-902
▁große	-903
frik	-904
imm	-905
gra	-906
▁dabei	-907
▁ele	-908
bs	-909
▁sollten	-910
▁inform	-911
▁10	-912
rank	-913
örper	-914
zin	-915
enden	-916
▁schnell	-917
lung	-918
▁idee	-919
▁könnten	-920
▁jemand	-921
ckt	-922
▁fall	-923
yp	-924
mus	-925
utz	-926
gesch	-927
mme	-928
▁bef	-929
ange	-930
innen	-931
ult	-932
▁sprechen	-933
▁ziemlich	-934
erst	-935
▁star	-936
▁meinen	-937
▁wollte	-938
▁glück	-939
aufen	-940
▁us	-941
stellt	-942
▁veränder	-943
äng	-944
▁geld	-945
ogen	-946
.000	-947
ker	-948
▁fin	-949
▁system	-950
ergie	-951
▁stra	-952
▁darauf	-953
▁bek	-954
agt	-955
ßt	-956
▁spie	-957
▁univers	-958
▁ti	-959
▁gute	-960
licher	-961
chs	-962
▁plan	-963
ppe	-964
schied	-965
▁raum	-966
▁ged	-967
▁bekommen	-968
▁comp	-969
legen	-970
▁hoch	-971
▁verg	-972
▁meinem	-973
tieren	-974
ign	-975
▁lin	-976
▁beh	-977
ollar	-978
▁di	-979
ül	-980
▁sagt	-981
▁seit	-982
ären	-983
ingt	-984
▁bedeute	-985
▁ende	-986
▁ging	-987
ay	-988
ts	-989
mö	-990
▁welche	-991
▁gest	-992
ide	-993
▁co	-994
▁hel	-995
▁eigentlich	-996
▁dir	-997
▁nah	-998
ernen	-999
▁außer	-1000
ust	-1001
ate	-1002
no	-1003
eht	-1004
▁bereit	-1005
▁hö	-1006
▁bo	-1007
▁verf	-1008
mals	-1009
▁fal	-1010
id	-1011
kun	-1012
▁glauben	-1013
enz	-1014
▁amerik	-1015
jekt	-1016
▁körper	-1017
gte	-1018
spr	-1019
ktur	-1020
▁em	-1021
twort	-1022
utter	-1023
ite	-1024
▁mann	-1025
▁sah	-1026
sehen	-1027
▁verk	-1028
▁sit	-1029
▁kind	-1030
▁buch	-1031
onder	-1032
▁mom	-1033
▁weniger	-1034
▁danke	-1035
▁kleinen	-1036
amil	-1037
stand	-1038
scheinlich	-1039
laub	-1040
▁spe	-1041
fte	-1042
reiben	-1043
itte	-1044
ution	-1045
▁organ	-1046
äter	-1047
▁dollar	-1048
zei	-1049
▁jeden	-1050
▁y	-1051
▁lernen	-1052
sicht	-1053
▁entschei	-1054
▁technologie	-1055
▁ro	-1056
▁computer	-1057
pr	-1058
nah	-1059
▁män	-1060
▁recht	-1061
▁wunder	-1062
▁bedeutet	-1063
▁sache	-1064
asch	-1065
tische	-1066
▁afrik	-1067
▁schön	-1068
▁ho	-1069
kunft	-1070
nung	-1071
ischer	-1072
▁namen	-1073
ater	-1074
▁unseren	-1075
▁ihm	-1076
▁poli	-1077
▁ang	-1078
arbei	-1079
adt	-1080
▁kleine	-1081
▁famil	-1082
annt	-1083
▁eben	-1084
sst	-1085
▁jedes	-1086
▁bringen	-1087
▁dachte	-1088
▁großen	-1089
▁tei	-1090
ffent	-1091
▁sozi	-1092
▁energie	-1093
▁gesehen	-1094
fall	-1095
▁get	-1096
▁..	-1097
▁fil	-1098
▁frei	-1099
▁komple	-1100
▁fünf	-1101
▁ganzen	-1102
▁wahrscheinlich	-1103
usst	-1104
▁ihrem	-1105
▁offen	-1106
▁schle	-1107
are	-1108
▁brauchen	-1109
ga	-1110
▁person	-1111
▁fest	-1112
▁weise	-1113
▁versuchen	-1114
pl	-1115
▁seite	-1116
▁kar	-1117
ruck	-1118
orgen	-1119
▁voll	-1120
▁erken	-1121
raft	-1122
▁versch	-1123
▁hinter	-1124
hema	-1125
▁lehr	-1126
▁unterschied	-1127
▁ur	-1128
ppen	-1129
▁besonder	-1130
▁par	-1131
▁wenig	-1132
ald	-1133
▁...	-1134
▁nein	-1135
▁beim	-1136
ic	-1137
▁anders	-1138
ies	-1139
▁gar	-1140
ffe	-1141
dig	-1142
ph	-1143
achsen	-1144
unter	-1145
▁später	-1146
tischen	-1147
dung	-1148
immt	-1149
▁nutzen	-1150
▁200	-1151
▁gru	-1152
▁su	-1153
ard	-1154
alis	-1155
▁wirtschaft	-1156
ätz	-1157
lig	-1158
ert	-1159
▁moment	-1160
tete	-1161
▁fast	-1162
▁irgendw	-1163
▁hil	-1164
▁tre	-1165
▁menge	-1166
▁keinen	-1167
land	-1168
▁6	-1169
essen	-1170
▁hätte	-1171
▁indem	-1172
▁gesund	-1173
▁unglaub	-1174
bil	-1175
▁hoff	-1176
▁form	-1177
eren	-1178
lick	-1179
▁ange	-1180
▁woch	-1181
▁ern	-1182
vol	-1183
▁zukunft	-1184
▁früh	-1185
▁gern	-1186
schaften	-1187
kten	-1188
▁ort	-1189
ia	-1190
▁gesagt	-1191
wir	-1192
ierten	-1193
mittel	-1194
so	-1195
▁mag	-1196
▁to	-1197
▁tro	-1198
stellung	-1199
ernt	-1200
ultur	-1201
leben	-1202
fft	-1203
▁tau	-1204
▁entde	-1205
▁essen	-1206
▁musik	-1207
wohl	-1208
▁bed	-1209
▁augen	-1210
kon	-1211
▁gesell	-1212
▁pr	-1213
▁oft	-1214
▁jede	-1215
▁ster	-1216
▁schwer	-1217
▁richtig	-1218
▁gra	-1219
▁kurz	-1220
zeit	-1221
ommen	-1222
denken	-1223
je	-1224
▁natur	-1225
▁fot	-1226
▁grün	-1227
▁po	-1228
ließ	-1229
olg	-1230
▁licht	-1231
▁ü	-1232
▁chin	-1233
▁heißt	-1234
▁funktioniert	-1235
▁sy	-1236
▁bet	-1237
▁schaffen	-1238
▁konnten	-1239
▁el	-1240
umen	-1241
▁bere	-1242
▁eigenen	-1243
eist	-1244
sel	-1245
iss	-1246
▁aller	-1247
alität	-1248
▁krie	-1249
ief	-1250
asse	-1251
▁bau	-1252
▁rich	-1253
ord	-1254
gang	-1255
führ	-1256
tiert	-1257
ruktur	-1258
▁plane	-1259
▁stadt	-1260
▁fäh	-1261
ält	-1262
▁mutter	-1263
ogra	-1264
▁8	-1265
▁u	-1266
▁eng	-1267
zeich	-1268
▁milliar	-1269
eich	-1270
▁füh	-1271
gefähr	-1272
reichen	-1273
▁organis	-1274
▁schwier	-1275
▁erkl	-1276
▁vert	-1277
zt	-1278
eine	-1279
▁verm	-1280
reis	-1281
schn	-1282
mp	-1283
▁schauen	-1284
welt	-1285
▁vide	-1286
▁erde	-1287
▁the	-1288
▁wohl	-1289
▁at	-1290
▁lu	-1291
▁allen	-1292
▁bevor	-1293
▁erzählen	-1294
bo	-1295
ße	-1296
▁seiner	-1297
▁komm	-1298
satz	-1299
▁ungefähr	-1300
ial	-1301
▁haus	-1302
▁eur	-1303
▁klar	-1304
▁probleme	-1305
ome	-1306
▁inner	-1307
fel	-1308
▁helfen	-1309
▁spielen	-1310
lichkeit	-1311
ähn	-1312
volution	-1313
▁pla	-1314
▁kor	-1315
stoff	-1316
▁herum	-1317
▁rob	-1318
▁internet	-1319
▁gesundheit	-1320
hau	-1321
▁weit	-1322
▁liebe	-1323
atur	-1324
▁kennen	-1325
ks	-1326
▁exper	-1327
▁lange	-1328
▁nächsten	-1329
▁9	-1330
▁neuen	-1331
ahlen	-1332
▁sü	-1333
▁erh	-1334
▁medi	-1335
▁elekt	-1336
▁7	-1337
▁mater	-1338
isten	-1339
▁genug	-1340
▁zeigt	-1341
▁erfolg	-1342
▁begann	-1343
fäl	-1344
▁manch	-1345
▁unserem	-1346
▁ru	-1347
ünst	-1348
▁verbr	-1349
▁kultur	-1350
alten	-1351
nisse	-1352
▁darum	-1353
▁bem	-1354
cke	-1355
ahrung	-1356
▁50	-1357
ott	-1358
▁30	-1359
unst	-1360
system	-1361
itten	-1362
▁15	-1363
▁str	-1364
liches	-1365
lo	-1366
▁blei	-1367
ta	-1368
ucht	-1369
▁überall	-1370
▁manchmal	-1371
zess	-1372
▁flie	-1373
▁bauen	-1374
▁prä	-1375
▁wus	-1376
▁he	-1377
▁bisschen	-1378
▁kunst	-1379
▁ted	-1380
▁100	-1381
zeug	-1382
heiten	-1383
sy	-1384
▁ideen	-1385
▁euch	-1386
▁krank	-1387
▁pri	-1388
▁usa	-1389
▁okay	-1390
▁tr	-1391
▁bür	-1392
▁feh	-1393
ition	-1394
▁fort	-1395
▁einzel	-1396
▁pu	-1397
▁liegt	-1398
▁new	-1399
▁tran	-1400
▁verhalten	-1401
▁unternehmen	-1402
▁amerikan	-1403
spie	-1404
richt	-1405
hunder	-1406
▁dich	-1407
▁reden	-1408
▁wert	-1409
▁niem	-1410
lte	-1411
▁na	-1412
asst	-1413
enten	-1414
▁statt	-1415
▁großar	-1416
▁design	-1417
gramm	-1418
▁gesam	-1419
▁glob	-1420
▁deshalb	-1421
▁informationen	-1422
s-	-1423
finden	-1424
ieht	-1425
▁stand	-1426
sche	-1427
▁nennen	-1428
▁planeten	-1429
▁verändern	-1430
▁arten	-1431
▁seinen	-1432
▁bel	-1433
▁gesellschaft	-1434
our	-1435
raum	-1436
▁gehört	-1437
▁leuten	-1438
▁anst	-1439
▁mod	-1440
möglich	-1441
▁stehen	-1442
▁schule	-1443
▁gener	-1444
io	-1445
ücken	-1446
▁ähn	-1447
▁forsch	-1448
▁normal	-1449
äche	-1450
ädchen	-1451
▁sinn	-1452
▁abs	-1453
▁behand	-1454
▁projekt	-1455
utzt	-1456
▁sagten	-1457
▁bewusst	-1458
ionen	-1459
forder	-1460
hol	-1461
▁hören	-1462
▁afrika	-1463
kel	-1464
▁sechs	-1465
▁kopf	-1466
▁pati	-1467
▁anderes	-1468
▁milliarden	-1469
▁ober	-1470
▁kontr	-1471
▁schein	-1472
▁antwort	-1473
▁oben	-1474
ände	-1475
▁los	-1476
▁gebäu	-1477
▁punkt	-1478
▁besonders	-1479
▁film	-1480
ven	-1481
ütz	-1482
▁schul	-1483
glichen	-1484
▁verein	-1485
▁erinn	-1486
ennt	-1487
▁far	-1488
▁ca	-1489
gem	-1490
▁stud	-1491
▁universum	-1492
▁geschichten	-1493
▁vorher	-1494
▁interessan	-1495
▁mat	-1496
▁aktiv	-1497
▁männer	-1498
▁fa	-1499
▁musste	-1500
▁bereits	-1501
zahl	-1502
dlich	-1503
▁mädchen	-1504
▁netz	-1505
▁jahrhunder	-1506
▁robo	-1507
▁halten	-1508
▁entwickelt	-1509
bringen	-1510
etz	-1511
druck	-1512
setzen	-1513
▁darin	-1514
twor	-1515
▁ausge	-1516
▁erreichen	-1517
tigt	-1518
▁lös	-1519
▁benutzen	-1520
▁verschiedene	-1521
▁auto	-1522
▁hätten	-1523
ührt	-1524
igkeiten	-1525
▁li	-1526
▁is	-1527
tten	-1528
zieh	-1529
▁schr	-1530
▁steht	-1531
▁öffent	-1532
ös	-1533
zus	-1534
allen	-1535
▁niemand	-1536
rom	-1537
einander	-1538
▁namens	-1539
fin	-1540
▁gerne	-1541
ris	-1542
▁kn	-1543
▁machte	-1544
▁seinem	-1545
▁indien	-1546
▁schü	-1547
▁minuten	-1548
▁erkennen	-1549
min	-1550
öhn	-1551
kommt	-1552
▁beob	-1553
grund	-1554
▁flug	-1555
▁teilen	-1556
▁typ	-1557
▁veran	-1558
▁video	-1559
itz	-1560
▁bestimm	-1561
voll	-1562
▁arm	-1563
▁bas	-1564
▁res	-1565
anken	-1566
▁ak	-1567
tter	-1568
isches	-1569
inner	-1570
änger	-1571
▁mu	-1572
▁phys	-1573
▁anzu	-1574
▁rel	-1575
▁inst	-1576
▁geschä	-1577
▁mittel	-1578
akter	-1579
ip	-1580
lei	-1581
blik	-1582
indung	-1583
zieren	-1584
▁freund	-1585
▁gefühl	-1586
▁folgen	-1587
▁sk	-1588
▁innerhalb	-1589
stra	-1590
▁stück	-1591
ium	-1592
iges	-1593
▁entf	-1594
▁familie	-1595
rat	-1596
▁unters	-1597
▁beein	-1598
▁kosten	-1599
▁irgendwie	-1600
▁komplex	-1601
ow	-1602
son	-1603
anzen	-1604
endet	-1605
▁bilder	-1606
aun	-1607
ume	-1608
▁op	-1609
▁stunden	-1610
auer	-1611
inen	-1612
▁vater	-1613
annte	-1614
▁bemer	-1615
▁beginn	-1616
▁sprache	-1617
ahn	-1618
▁hunder	-1619
gestellt	-1620
▁fir	-1621
zentr	-1622
ock	-1623
▁fu	-1624
▁jun	-1625
bare	-1626
trag	-1627
▁einzige	-1628
▁luft	-1629
▁jedem	-1630
▁gruppe	-1631
▁völ	-1632
halt	-1633
omen	-1634
arten	-1635
▁angst	-1636
one	-1637
itiv	-1638
richten	-1639
▁besten	-1640
▁eltern	-1641
vi	-1642
▁no	-1643
▁ergeb	-1644
▁wegen	-1645
▁bereich	-1646
-m	-1647
ließlich	-1648
▁alt	-1649
▁herz	-1650
fra	-1651
▁vorstellen	-1652
▁ries	-1653
▁braucht	-1654
▁jen	-1655
▁anw	-1656
rieben	-1657
▁daher	-1658
▁pf	-1659
ohn	-1660
▁gott	-1661
▁haupt	-1662
punkt	-1663
▁arch	-1664
▁entwickeln	-1665
▁gleiche	-1666
▁städ	-1667
ständ	-1668
▁masch	-1669
▁obwohl	-1670
▁bewegen	-1671
▁beginnen	-1672
▁wort	-1673
affen	-1674
▁bitte	-1675
▁entst	-1676
iere	-1677
▁eins	-1678
▁künst	-1679
▁verschiedenen	-1680
neh	-1681
▁la	-1682
sych	-1683
sk	-1684
ehe	-1685
▁gemeinsam	-1686
▁nä	-1687
gten	-1688
werk	-1689
▁kap	-1690
▁welch	-1691
▁kä	-1692
▁medizin	-1693
▁möglichkeit	-1694
-k	-1695
▁nation	-1696
haupt	-1697
racht	-1698
▁treffen	-1699
▁fe	-1700
▁erhalten	-1701
▁fäl	-1702
▁umwelt	-1703
tte	-1704
euer	-1705
▁reich	-1706
ings	-1707
andel	-1708
genommen	-1709
▁dis	-1710
▁einigen	-1711
▁nämlich	-1712
gal	-1713
▁unterst	-1714
ässt	-1715
esse	-1716
▁rep	-1717
▁fern	-1718
▁näh	-1719
▁schwar	-1720
▁ändern	-1721
▁unglaublich	-1722
ehn	-1723
▁do	-1724
▁wollten	-1725
▁sachen	-1726
bel	-1727
▁vir	-1728
ismus	-1729
▁drau	-1730
▁damals	-1731
▁ziel	-1732
▁mik	-1733
ider	-1734
▁kli	-1735
▁unbe	-1736
▁tausen	-1737
▁eher	-1738
trie	-1739
häng	-1740
▁rest	-1741
▁patienten	-1742
enzen	-1743
ank	-1744
▁sage	-1745
▁hause	-1746
▁roboter	-1747
▁ansch	-1748
annen	-1749
▁beiden	-1750
▁verr	-1751
tis	-1752
hlen	-1753
▁inv	-1754
▁verwenden	-1755
lin	-1756
▁kü	-1757
äten	-1758
▁krebs	-1759
▁gebäude	-1760
si	-1761
▁pos	-1762
▁dein	-1763
▁bez	-1764
erweise	-1765
▁regierung	-1766
▁werk	-1767
▁weltw	-1768
▁anfang	-1769
aktion	-1770
▁kindern	-1771
▁neur	-1772
ziel	-1773
▁erk	-1774
rak	-1775
▁intel	-1776
zustellen	-1777
▁verändert	-1778
uer	-1779
▁yor	-1780
▁psych	-1781
▁kommun	-1782
▁persön	-1783
▁material	-1784
▁bezieh	-1785
▁erstaun	-1786
▁überhaupt	-1787
tem	-1788
lek	-1789
▁tut	-1790
▁wil	-1791
▁getan	-1792
reifen	-1793
▁aufga	-1794
lossen	-1795
iken	-1796
▁schau	-1797
▁trotz	-1798
▁menschlichen	-1799
denten	-1800
▁ka	-1801
▁länder	-1802
ligen	-1803
▁schreiben	-1804
zug	-1805
▁win	-1806
▁zwar	-1807
▁fand	-1808
▁lehrer	-1809
bes	-1810
weg	-1811
▁ju	-1812
▁fahr	-1813
▁verschw	-1814
sta	-1815
▁richt	-1816
▁18	-1817
tigkeit	-1818
▁publik	-1819
▁är	-1820
schr	-1821
▁bab	-1822
▁erzeu	-1823
▁erinner	-1824
pan	-1825
sto	-1826
▁krieg	-1827
▁gleichen	-1828
▁versucht	-1829
bte	-1830
sei	-1831
▁führen	-1832
ügen	-1833
▁ehr	-1834
▁zun	-1835
onnen	-1836
▁allem	-1837
▁wochen	-1838
▁programm	-1839
völ	-1840
▁erre	-1841
▁morgen	-1842
▁struktur	-1843
als	-1844
▁tier	-1845
▁jed	-1846
▁sau	-1847
tei	-1848
▁gene	-1849
▁invest	-1850
▁fing	-1851
▁zeich	-1852
▁nächste	-1853
▁technolog	-1854
▁vis	-1855
▁lage	-1856
ranken	-1857
▁neben	-1858
▁solche	-1859
▁sicht	-1860
nov	-1861
ielt	-1862
▁prof	-1863
▁china	-1864
ase	-1865
abor	-1866
▁zahl	-1867
völker	-1868
schnitt	-1869
▁falsch	-1870
▁innov	-1871
▁herausforder	-1872
äus	-1873
ktor	-1874
▁absol	-1875
▁direkt	-1876
pe	-1877
anten	-1878
tzlich	-1879
▁mathema	-1880
▁publikum	-1881
na	-1882
haus	-1883
▁tri	-1884
▁verh	-1885
▁erscha	-1886
eig	-1887
▁40	-1888
▁zer	-1889
▁überr	-1890
▁bedeut	-1891
▁jedoch	-1892
ängt	-1893
▁prozess	-1894
▁erfahrung	-1895
sein	-1896
gegen	-1897
▁meer	-1898
▁nachdem	-1899
▁zweiten	-1900
teten	-1901
▁erle	-1902
▁junge	-1903
▁finanz	-1904
▁schick	-1905
▁mikro	-1906
enne	-1907
orie	-1908
nahme	-1909
▁verd	-1910
▁demok	-1911
▁mussten	-1912
▁entwicklung	-1913
▁weitere	-1914
▁betrachten	-1915
urs	-1916
▁sen	-1917
▁herr	-1918
▁geschäft	-1919
sätz	-1920
▁trä	-1921
▁europ	-1922
▁fühlen	-1923
eim	-1924
▁kamen	-1925
etzt	-1926
▁genaus	-1927
baren	-1928
▁situ	-1929
orden	-1930
▁tiere	-1931
▁meines	-1932
▁sieben	-1933
sm	-1934
▁rad	-1935
▁wes	-1936
▁chem	-1937
▁rück	-1938
▁letzte	-1939
▁vertrau	-1940
▁beste	-1941
▁dingen	-1942
tho	-1943
▁pap	-1944
▁ris	-1945
fiz	-1946
zept	-1947
▁deu	-1948
dition	-1949
▁unten	-1950
▁genauso	-1951
▁tö	-1952
ziert	-1953
▁bein	-1954
fläche	-1955
▁freunde	-1956
▁schließlich	-1957
▁pfl	-1958
arbeit	-1959
▁anderer	-1960
-f	-1961
▁tages	-1962
▁dun	-1963
ore	-1964
▁kom	-1965
▁plö	-1966
▁danach	-1967
▁erinnern	-1968
indet	-1969
▁elektr	-1970
▁go	-1971
▁gol	-1972
▁auss	-1973
ager	-1974
▁bringt	-1975
▁lesen	-1976
ive	-1977
▁völlig	-1978
▁wusste	-1979
▁sicherheit	-1980
ud	-1981
▁on	-1982
▁sow	-1983
▁alter	-1984
▁lässt	-1985
▁eigene	-1986
iet	-1987
▁hol	-1988
▁gedanken	-1989
▁12	-1990
ählen	-1991
▁tief	-1992
▁grunde	-1993
▁leiden	-1994
▁fas	-1995
▁samm	-1996
▁kraft	-1997
▁wären	-1998
▁hervor	-1999
han	-2000
▁fer	-2001
▁sek	-2002
ienen	-2003
▁part	-2004
ans	-2005
▁boden	-2006
▁exist	-2007
▁worden	-2008
▁erlau	-2009
▁wider	-2010
sichtlich	-2011
inde	-2012
rieb	-2013
▁thema	-2014
▁übr	-2015
▁such	-2016
nahmen	-2017
▁menschliche	-2018
sph	-2019
achst	-2020
eigen	-2021
zip	-2022
▁entscheiden	-2023
▁interessant	-2024
lungs	-2025
▁aufzu	-2026
▁hilfe	-2027
▁archite	-2028
▁möglichkeiten	-2029
▁zent	-2030
▁platz	-2031
▁manche	-2032
▁sollen	-2033
▁stellt	-2034
▁deren	-2035
▁kreativ	-2036
bung	-2037
dete	-2038
elbe	-2039
▁har	-2040
▁verfü	-2041
▁jungen	-2042
▁information	-2043
et	-2044
uren	-2045
▁job	-2046
▁mor	-2047
▁sex	-2048
▁char	-2049
bau	-2050
aren	-2051
stet	-2052
▁ter	-2053
ließen	-2054
▁25	-2055
▁fliegen	-2056
ure	-2057
▁blau	-2058
▁zweite	-2059
▁öl	-2060
▁süd	-2061
▁lern	-2062
▁lösen	-2063
ograf	-2064
annten	-2065
▁suchen	-2066
▁staaten	-2067
▁welches	-2068
▁plötzlich	-2069
jähr	-2070
ücher	-2071
▁zehn	-2072
▁umgeb	-2073
▁gesetz	-2074
▁funktionieren	-2075
setz	-2076
▁mer	-2077
▁york	-2078
dungen	-2079
lef	-2080
aler	-2081
kehr	-2082
▁fragte	-2083
▁sterben	-2084
▁verbunden	-2085
▁eis	-2086
▁kri	-2087
▁empf	-2088
▁modell	-2089
▁zuerst	-2090
▁wich	-2091
aschen	-2092
▁bleiben	-2093
▁sh	-2094
itze	-2095
▁oze	-2096
rieden	-2097
reten	-2098
▁dessen	-2099
ala	-2100
▁langsam	-2101
spro	-2102
ziehen	-2103
achstum	-2104
▁zahlen	-2105
▁defin	-2106
▁guten	-2107
▁beschä	-2108
▁besteht	-2109
▁äl	-2110
▁tage	-2111
▁geist	-2112
▁laufen	-2113
cen	-2114
iff	-2115
achtet	-2116
▁schli	-2117
▁schwierig	-2118
cker	-2119
▁schwe	-2120
▁woche	-2121
durch	-2122
falls	-2123
▁prin	-2124
yn	-2125
▁auszu	-2126
▁kolle	-2127
bauen	-2128
▁kranken	-2129
ve	-2130
scht	-2131
▁indi	-2132
wirk	-2133
▁aufge	-2134
roh	-2135
immen	-2136
führen	-2137
▁falls	-2138
▁klima	-2139
man	-2140
itzen	-2141
▁zerst	-2142
▁zuvor	-2143
▁vergleich	-2144
hören	-2145
▁acht	-2146
▁änder	-2147
▁monate	-2148
▁gemeinschaft	-2149
wär	-2150
elte	-2151
arbeitet	-2152
-p	-2153
▁hast	-2154
▁team	-2155
lage	-2156
merk	-2157
chter	-2158
ächst	-2159
▁kaufen	-2160
dik	-2161
▁markt	-2162
▁politik	-2163
▁familien	-2164
ile	-2165
▁führt	-2166
▁technik	-2167
mo	-2168
spiele	-2169
▁erklär	-2170
to	-2171
riff	-2172
blick	-2173
▁gesicht	-2174
▁bro	-2175
▁zug	-2176
▁aben	-2177
▁nutz	-2178
▁lösung	-2179
▁hör	-2180
▁neues	-2181
▁überzeu	-2182
▁aussehen	-2183
ue	-2184
spe	-2185
▁benö	-2186
▁sprach	-2187
▁größte	-2188
▁verantwort	-2189
kraft	-2190
gefühl	-2191
▁entdeck	-2192
▁ländern	-2193
alter	-2194
igt	-2195
▁beru	-2196
▁extr	-2197
sw	-2198
zeigt	-2199
▁gefunden	-2200
▁stär	-2201
▁antwor	-2202
▁daraus	-2203
▁stelle	-2204
▁transp	-2205
-s	-2206
▁ans	-2207
zeuge	-2208
▁ersch	-2209
▁gegenüber	-2210
▁wissenschaftler	-2211
gn	-2212
wert	-2213
▁männ	-2214
weisen	-2215
▁hinein	-2216
▁größten	-2217
▁fähigkeit	-2218
ieten	-2219
▁möchten	-2220
▁indu	-2221
▁mite	-2222
tag	-2223
alien	-2224
▁größer	-2225
▁beschäf	-2226
▁unseres	-2227
ond	-2228
äuf	-2229
auft	-2230
▁fant	-2231
▁rein	-2232
▁mitein	-2233
atten	-2234
jekte	-2235
▁beide	-2236
▁labor	-2237
▁bewegung	-2238
xt	-2239
▁ner	-2240
reiten	-2241
▁überw	-2242
▁zellen	-2243
-b	-2244
▁extrem	-2245
▁draußen	-2246
▁spa	-2247
▁autos	-2248
prochen	-2249
▁gewalt	-2250
co	-2251
fahr	-2252
spir	-2253
▁super	-2254
▁verwand	-2255
reck	-2256
▁ozean	-2257
▁beeinfl	-2258
▁erschaffen	-2259
▁intelligen	-2260
▁egal	-2261
▁scheint	-2262
ja	-2263
▁muster	-2264
umm	-2265
ücke	-2266
▁blick	-2267
▁ihres	-2268
▁gelernt	-2269
▁lau	-2270
lassen	-2271
tragen	-2272
äß	-2273
ance	-2274
▁stimme	-2275
▁bevölker	-2276
▁kontroll	-2277
fort	-2278
igten	-2279
ho	-2280
hren	-2281
▁öff	-2282
▁wahl	-2283
▁herauszu	-2284
▁glücklich	-2285
▁ä	-2286
jen	-2287
▁anstatt	-2288
äuft	-2289
▁sin	-2290
▁nahm	-2291
samkeit	-2292
▁gewesen	-2293
▁evolution	-2294
gliche	-2295
▁iden	-2296
▁verle	-2297
▁schritt	-2298
▁wachsen	-2299
▁überleben	-2300
ückt	-2301
ochen	-2302
▁sehe	-2303
gemein	-2304
▁nimmt	-2305
▁erklären	-2306
▁passieren	-2307
▁vergangen	-2308
▁tä	-2309
eister	-2310
öffent	-2311
▁relig	-2312
▁kal	-2313
▁dig	-2314
▁tradition	-2315
aden	-2316
bten	-2317
▁mache	-2318
▁medien	-2319
-d	-2320
▁60	-2321
▁raus	-2322
▁reihe	-2323
gesetzt	-2324
pfer	-2325
▁bar	-2326
▁anal	-2327
▁stark	-2328
▁kleines	-2329
▁anfangen	-2330
▁studenten	-2331
ikation	-2332
▁beginnt	-2333
▁wahrheit	-2334
ese	-2335
wass	-2336
gessen	-2337
▁digit	-2338
▁bürger	-2339
▁fanden	-2340
▁nachdenken	-2341
▁miteinander	-2342
▁technologien	-2343
▁konzentr	-2344
uelle	-2345
gewöhn	-2346
▁jemals	-2347
▁erd	-2348
agieren	-2349
▁allein	-2350
▁künstler	-2351
▁richtung	-2352
▁jahrhundert	-2353
▁80	-2354
lauf	-2355
line	-2356
ware	-2357
▁nord	-2358
▁anzahl	-2359
▁geworden	-2360
▁ad	-2361
▁ding	-2362
▁kont	-2363
zellen	-2364
▁teile	-2365
▁gefähr	-2366
▁inspir	-2367
▁tatsache	-2368
▁großartig	-2369
▁verbindung	-2370
äss	-2371
▁veröffent	-2372
ren	-2373
▁fel	-2374
gende	-2375
icher	-2376
▁links	-2377
▁revolution	-2378
iko	-2379
ont	-2380
elten	-2381
rift	-2382
▁aufre	-2383
▁molek	-2384
▁leicht	-2385
ib	-2386
ity	-2387
ment	-2388
ament	-2389
älfte	-2390
▁stimmt	-2391
mt	-2392
pfen	-2393
weis	-2394
ative	-2395
▁erfor	-2396
▁niemals	-2397
▁situation	-2398
▁ser	-2399
zogen	-2400
▁bekommt	-2401
uell	-2402
▁bist	-2403
▁disk	-2404
anischen	-2405
▁verloren	-2406
mens	-2407
▁kil	-2408
ützen	-2409
fahren	-2410
▁nacht	-2411
▁hinaus	-2412
▁kleiner	-2413
kle	-2414
▁bildung	-2415
▁schlecht	-2416
▁einfl	-2417
▁staat	-2418
▁physik	-2419
▁met	-2420
lungen	-2421
▁ernst	-2422
dent	-2423
nation	-2424
▁indivi	-2425
▁wör	-2426
▁metho	-2427
▁gebaut	-2428
▁aufmerk	-2429
▁foto	-2430
▁miss	-2431
▁reise	-2432
▁findet	-2433
▁individu	-2434
▁krankheit	-2435
▁medik	-2436
▁schrieb	-2437
iti	-2438
▁gebe	-2439
▁toll	-2440
▁instit	-2441
▁kat	-2442
gangen	-2443
▁lieben	-2444
▁sonnen	-2445
fäh	-2446
▁maß	-2447
▁verwendet	-2448
▁aufgabe	-2449
▁genannt	-2450
▁umgebung	-2451
änden	-2452
▁regel	-2453
▁benutzt	-2454
▁soziale	-2455
ator	-2456
▁blut	-2457
▁faszin	-2458
▁gezeigt	-2459
▁stellte	-2460
les	-2461
▁gesp	-2462
▁straßen	-2463
▁bedeutung	-2464
pa	-2465
▁dor	-2466
▁sonst	-2467
zw	-2468
aner	-2469
▁fuß	-2470
teilt	-2471
▁gere	-2472
zeitig	-2473
▁fahren	-2474
▁formen	-2475
▁prinzip	-2476
rum	-2477
▁z.	-2478
▁sym	-2479
▁engl	-2480
▁alten	-2481
ängen	-2482
▁schrei	-2483
▁richtige	-2484
enn	-2485
roffen	-2486
▁fehler	-2487
sprechen	-2488
mar	-2489
▁tür	-2490
▁mögen	-2491
▁rolle	-2492
▁sofort	-2493
▁vorstellung	-2494
ame	-2495
mung	-2496
änge	-2497
▁sor	-2498
unkte	-2499
wegen	-2500
▁älter	-2501
▁entfernt	-2502
▁kan	-2503
▁amerika	-2504
era	-2505
haft	-2506
▁lok	-2507
▁ziehen	-2508
▁versuche	-2509
▁internation	-2510
lten	-2511
▁rau	-2512
▁tie	-2513
▁priv	-2514
▁preis	-2515
▁bakter	-2516
▁erreicht	-2517
▁schlechte	-2518
▁eff	-2519
otion	-2520
▁größe	-2521
▁bekannt	-2522
▁veränderung	-2523
▁zeige	-2524
▁setzen	-2525
▁gegeben	-2526
▁pflanzen	-2527
▁mathematik	-2528
▁erfolgreich	-2529
imen	-2530
itäten	-2531
▁anges	-2532
▁fertig	-2533
▁länger	-2534
▁nachzu	-2535
tzut	-2536
ändig	-2537
▁abge	-2538
▁goog	-2539
▁moral	-2540
▁regen	-2541
asen	-2542
lagen	-2543
tzutage	-2544
▁gingen	-2545
▁hälfte	-2546
▁forschung	-2547
▁heutzutage	-2548
▁199	-2549
ument	-2550
▁mitte	-2551
▁ähnlich	-2552
▁jemanden	-2553
▁herausforderung	-2554
ari	-2555
digen	-2556
eiden	-2557
▁hoffe	-2558
▁emotion	-2559
▁übrigen	-2560
kre	-2561
zep	-2562
▁bekam	-2563
geführt	-2564
▁offensichtlich	-2565
ers	-2566
▁phil	-2567
▁wesent	-2568
rop	-2569
ror	-2570
▁tot	-2571
▁west	-2572
▁hinzu	-2573
▁vortrag	-2574
-st	-2575
▁regier	-2576
▁meinung	-2577
äume	-2578
▁dna	-2579
▁papier	-2580
▁absolut	-2581
lang	-2582
immel	-2583
▁jung	-2584
▁wann	-2585
▁weltweit	-2586
zer	-2587
▁dau	-2588
▁strom	-2589
▁interessiert	-2590
▁11	-2591
iesen	-2592
▁wand	-2593
▁straße	-2594
itter	-2595
▁bücher	-2596
▁voraus	-2597
▁einfache	-2598
▁app	-2599
▁brachte	-2600
▁wachstum	-2601
üch	-2602
viel	-2603
arbeiten	-2604
▁einfluss	-2605
▁genommen	-2606
verb	-2607
▁dra	-2608
sphäre	-2609
▁mitgefühl	-2610
hnen	-2611
▁zeu	-2612
iment	-2613
▁urspr	-2614
▁entwicklungs	-2615
sor	-2616
tau	-2617
▁geboren	-2618
▁komplett	-2619
▁ga	-2620
wasser	-2621
▁generation	-2622
fol	-2623
▁tod	-2624
lefon	-2625
▁prak	-2626
▁realität	-2627
▁trotzdem	-2628
▁fähigkeiten	-2629
▁test	-2630
dessen	-2631
▁stre	-2632
ierend	-2633
▁liegen	-2634
▁geschieht	-2635
ose	-2636
jenigen	-2637
▁sc	-2638
legt	-2639
wind	-2640
▁moder	-2641
▁nennt	-2642
▁poten	-2643
▁identi	-2644
▁online	-2645
▁schmer	-2646
ka	-2647
ieg	-2648
abhäng	-2649
▁gesamte	-2650
▁schneller	-2651
▁ök	-2652
▁wind	-2653
▁rechts	-2654
▁fantast	-2655
▁maschine	-2656
wirtschaft	-2657
▁vergessen	-2658
▁gleichzeitig	-2659
ales	-2660
▁leist	-2661
▁städte	-2662
struktur	-2663
▁einzelne	-2664
▁erwachsen	-2665
▁geschrieben	-2666
▁normalerweise	-2667
rist	-2668
ktive	-2669
▁europa	-2670
▁experimen	-2671
trä	-2672
▁pe	-2673
ister	-2674
stens	-2675
ftware	-2676
▁machten	-2677
▁ergebnis	-2678
▁fortschr	-2679
▁vereinigten	-2680
▁durchschnitt	-2681
ichtet	-2682
▁erkennt	-2683
reg	-2684
▁tragen	-2685
oten	-2686
▁sob	-2687
ratie	-2688
ologen	-2689
▁firma	-2690
bildung	-2691
gru	-2692
vie	-2693
▁oper	-2694
▁verurs	-2695
▁vertrauen	-2696
▁entscheidungen	-2697
bew	-2698
krie	-2699
▁000	-2700
ummer	-2701
▁gutes	-2702
▁erschein	-2703
-pro	-2704
ätzen	-2705
▁finde	-2706
▁ta	-2707
isse	-2708
▁diag	-2709
▁einst	-2710
▁regeln	-2711
▁studie	-2712
tist	-2713
▁rede	-2714
▁benutz	-2715
▁dachten	-2716
▁wichtige	-2717
▁90	-2718
▁my	-2719
alle	-2720
feld	-2721
daten	-2722
techn	-2723
endung	-2724
▁gesprochen	-2725
▁oberfläche	-2726
▁nachrichten	-2727
▁akt	-2728
▁krei	-2729
▁nahe	-2730
uellen	-2731
▁jahrz	-2732
▁sonne	-2733
▁kompli	-2734
▁dadurch	-2735
▁außerdem	-2736
▁wichtiger	-2737
▁aufmerksamkeit	-2738
▁herauszufinden	-2739
▁bot	-2740
▁hig	-2741
üssel	-2742
▁monat	-2743
▁google	-2744
▁auswirk	-2745
▁schulen	-2746
▁beziehung	-2747
chan	-2748
ösen	-2749
▁bald	-2750
▁gebur	-2751
▁begannen	-2752
▁übrigens	-2753
glie	-2754
▁sign	-2755
▁druck	-2756
▁ansehen	-2757
▁bestimmt	-2758
▁et	-2759
▁hy	-2760
schung	-2761
▁gelegen	-2762
▁zuminde	-2763
▁bemerken	-2764
▁beobachten	-2765
▁interessante	-2766
a-	-2767
tikel	-2768
indungen	-2769
mpfen	-2770
▁fühl	-2771
▁karte	-2772
▁großer	-2773
▁gruppen	-2774
▁produkt	-2775
▁ra	-2776
ussen	-2777
▁enor	-2778
▁trau	-2779
▁vorbei	-2780
▁speziel	-2781
▁einzelnen	-2782
isst	-2783
essour	-2784
▁prote	-2785
▁sobald	-2786
▁verlassen	-2787
beh	-2788
▁ord	-2789
▁nachhal	-2790
▁bewusstsein	-2791
dert	-2792
schu	-2793
schw	-2794
ählt	-2795
▁effe	-2796
▁deine	-2797
▁schla	-2798
▁wussten	-2799
▁lauf	-2800
bin	-2801
kam	-2802
lex	-2803
istan	-2804
amerik	-2805
▁bewegt	-2806
▁seiten	-2807
fik	-2808
hnung	-2809
▁stil	-2810
▁früher	-2811
▁keiner	-2812
▁kontrolle	-2813
▁passierte	-2814
▁zumindest	-2815
üss	-2816
▁ziv	-2817
▁dorf	-2818
▁neun	-2819
▁meter	-2820
ragt	-2821
▁sim	-2822
▁einzu	-2823
▁reaktion	-2824
▁gearbeitet	-2825
mu	-2826
▁heim	-2827
▁jahrzeh	-2828
▁bedeuten	-2829
▁ermöglich	-2830
obil	-2831
uchs	-2832
wand	-2833
essern	-2834
gendes	-2835
▁sahen	-2836
▁sitzen	-2837
gebracht	-2838
▁grenzen	-2839
ons	-2840
zte	-2841
nete	-2842
▁san	-2843
▁hoffnung	-2844
▁innovation	-2845
▁16	-2846
stru	-2847
▁arme	-2848
▁begr	-2849
▁sorgen	-2850
▁verständ	-2851
▁versuchte	-2852
▁bevölkerung	-2853
▁hü	-2854
flik	-2855
▁baum	-2856
▁fisch	-2857
▁großes	-2858
▁sozialen	-2859
pen	-2860
▁14	-2861
▁see	-2862
▁konzept	-2863
ath	-2864
win	-2865
artet	-2866
eltsam	-2867
schlag	-2868
▁zufäl	-2869
▁positiv	-2870
▁bestimmten	-2871
▁ressour	-2872
▁abzu	-2873
▁kons	-2874
▁spre	-2875
▁seltsam	-2876
▁experiment	-2877
▁denkt	-2878
▁kannst	-2879
▁ton	-2880
▁bess	-2881
sweise	-2882
uchten	-2883
▁himmel	-2884
▁wörter	-2885
▁monaten	-2886
go	-2887
ry	-2888
bild	-2889
zies	-2890
▁hiv	-2891
▁redu	-2892
▁spaß	-2893
▁erwäh	-2894
▁japan	-2895
▁anschauen	-2896
▁universität	-2897
az	-2898
hand	-2899
tiger	-2900
▁dien	-2901
▁häuf	-2902
▁taten	-2903
▁ständig	-2904
▁demokratie	-2905
▁orte	-2906
▁echte	-2907
ith	-2908
atte	-2909
▁ant	-2910
▁exp	-2911
ätze	-2912
setzt	-2913
▁mitt	-2914
▁rund	-2915
wissen	-2916
▁geschehen	-2917
seh	-2918
▁dahin	-2919
▁personen	-2920
▁verlieren	-2921
▁menschheit	-2922
geh	-2923
▁kür	-2924
▁gala	-2925
▁präsen	-2926
▁studien	-2927
▁gewinnen	-2928
▁richtigen	-2929
▁ind	-2930
herap	-2931
ielle	-2932
orfen	-2933
quenz	-2934
▁stamm	-2935
▁bilden	-2936
▁verfol	-2937
▁software	-2938
▁tausende	-2939
▁möglichen	-2940
ub	-2941
stu	-2942
deten	-2943
orien	-2944
▁zugang	-2945
▁aufgrund	-2946
windigkeit	-2947
itär	-2948
lern	-2949
▁dro	-2950
blich	-2951
igner	-2952
rauch	-2953
▁webs	-2954
▁einge	-2955
▁feuer	-2956
gi	-2957
mmern	-2958
▁gerät	-2959
▁bleibt	-2960
▁af	-2961
▁and	-2962
▁car	-2963
schir	-2964
▁john	-2965
▁abend	-2966
▁orten	-2967
▁terror	-2968
▁nachbar	-2969
▁arbeitete	-2970
▁gek	-2971
schul	-2972
▁angef	-2973
▁schei	-2974
▁geheim	-2975
▁bessere	-2976
▁telefon	-2977
rad	-2978
▁freu	-2979
▁kern	-2980
▁sohn	-2981
▁galax	-2982
▁spezies	-2983
▁diejenigen	-2984
lam	-2985
▁hab	-2986
▁lag	-2987
orben	-2988
machen	-2989
werfen	-2990
▁produzieren	-2991
male	-2992
▁bat	-2993
▁vol	-2994
▁gebiet	-2995
▁erzählt	-2996
▁schreck	-2997
rab	-2998
öff	-2999
netz	-3000
▁mot	-3001
recht	-3002
eitung	-3003
▁leider	-3004
▁schüler	-3005
▁verbessern	-3006
▁zeug	-3007
▁armut	-3008
▁chris	-3009
▁spezi	-3010
schluss	-3011
▁irgendwo	-3012
50	-3013
kop	-3014
▁fü	-3015
onie	-3016
tiver	-3017
▁lief	-3018
▁höher	-3019
▁näher	-3020
zeichnet	-3021
▁aussieht	-3022
o-	-3023
▁il	-3024
▁train	-3025
▁allgemein	-3026
▁th	-3027
etzen	-3028
nehmer	-3029
▁zivil	-3030
ins	-3031
▁kr	-3032
▁deta	-3033
▁uner	-3034
▁entwe	-3035
▁vergangenheit	-3036
▁ebene	-3037
▁voller	-3038
▁bakterien	-3039
▁beispiele	-3040
oss	-3041
ull	-3042
abel	-3043
▁bri	-3044
▁kaum	-3045
▁landes	-3046
▁arbeitet	-3047
▁sprachen	-3048
▁unmöglich	-3049
öst	-3050
▁sto	-3051
eisen	-3052
räfte	-3053
▁winz	-3054
ferenz	-3055
▁ernähr	-3056
▁firmen	-3057
▁nachricht	-3058
zun	-3059
▁17	-3060
ograph	-3061
▁trans	-3062
▁wieso	-3063
▁konflik	-3064
▁befinden	-3065
▁wirklichkeit	-3066
iter	-3067
ühne	-3068
▁uhr	-3069
▁behau	-3070
▁nenne	-3071
▁tagen	-3072
▁biolog	-3073
▁unabhäng	-3074
▁verbesser	-3075
▁entscheidung	-3076
▁außen	-3077
▁hände	-3078
▁führte	-3079
▁70	-3080
rise	-3081
ächen	-3082
▁fein	-3083
▁sowohl	-3084
▁erlaubt	-3085
▁gesamten	-3086
▁sekunden	-3087
▁großartige	-3088
▁grü	-3089
▁erhö	-3090
▁region	-3091
▁erzeugen	-3092
▁nachzudenken	-3093
ct	-3094
tim	-3095
▁wü	-3096
inge	-3097
▁sod	-3098
▁haut	-3099
ulation	-3100
▁altern	-3101
▁profess	-3102
▁gebracht	-3103
▁entdecken	-3104
ack	-3105
▁alte	-3106
▁berg	-3107
▁log	-3108
▁wün	-3109
▁traf	-3110
▁linie	-3111
▁ebenso	-3112
▁kombin	-3113
▁theorie	-3114
▁krankheiten	-3115
▁kommunikation	-3116
arf	-3117
▁äu	-3118
ossen	-3119
▁warten	-3120
▁erfahren	-3121
▁vorstell	-3122
▁antworten	-3123
ark	-3124
ums	-3125
plan	-3126
rech	-3127
stes	-3128
▁pil	-3129
press	-3130
▁sand	-3131
stehen	-3132
▁chines	-3133
▁objekt	-3134
▁frieden	-3135
▁solchen	-3136
▁bestimmte	-3137
teile	-3138
▁arbeits	-3139
▁entweder	-3140
-t	-3141
▁bus	-3142
▁mäch	-3143
▁wechs	-3144
▁sammeln	-3145
▁dasselbe	-3146
▁englisch	-3147
▁verbinden	-3148
▁zusammenh	-3149
▁amerikaner	-3150
ama	-3151
äte	-3152
öpf	-3153
▁201	-3154
raten	-3155
▁präsi	-3156
▁bienen	-3157
▁handeln	-3158
ina	-3159
ital	-3160
ühle	-3161
▁ker	-3162
produ	-3163
twend	-3164
zimmer	-3165
▁dritte	-3166
▁mittler	-3167
▁amerikanischen	-3168
eits	-3169
iker	-3170
ssen	-3171
▁deut	-3172
▁höch	-3173
▁quad	-3174
peratur	-3175
▁spielt	-3176
licherweise	-3177
▁ressourcen	-3178
ix	-3179
fre	-3180
abil	-3181
falt	-3182
werke	-3183
▁runter	-3184
▁verste	-3185
▁gekommen	-3186
▁regierungen	-3187
ball	-3188
▁baby	-3189
▁wohn	-3190
ativen	-3191
▁bezug	-3192
▁worte	-3193
▁fangen	-3194
▁sodass	-3195
▁riesige	-3196
▁ergebnisse	-3197
▁auswirkungen	-3198
seite	-3199
▁kohlen	-3200
größ	-3201
▁flü	-3202
genie	-3203
tierte	-3204
erstoff	-3205
▁gefäng	-3206
▁hundert	-3207
▁leidenschaft	-3208
▁198	-3209
ütter	-3210
▁anti	-3211
ssystem	-3212
▁bisher	-3213
▁entschieden	-3214
ützt	-3215
▁erwei	-3216
▁fotograf	-3217
▁national	-3218
▁charakter	-3219
▁institution	-3220
▁13	-3221
bert	-3222
grün	-3223
lose	-3224
▁hum	-3225
▁laut	-3226
reitet	-3227
▁hilft	-3228
▁innen	-3229
izieren	-3230
▁welcher	-3231
ox	-3232
lan	-3233
mäß	-3234
wart	-3235
▁för	-3236
altet	-3237
izien	-3238
▁stol	-3239
▁wein	-3240
änomen	-3241
▁ereig	-3242
▁gespr	-3243
tischer	-3244
▁gefragt	-3245
▁verstanden	-3246
▁dür	-3247
stern	-3248
▁denk	-3249
▁heil	-3250
▁höhe	-3251
▁einzig	-3252
▁lachen	-3253
▁dritten	-3254
▁leisten	-3255
▁notwend	-3256
▁untersuchen	-3257
get	-3258
ils	-3259
volle	-3260
▁hält	-3261
▁brust	-3262
▁fotos	-3263
isation	-3264
▁strate	-3265
▁arbeite	-3266
▁million	-3267
▁statist	-3268
▁kollegen	-3269
▁außerhalb	-3270
▁medikamen	-3271
latz	-3272
▁autom	-3273
▁perfe	-3274
ingungen	-3275
▁entdeckt	-3276
▁verstand	-3277
▁ermöglicht	-3278
haf	-3279
lige	-3280
stag	-3281
eitet	-3282
▁lust	-3283
▁verz	-3284
▁berüh	-3285
ierende	-3286
▁gewöhn	-3287
▁messen	-3288
hil	-3289
eite	-3290
▁rom	-3291
▁fluss	-3292
▁läuft	-3293
▁zeigte	-3294
▁ordnung	-3295
▁einander	-3296
▁unterschei	-3297
▁architektur	-3298
oli	-3299
wür	-3300
▁21	-3301
rochen	-3302
▁absch	-3303
▁ehrlich	-3304
▁las	-3305
üllen	-3306
▁fund	-3307
▁vern	-3308
altung	-3309
ichter	-3310
ometer	-3311
▁retten	-3312
▁methode	-3313
▁gestellt	-3314
▁schützen	-3315
▁organisation	-3316
stä	-3317
▁zwe	-3318
▁ausw	-3319
▁frem	-3320
▁beruf	-3321
▁kampf	-3322
▁sinne	-3323
▁jahres	-3324
▁erstens	-3325
▁gründen	-3326
▁handelt	-3327
▁ingenie	-3328
▁systeme	-3329
▁herausfinden	-3330
▁lebt	-3331
▁finger	-3332
▁nieder	-3333
▁ursprün	-3334
▁verdien	-3335
mpf	-3336
aktiv	-3337
▁enth	-3338
assung	-3339
mitteln	-3340
trieben	-3341
▁chance	-3342
▁eigent	-3343
▁letztes	-3344
▁geschaffen	-3345
fa	-3346
rig	-3347
samm	-3348
▁kol	-3349
▁trei	-3350
ierter	-3351
▁hörte	-3352
▁könig	-3353
▁unver	-3354
▁wohin	-3355
▁nahrung	-3356
▁schlimm	-3357
▁befindet	-3358
▁globalen	-3359
▁herstellen	-3360
ek	-3361
abr	-3362
amm	-3363
▁cool	-3364
laufen	-3365
▁geburt	-3366
▁nummer	-3367
▁schmerz	-3368
▁bestehen	-3369
▁erzählte	-3370
▁freiheit	-3371
▁maschinen	-3372
▁betrachtet	-3373
▁krankenhaus	-3374
rate	-3375
▁bean	-3376
▁hirn	-3377
mension	-3378
▁herunter	-3379
▁phänomen	-3380
▁wundersch	-3381
ghan	-3382
▁läch	-3383
▁schm	-3384
nungen	-3385
▁geräu	-3386
▁liebl	-3387
▁motiv	-3388
▁schaut	-3389
▁zunächst	-3390
▁einkommen	-3391
▁verständnis	-3392
▁co2	-3393
iegen	-3394
▁bege	-3395
▁hart	-3396
▁nerv	-3397
▁park	-3398
▁belie	-3399
▁erfahr	-3400
▁meeres	-3401
▁spiele	-3402
arbeiter	-3403
▁flugzeug	-3404
▁unterstützen	-3405
ca	-3406
rt	-3407
ürf	-3408
ante	-3409
ynam	-3410
▁ach	-3411
▁blo	-3412
▁mark	-3413
ständig	-3414
zunehmen	-3415
▁partner	-3416
▁einzigen	-3417
▁interesse	-3418
▁hor	-3419
▁wol	-3420
anische	-3421
▁afghan	-3422
▁schwarz	-3423
▁deswegen	-3424
▁irgendein	-3425
▁schlüssel	-3426
▁wiederhol	-3427
-ma	-3428
▁ca.	-3429
-jähr	-3430
seits	-3431
ktoren	-3432
▁mehrere	-3433
leg	-3434
oph	-3435
▁kop	-3436
ausen	-3437
▁gele	-3438
▁inse	-3439
▁mars	-3440
schirm	-3441
▁farbe	-3442
▁wesen	-3443
▁artikel	-3444
▁getroffen	-3445
eid	-3446
räsen	-3447
▁büro	-3448
▁ökon	-3449
stoffe	-3450
▁angeb	-3451
▁bühne	-3452
barkeit	-3453
ktionen	-3454
▁unterstütz	-3455
▁lo	-3456
arte	-3457
äuser	-3458
▁klin	-3459
▁gründe	-3460
urg	-3461
▁ei	-3462
▁umf	-3463
▁ausl	-3464
▁vari	-3465
▁suche	-3466
▁betrie	-3467
▁drogen	-3468
▁selben	-3469
▁verhin	-3470
▁hunderte	-3471
▁ebenfalls	-3472
astrop	-3473
iellen	-3474
wandel	-3475
▁kreis	-3476
schiede	-3477
▁verkaufen	-3478
rier	-3479
asche	-3480
rifft	-3481
stände	-3482
▁punkte	-3483
sätzlich	-3484
▁erleben	-3485
▁öffentlichen	-3486
b.	-3487
üll	-3488
▁of	-3489
▁arzt	-3490
▁hall	-3491
▁muse	-3492
▁name	-3493
▁dauer	-3494
greifen	-3495
▁klasse	-3496
▁gehirns	-3497
▁erwarten	-3498
▁position	-3499
▁behandlung	-3500
ed	-3501
ulti	-3502
leist	-3503
▁setz	-3504
selben	-3505
▁beweg	-3506
sichtig	-3507
▁geschah	-3508
▁netzwerk	-3509
▁wunderbar	-3510
▁zeitpunkt	-3511
eisch	-3512
▁armen	-3513
▁traum	-3514
▁sozial	-3515
▁erinnere	-3516
bed	-3517
▁1,	-3518
ande	-3519
takt	-3520
▁desto	-3521
▁herzen	-3522
▁stunde	-3523
▁militär	-3524
▁lösungen	-3525
▁untersuch	-3526
▁grundlegen	-3527
kur	-3528
▁km	-3529
▁mär	-3530
itann	-3531
riere	-3532
schte	-3533
▁aufw	-3534
▁stei	-3535
passen	-3536
▁guter	-3537
ulieren	-3538
▁rechte	-3539
▁folgendes	-3540
buch	-3541
gest	-3542
▁gil	-3543
▁pop	-3544
▁säu	-3545
▁behaup	-3546
▁schönheit	-3547
▁außergewöhn	-3548
▁erstaunlich	-3549
hi	-3550
zut	-3551
▁as	-3552
gibt	-3553
önen	-3554
▁dok	-3555
▁fen	-3556
masch	-3557
▁ball	-3558
▁gewe	-3559
▁naja	-3560
▁indust	-3561
gefunden	-3562
▁spricht	-3563
▁stimmen	-3564
▁zweitens	-3565
▁beziehungen	-3566
▁stattdessen	-3567
▁unglaubliche	-3568
hle	-3569
pag	-3570
rän	-3571
▁ag	-3572
ffer	-3573
stik	-3574
▁fällt	-3575
▁selten	-3576
▁wenige	-3577
möglichen	-3578
▁erfunden	-3579
▁jahrhunderts	-3580
hy	-3581
ehme	-3582
geht	-3583
organ	-3584
stück	-3585
▁hört	-3586
▁gewal	-3587
▁tisch	-3588
▁verrückt	-3589
▁gefängnis	-3590
▁erfahrungen	-3591
ps	-3592
äst	-3593
afft	-3594
▁500	-3595
laden	-3596
▁grad	-3597
▁high	-3598
gebaut	-3599
▁kenne	-3600
▁risiko	-3601
▁öffnen	-3602
▁standard	-3603
sage	-3604
krieg	-3605
▁jene	-3606
▁instr	-3607
▁mobil	-3608
zusagen	-3609
▁nahmen	-3610
▁heutigen	-3611
▁schicken	-3612
▁wichtigste	-3613
▁veränderungen	-3614
bi	-3615
maß	-3616
gere	-3617
izei	-3618
▁ign	-3619
ittel	-3620
▁hilf	-3621
liegen	-3622
▁optim	-3623
▁ärzte	-3624
▁fallen	-3625
▁fühlte	-3626
▁kontin	-3627
▁behandeln	-3628
öse	-3629
ahlt	-3630
wärts	-3631
▁lond	-3632
▁nahr	-3633
ielten	-3634
▁gehir	-3635
▁abhäng	-3636
▁aussch	-3637
▁kamera	-3638
▁einfachen	-3639
▁klimawandel	-3640
▁x	-3641
orn	-3642
vel	-3643
ifor	-3644
▁gehe	-3645
▁hung	-3646
▁trin	-3647
▁wege	-3648
indust	-3649
schutz	-3650
▁niedr	-3651
▁schutz	-3652
▁wählen	-3653
itannien	-3654
▁gedacht	-3655
▁ep	-3656
▁bal	-3657
inder	-3658
maßen	-3659
▁ignor	-3660
▁sommer	-3661
▁spitze	-3662
ild	-3663
ober	-3664
▁arg	-3665
▁pau	-3666
▁tru	-3667
ahmen	-3668
artig	-3669
gaben	-3670
▁darf	-3671
▁trag	-3672
▁zeiten	-3673
industrie	-3674
▁ausdruck	-3675
geschichte	-3676
frastruktur	-3677
bli	-3678
pfl	-3679
ton	-3680
▁bu	-3681
▁dopp	-3682
▁echt	-3683
▁seien	-3684
▁äußer	-3685
▁vermut	-3686
▁endlich	-3687
▁globale	-3688
▁schrift	-3689
▁jemandem	-3690
▁angefangen	-3691
▁überraschen	-3692
cks	-3693
▁pal	-3694
alist	-3695
ragen	-3696
▁auge	-3697
▁vorh	-3698
▁z.b.	-3699
▁ahnung	-3700
alisierung	-3701
▁eigenschaften	-3702
gl	-3703
gien	-3704
üllt	-3705
dings	-3706
teilen	-3707
▁liste	-3708
▁gewinn	-3709
▁massen	-3710
▁worten	-3711
▁begeister	-3712
ket	-3713
▁dr.	-3714
iforn	-3715
istor	-3716
scher	-3717
raucht	-3718
brechen	-3719
▁bedürf	-3720
▁ganzes	-3721
▁lernte	-3722
▁rechten	-3723
▁designer	-3724
-n	-3725
zü	-3726
▁zi	-3727
iete	-3728
bewer	-3729
ießen	-3730
▁nütz	-3731
▁titel	-3732
spielen	-3733
▁gering	-3734
britannien	-3735
wick	-3736
▁kla	-3737
▁tem	-3738
eller	-3739
▁inte	-3740
▁weib	-3741
▁bäume	-3742
▁spekt	-3743
alismus	-3744
▁farben	-3745
▁zustand	-3746
▁biologie	-3747
▁produkte	-3748
▁bemerkens	-3749
▁sauerstoff	-3750
els	-3751
prü	-3752
▁rot	-3753
▁komme	-3754
▁zusch	-3755
▁freude	-3756
▁london	-3757
▁tieren	-3758
▁trifft	-3759
▁interessanter	-3760
▁landwirtschaft	-3761
ane	-3762
keln	-3763
tens	-3764
▁mut	-3765
▁wun	-3766
ühren	-3767
▁legen	-3768
▁tolle	-3769
drücken	-3770
▁einsch	-3771
▁frühen	-3772
▁fällen	-3773
▁häufig	-3774
▁waffen	-3775
▁aufgenommen	-3776
▁materialien	-3777
▁konzentrieren	-3778
üst	-3779
▁197	-3780
▁amp	-3781
▁schwei	-3782
▁verfüg	-3783
▁wandel	-3784
▁fenster	-3785
▁spreche	-3786
▁projekte	-3787
▁verfügung	-3788
ote	-3789
ron	-3790
odell	-3791
reise	-3792
entlich	-3793
▁erstes	-3794
▁schlag	-3795
▁größere	-3796
▁polizei	-3797
▁nächstes	-3798
app	-3799
gor	-3800
▁24	-3801
▁ke	-3802
anda	-3803
othe	-3804
▁del	-3805
▁tal	-3806
auern	-3807
gress	-3808
hilfe	-3809
▁ansatz	-3810
▁bestand	-3811
▁eigenes	-3812
▁entlang	-3813
▁beantwor	-3814
▁freunden	-3815
▁verbringen	-3816
▁kontrollieren	-3817
▁gu	-3818
ourn	-3819
▁300	-3820
afrik	-3821
örung	-3822
▁halb	-3823
▁heran	-3824
▁motor	-3825
▁neuer	-3826
▁werte	-3827
haltung	-3828
▁mechan	-3829
▁seines	-3830
▁vertei	-3831
▁erzeugt	-3832
▁verhält	-3833
▁gegangen	-3834
▁nahrungs	-3835
▁repräsen	-3836
▁entstehen	-3837
▁existiert	-3838
▁sicherlich	-3839
▁beit	-3840
▁bill	-3841
▁gang	-3842
▁merk	-3843
▁nähe	-3844
▁steu	-3845
▁wald	-3846
ochter	-3847
▁jugend	-3848
▁geschle	-3849
▁knochen	-3850
▁begonnen	-3851
▁fortschritt	-3852
bol	-3853
text	-3854
▁jün	-3855
isser	-3856
ühlen	-3857
tigung	-3858
▁zelle	-3859
▁besuch	-3860
▁reicht	-3861
▁schöne	-3862
▁entfern	-3863
▁größeren	-3864
▁allerdings	-3865
▁infrastruktur	-3866
▁verantwortung	-3867
wa	-3868
ged	-3869
▁sm	-3870
ende	-3871
ogel	-3872
oper	-3873
losen	-3874
▁atmo	-3875
▁beteil	-3876
▁westen	-3877
▁dennoch	-3878
▁männern	-3879
▁schluss	-3880
▁erlauben	-3881
▁großbritannien	-3882
üsse	-3883
▁blog	-3884
▁face	-3885
▁habt	-3886
▁wett	-3887
▁islam	-3888
▁stolz	-3889
setzung	-3890
▁kämpfen	-3891
▁herzustellen	-3892
abt	-3893
▁wa	-3894
ährt	-3895
mente	-3896
sagen	-3897
▁david	-3898
▁osten	-3899
▁geschafft	-3900
▁werkzeuge	-3901
▁auseinander	-3902
▁gelegenheit	-3903
▁kreativität	-3904
itu	-3905
ool	-3906
gier	-3907
▁hom	-3908
▁ken	-3909
hause	-3910
wechs	-3911
▁proje	-3912
vention	-3913
▁tochter	-3914
▁brauchte	-3915
▁industrie	-3916
▁wichtigsten	-3917
anke	-3918
ickt	-3919
mmun	-3920
▁hey	-3921
▁fett	-3922
▁gilt	-3923
▁iran	-3924
▁kauf	-3925
▁ließ	-3926
▁tanz	-3927
▁fühlt	-3928
▁somit	-3929
frieden	-3930
▁riesigen	-3931
▁irgendwann	-3932
▁nö	-3933
künf	-3934
▁196	-3935
ement	-3936
stadt	-3937
▁fran	-3938
▁dorthin	-3939
▁industr	-3940
▁version	-3941
▁neuronen	-3942
tu	-3943
ami	-3944
▁tim	-3945
▁arab	-3946
▁brot	-3947
▁glas	-3948
orgung	-3949
▁schim	-3950
▁dunkel	-3951
▁haupts	-3952
▁plastik	-3953
▁elektron	-3954
▁weiterhin	-3955
sh	-3956
üben	-3957
▁neg	-3958
ttern	-3959
▁klingt	-3960
▁privat	-3961
▁depress	-3962
▁genutzt	-3963
▁beeinflusst	-3964
tät	-3965
▁ed	-3966
▁bud	-3967
▁red	-3968
▁ten	-3969
▁zit	-3970
mögen	-3971
▁prot	-3972
▁rech	-3973
lieben	-3974
untern	-3975
▁klassen	-3976
▁kompliz	-3977
-e	-3978
▁it	-3979
book	-3980
geln	-3981
▁mex	-3982
▁wal	-3983
bruch	-3984
frage	-3985
meter	-3986
▁atom	-3987
▁leid	-3988
▁nehme	-3989
▁rücken	-3990
minister	-3991
▁dagegen	-3992
▁unsicht	-3993
▁verletz	-3994
▁einfacher	-3995
▁temperatur	-3996
▁gesundheits	-3997
stre	-3998
ufen	-3999
ächt	-4000
▁tum	-4001
ilien	-4002
▁isra	-4003
formen	-4004
▁kennt	-4005
▁sogen	-4006
osystem	-4007
▁konstru	-4008
alisieren	-4009
zubringen	-4010
▁gefangen	-4011
▁karriere	-4012
geschlossen	-4013
▁produziert	-4014
▁geschwindigkeit	-4015
asi	-4016
urm	-4017
ckte	-4018
stab	-4019
▁loch	-4020
▁temp	-4021
▁langen	-4022
▁ameisen	-4023
▁überras	-4024
▁deutlich	-4025
▁investieren	-4026
▁beeinflussen	-4027
▁unterschiede	-4028
cy	-4029
arm	-4030
▁fok	-4031
bieren	-4032
entwick	-4033
▁karten	-4034
▁verrück	-4035
▁stellten	-4036
▁fernsehen	-4037
▁komplexität	-4038
▁letztendlich	-4039
▁zusammenhang	-4040
ttet	-4041
krank	-4042
▁them	-4043
ration	-4044
▁opfer	-4045
▁passen	-4046
▁philos	-4047
zeichnen	-4048
▁entsteht	-4049
▁zufällig	-4050
▁entschied	-4051
▁reagieren	-4052
▁ermöglichen	-4053
▁medikamente	-4054
up	-4055
leun	-4056
▁zäh	-4057
erken	-4058
heben	-4059
neten	-4060
zlich	-4061
▁mond	-4062
gorith	-4063
▁typen	-4064
▁kostet	-4065
▁begriff	-4066
▁gewicht	-4067
▁zuhause	-4068
▁vielfalt	-4069
▁werkzeug	-4070
▁wiederum	-4071
woh	-4072
enze	-4073
▁holz	-4074
▁mass	-4075
▁davor	-4076
▁eröff	-4077
▁hielt	-4078
▁virus	-4079
stellte	-4080
tisches	-4081
spektive	-4082
▁gefühle	-4083
▁zeichen	-4084
▁dieselbe	-4085
▁intervie	-4086
▁erstellen	-4087
▁verbindungen	-4088
-in	-4089
arch	-4090
▁che	-4091
▁end	-4092
▁wär	-4093
▁band	-4094
▁port	-4095
▁russ	-4096
▁spür	-4097
tember	-4098
treten	-4099
▁autor	-4100
▁fühle	-4101
▁klass	-4102
dimension	-4103
▁aufgaben	-4104
▁effizien	-4105
▁botschaft	-4106
▁politische	-4107
ana	-4108
gri	-4109
hör	-4110
▁fo	-4111
▁eth	-4112
▁sub	-4113
fälle	-4114
▁gold	-4115
tation	-4116
▁lasst	-4117
▁töten	-4118
spieler	-4119
▁kunden	-4120
▁einsatz	-4121
▁kilometer	-4122
▁ökosystem	-4123
▁produktion	-4124
▁vermutlich	-4125
▁hoffentlich	-4126
▁üb	-4127
▁cam	-4128
▁imp	-4129
▁bras	-4130
▁satz	-4131
▁klang	-4132
▁reisen	-4133
▁verwir	-4134
▁ändert	-4135
▁fernseh	-4136
▁meistens	-4137
▁verkauft	-4138
▁studieren	-4139
▁fak	-4140
▁not	-4141
folge	-4142
istenz	-4143
▁gaben	-4144
▁halte	-4145
▁solch	-4146
▁entspr	-4147
verständ	-4148
▁materie	-4149
▁zentrum	-4150
▁insekten	-4151
▁geschäfts	-4152
▁erforschen	-4153
▁existieren	-4154
pfel	-4155
fisch	-4156
tiere	-4157
▁2000	-4158
nissen	-4159
▁akzep	-4160
▁todes	-4161
▁großteil	-4162
▁religion	-4163
▁verursacht	-4164
▁afghanistan	-4165
▁lebensmittel	-4166
▁entwicklungsl	-4167
gabe	-4168
umente	-4169
bereich	-4170
▁israel	-4171
▁ausbildung	-4172
▁politischen	-4173
▁gesellschaften	-4174
ds	-4175
oge	-4176
▁ku	-4177
fekt	-4178
kele	-4179
osau	-4180
otyp	-4181
▁aid	-4182
▁erl	-4183
▁result	-4184
▁demokra	-4185
▁kontakt	-4186
▁schafft	-4187
▁verkauf	-4188
▁gewonnen	-4189
▁übertragen	-4190
▁wunderschön	-4191
▁unterstützung	-4192
loss	-4193
▁asp	-4194
▁dün	-4195
▁kir	-4196
haben	-4197
igung	-4198
▁fach	-4199
digung	-4200
wohner	-4201
▁roten	-4202
▁zentr	-4203
▁kurzem	-4204
▁vorber	-4205
▁werfen	-4206
▁wunsch	-4207
▁tausend	-4208
▁weiteres	-4209
▁beschreiben	-4210
-c	-4211
mel	-4212
ling	-4213
▁con	-4214
▁ehe	-4215
▁sal	-4216
▁dreh	-4217
▁dynam	-4218
▁minde	-4219
▁stoff	-4220
zwischen	-4221
▁sekunde	-4222
▁steigen	-4223
▁schwarze	-4224
▁behandelt	-4225
▁benötigen	-4226
▁herausgefunden	-4227
▁zusammenarbeit	-4228
hei	-4229
ente	-4230
gern	-4231
stau	-4232
vier	-4233
▁bom	-4234
▁mel	-4235
▁saß	-4236
▁web	-4237
▁golf	-4238
▁irak	-4239
gramme	-4240
heorie	-4241
vollen	-4242
▁genom	-4243
▁unbed	-4244
▁vogel	-4245
▁weiss	-4246
isieren	-4247
▁drehen	-4248
▁städten	-4249
▁facebook	-4250
▁gestalten	-4251
▁universums	-4252
▁hintergrund	-4253
▁kommunizieren	-4254
üle	-4255
▁jo	-4256
jahr	-4257
uder	-4258
ildet	-4259
▁müll	-4260
▁umzu	-4261
▁begeg	-4262
▁journ	-4263
▁drittel	-4264
▁relativ	-4265
▁betrifft	-4266
▁erinnert	-4267
▁schimpan	-4268
▁soldaten	-4269
ungssystem	-4270
▁vollkommen	-4271
zy	-4272
▁yo	-4273
anne	-4274
▁dom	-4275
▁sep	-4276
▁zut	-4277
krebs	-4278
liten	-4279
▁anru	-4280
gleich	-4281
▁linken	-4282
ifornien	-4283
▁alleine	-4284
▁diskuss	-4285
▁neugier	-4286
▁stecken	-4287
▁qualität	-4288
▁atmosphäre	-4289
ens	-4290
sse	-4291
unt	-4292
iden	-4293
iell	-4294
itzt	-4295
lege	-4296
halte	-4297
schlä	-4298
▁bloß	-4299
▁chir	-4300
▁koll	-4301
▁abges	-4302
▁babys	-4303
▁metap	-4304
▁sterne	-4305
▁buchstä	-4306
▁spieler	-4307
▁benötigt	-4308
▁überzeugt	-4309
▁bedingungen	-4310
sb	-4311
stein	-4312
▁furch	-4313
▁wirst	-4314
fiziert	-4315
zusehen	-4316
änglich	-4317
▁berühm	-4318
▁stress	-4319
▁umgehen	-4320
▁gemeinde	-4321
▁unbedingt	-4322
▁verdienen	-4323
d-	-4324
ong	-4325
▁tw	-4326
twas	-4327
▁bio	-4328
reibt	-4329
▁jobs	-4330
▁ungl	-4331
gruppe	-4332
▁basis	-4333
▁dreht	-4334
▁niger	-4335
▁sitzt	-4336
▁solar	-4337
▁sowie	-4338
teilung	-4339
tierten	-4340
▁selber	-4341
▁erklärt	-4342
▁bezahlen	-4343
▁schließen	-4344
▁sozusagen	-4345
▁intelligenz	-4346
ames	-4347
bank	-4348
▁rat	-4349
▁sil	-4350
frist	-4351
teles	-4352
▁affen	-4353
▁gefäl	-4354
▁handy	-4355
steller	-4356
▁nochmal	-4357
▁objekte	-4358
▁wahrneh	-4359
▁effektiv	-4360
▁entwerfen	-4361
▁verbreitet	-4362
abe	-4363
ppt	-4364
fter	-4365
stimm	-4366
▁feld	-4367
▁hund	-4368
▁szen	-4369
▁schäd	-4370
▁stein	-4371
▁automa	-4372
▁hinweg	-4373
▁integr	-4374
▁lautet	-4375
▁modernen	-4376
▁fundament	-4377
▁identität	-4378
▁konferenz	-4379
▁natürliche	-4380
▁organisationen	-4381
ada	-4382
▁gä	-4383
▁ol	-4384
angt	-4385
digt	-4386
fern	-4387
fest	-4388
▁text	-4389
▁bewir	-4390
▁sport	-4391
zeichen	-4392
▁berech	-4393
▁bitten	-4394
▁konsum	-4395
▁religi	-4396
▁kontext	-4397
▁perfekt	-4398
▁verkehr	-4399
▁augenblick	-4400
▁möglicherweise	-4401
▁veröffentlicht	-4402
uz	-4403
▁ki	-4404
eien	-4405
▁emp	-4406
träge	-4407
▁fabr	-4408
mutter	-4409
▁erzie	-4410
▁gross	-4411
▁masse	-4412
▁starb	-4413
▁mitten	-4414
richtung	-4415
schlagen	-4416
▁falsche	-4417
▁modelle	-4418
▁besitzen	-4419
▁besseren	-4420
▁verfolgen	-4421
▁beschäftigt	-4422
▁interaktion	-4423
▁durchgeführt	-4424
▁entwickelten	-4425
amin	-4426
sver	-4427
▁bank	-4428
▁laufe	-4429
▁radio	-4430
▁diagno	-4431
▁dienst	-4432
▁themen	-4433
▁zukünf	-4434
▁anderem	-4435
▁mitglie	-4436
▁eindruck	-4437
technologie	-4438
▁bildschirm	-4439
▁buchstäblich	-4440
▁amerikanische	-4441
zur	-4442
ille	-4443
inne	-4444
▁null	-4445
▁bewer	-4446
▁multi	-4447
▁weder	-4448
▁geräte	-4449
▁schlau	-4450
▁weiteren	-4451
▁katastrop	-4452
▁unternehmer	-4453
▁vergleichen	-4454
ttel	-4455
▁fei	-4456
▁tex	-4457
▁dick	-4458
▁austr	-4459
▁hohen	-4460
▁kaffe	-4461
▁woher	-4462
herapie	-4463
schauen	-4464
schrift	-4465
▁lieber	-4466
▁reichen	-4467
chtigkeit	-4468
ungskraft	-4469
▁erwartet	-4470
▁korallen	-4471
▁schlimmer	-4472
-w	-4473
▁b.	-4474
ingu	-4475
▁sam	-4476
▁syn	-4477
ätsel	-4478
▁getr	-4479
▁prim	-4480
schule	-4481
▁testen	-4482
▁geführt	-4483
▁gegenteil	-4484
▁milliarde	-4485
▁hauptsächlich	-4486
rah	-4487
bewe	-4488
ptop	-4489
▁ass	-4490
▁fle	-4491
ichen	-4492
▁astr	-4493
▁bett	-4494
▁ehem	-4495
▁hohe	-4496
▁roman	-4497
▁satel	-4498
geladen	-4499
▁histor	-4500
▁bildern	-4501
▁fragten	-4502
▁führung	-4503
▁kümmern	-4504
▁galaxien	-4505
▁gegensei	-4506
▁gewissen	-4507
▁leistung	-4508
▁beschleun	-4509
▁problemen	-4510
▁kohlenstoff	-4511
lu	-4512
ole	-4513
▁ev	-4514
werte	-4515
▁geor	-4516
▁virt	-4517
reffen	-4518
▁beine	-4519
▁frank	-4520
▁franz	-4521
▁freiw	-4522
gewicht	-4523
▁bauern	-4524
▁meilen	-4525
▁vision	-4526
▁fleisch	-4527
▁forscher	-4528
▁interagieren	-4529
▁mc	-4530
▁150	-4531
▁20.	-4532
▁cha	-4533
▁daß	-4534
▁mos	-4535
tiker	-4536
▁klei	-4537
artige	-4538
▁extra	-4539
▁jungs	-4540
▁liter	-4541
ächtnis	-4542
▁erster	-4543
▁europä	-4544
▁mütter	-4545
▁sauber	-4546
▁symbol	-4547
▁worüber	-4548
orgt	-4549
sinn	-4550
▁400	-4551
▁prü	-4552
▁ruh	-4553
▁usw	-4554
zität	-4555
▁e-ma	-4556
▁ecke	-4557
zeiten	-4558
▁museum	-4559
▁steckt	-4560
▁gestern	-4561
▁täglich	-4562
▁gelangen	-4563
▁bestimmen	-4564
▁präsident	-4565
▁vorhanden	-4566
▁wettbewer	-4567
▁gefährlich	-4568
▁überrascht	-4569
▁überzeugen	-4570
ieß	-4571
▁ac	-4572
omie	-4573
▁getö	-4574
▁angel	-4575
▁fragt	-4576
▁schiff	-4577
▁stabil	-4578
alisiert	-4579
▁teilchen	-4580
▁zurückzu	-4581
▁praktisch	-4582
▁persönlich	-4583
▁wunderbare	-4584
markt	-4585
▁halt	-4586
afrika	-4587
▁colle	-4588
▁studi	-4589
▁restau	-4590
▁geschen	-4591
▁kindheit	-4592
▁zunehmen	-4593
-re	-4594
deu	-4595
rup	-4596
▁hyp	-4597
▁orig	-4598
▁rand	-4599
testen	-4600
▁hängt	-4601
▁könnt	-4602
▁stift	-4603
▁analys	-4604
▁bedroh	-4605
▁nerven	-4606
▁wächst	-4607
▁gesetze	-4608
▁irgende	-4609
▁einsetzen	-4610
hö	-4611
band	-4612
wood	-4613
ößen	-4614
▁tue	-4615
tigte	-4616
▁city	-4617
▁laden	-4618
▁total	-4619
▁haufen	-4620
▁begrenz	-4621
▁welchen	-4622
▁strukturen	-4623
▁verhindern	-4624
▁irgendetwas	-4625
▁institutionen	-4626
by	-4627
▁ox	-4628
▁vö	-4629
ramm	-4630
tert	-4631
▁kno	-4632
▁mem	-4633
▁seh	-4634
platz	-4635
ations	-4636
▁setzt	-4637
achtung	-4638
▁belohn	-4639
▁dürfen	-4640
▁algorith	-4641
▁gewisser	-4642
▁scheinen	-4643
▁verbracht	-4644
▁erinnerung	-4645
▁mindestens	-4646
ac	-4647
lös	-4648
▁1.	-4649
adem	-4650
ford	-4651
klus	-4652
lekt	-4653
▁ven	-4654
hafte	-4655
proble	-4656
▁drama	-4657
▁gehabt	-4658
▁glaubt	-4659
▁steuern	-4660
▁verzwei	-4661
▁kürzlich	-4662
▁aktivität	-4663
▁interview	-4664
▁kalifornien	-4665
▁wesentlichen	-4666
▁verantwortlich	-4667
mon	-4668
pft	-4669
serv	-4670
▁bekä	-4671
▁ment	-4672
▁filme	-4673
quenzen	-4674
▁bruder	-4675
▁norden	-4676
▁rätsel	-4677
▁videos	-4678
▁gewisse	-4679
▁begeistert	-4680
▁verwandeln	-4681
▁vollständig	-4682
eng	-4683
far	-4684
kan	-4685
kor	-4686
▁35	-4687
▁ban	-4688
terie	-4689
▁eure	-4690
▁zell	-4691
▁holen	-4692
▁kurze	-4693
itionen	-4694
▁gefahr	-4695
▁gewebe	-4696
▁liefer	-4697
▁willen	-4698
osaurier	-4699
▁genauer	-4700
▁unglück	-4701
▁landschaft	-4702
▁interessieren	-4703
▁öffentlichkeit	-4704
lü	-4705
ash	-4706
dit	-4707
let	-4708
met	-4709
pre	-4710
▁ah	-4711
▁hi	-4712
▁trend	-4713
▁heimat	-4714
▁intens	-4715
▁erzähle	-4716
▁morgens	-4717
▁patient	-4718
blichkeit	-4719
▁philosoph	-4720
▁versuchten	-4721
-te	-4722
lev	-4723
rag	-4724
▁col	-4725
▁deb	-4726
reite	-4727
▁post	-4728
▁wild	-4729
atoren	-4730
ändert	-4731
▁angew	-4732
▁sucht	-4733
▁zimmer	-4734
▁elektro	-4735
▁getötet	-4736
richtungen	-4737
▁angesehen	-4738
▁schimpansen	-4739
▁öffentliche	-4740
▁verschwinden	-4741
mann	-4742
▁kra	-4743
geber	-4744
▁maus	-4745
lionen	-4746
▁lernt	-4747
▁ziele	-4748
▁händen	-4749
▁rahmen	-4750
▁schaff	-4751
▁steuer	-4752
▁bemerkt	-4753
▁vorteil	-4754
kn	-4755
del	-4756
fun	-4757
▁nan	-4758
▁wow	-4759
▁wäh	-4760
hingt	-4761
nimmt	-4762
▁kamer	-4763
▁schönen	-4764
▁spiegel	-4765
▁experten	-4766
▁unterscheiden	-4767
-h	-4768
▁rä	-4769
dige	-4770
esch	-4771
läss	-4772
wohn	-4773
▁anh	-4774
▁aufs	-4775
isiert	-4776
ktiven	-4777
▁flüss	-4778
▁teuer	-4779
hington	-4780
▁dauert	-4781
▁zucker	-4782
▁einiger	-4783
▁england	-4784
▁seitdem	-4785
▁eingesetzt	-4786
kr	-4787
gyp	-4788
bahn	-4789
idem	-4790
äden	-4791
▁fig	-4792
▁unw	-4793
▁us-	-4794
tiges	-4795
usion	-4796
zelle	-4797
▁mund	-4798
▁volk	-4799
▁bieten	-4800
▁erhält	-4801
▁minute	-4802
maschine	-4803
stellten	-4804
▁element	-4805
▁gedanke	-4806
▁restauran	-4807
▁arbeiteten	-4808
▁washington	-4809
fil	-4810
izi	-4811
sal	-4812
pekt	-4813
▁les	-4814
▁impf	-4815
▁sitz	-4816
▁folge	-4817
agement	-4818
▁riesen	-4819
▁weißen	-4820
▁überle	-4821
▁gehirne	-4822
▁richard	-4823
▁schaute	-4824
▁schnitt	-4825
▁twitter	-4826
▁aufhören	-4827
▁normalen	-4828
▁entworfen	-4829
anen	-4830
▁lan	-4831
▁tor	-4832
▁umge	-4833
gesell	-4834
▁stimm	-4835
▁unend	-4836
bewesen	-4837
▁beweis	-4838
▁deinen	-4839
▁hoffen	-4840
▁häuser	-4841
▁nannte	-4842
▁basiert	-4843
▁bekamen	-4844
▁mission	-4845
▁normale	-4846
▁wenigen	-4847
▁gespräch	-4848
▁september	-4849
▁erkenntnis	-4850
ba	-4851
par	-4852
urf	-4853
▁inn	-4854
▁rie	-4855
fügen	-4856
▁fiel	-4857
▁mess	-4858
▁tiefe	-4859
gegeben	-4860
▁grenze	-4861
▁lustig	-4862
fizieren	-4863
▁erfinden	-4864
▁gehalten	-4865
▁mögliche	-4866
▁nationen	-4867
▁geschlecht	-4868
▁beantworten	-4869
lieb	-4870
▁ref	-4871
macht	-4872
▁dran	-4873
▁kogn	-4874
▁pfer	-4875
zeugen	-4876
▁konse	-4877
▁musli	-4878
▁nutzt	-4879
▁symme	-4880
▁wahre	-4881
▁fische	-4882
▁müsste	-4883
▁quadrat	-4884
▁verbrau	-4885
▁moleküle	-4886
▁ungewöhn	-4887
▁schwester	-4888
▁hergestellt	-4889
▁unterschiedlich	-4890
hlt	-4891
▁nu	-4892
wegs	-4893
üste	-4894
▁gas	-4895
holen	-4896
trieb	-4897
▁aufst	-4898
▁brenn	-4899
▁demon	-4900
▁schne	-4901
▁10.000	-4902
▁darwin	-4903
▁meiste	-4904
▁schlagen	-4905
▁schwimmen	-4906
▁verbreiten	-4907
▁experimente	-4908
opp	-4909
▁ap	-4910
tial	-4911
▁dur	-4912
▁tab	-4913
fahrt	-4914
gerät	-4915
fische	-4916
kehren	-4917
▁toile	-4918
amerika	-4919
▁ausgeb	-4920
▁fehlen	-4921
▁korrup	-4922
▁kräfte	-4923
▁laptop	-4924
▁ließen	-4925
▁starke	-4926
ologische	-4927
▁lieblings	-4928
▁zeitalter	-4929
▁dinosaurier	-4930
zäh	-4931
auber	-4932
ologe	-4933
▁intu	-4934
▁schlä	-4935
▁trägt	-4936
▁beinah	-4937
▁echten	-4938
▁kooper	-4939
▁schien	-4940
▁schlie	-4941
▁college	-4942
▁stärker	-4943
unternehmen	-4944
▁satelliten	-4945
▁fantastisch	-4946
▁perspektive	-4947
▁0	-4948
spl	-4949
▁ech	-4950
▁zog	-4951
▁boot	-4952
▁gäbe	-4953
utzung	-4954
▁disku	-4955
flächen	-4956
ordnung	-4957
▁vieler	-4958
▁elektri	-4959
▁verschl	-4960
▁abhängig	-4961
▁ungleich	-4962
▁aufregend	-4963
▁gegensatz	-4964
▁geheimnis	-4965
▁professor	-4966
▁zufrieden	-4967
▁entdeckung	-4968
▁entstanden	-4969
▁forschungs	-4970
ym	-4971
pagne	-4972
▁cent	-4973
▁ägyp	-4974
fragen	-4975
▁block	-4976
▁domin	-4977
▁voran	-4978
meister	-4979
▁entsch	-4980
▁grafik	-4981
▁brauche	-4982
▁gehören	-4983
▁langwei	-4984
▁überprü	-4985
▁entspricht	-4986
▁verhaltens	-4987
ov	-4988
ian	-4989
von	-4990
▁klu	-4991
ffekt	-4992
▁drin	-4993
▁grös	-4994
▁reag	-4995
▁unge	-4996
stelle	-4997
uliert	-4998
▁erleb	-4999
▁wisst	-5000
▁wobei	-5001
führung	-5002
▁zählen	-5003
▁inneren	-5004
▁moderne	-5005
▁behalten	-5006
ologischen	-5007
▁brasilien	-5008
▁organismen	-5009
wissenschaft	-5010
▁entwickelte	-5011
dy	-5012
ara	-5013
cis	-5014
eut	-5015
use	-5016
▁cy	-5017
fach	-5018
iven	-5019
▁wik	-5020
▁anim	-5021
▁gras	-5022
▁stat	-5023
gesetz	-5024
▁still	-5025
▁unbek	-5026
istisch	-5027
▁aufgew	-5028
▁doktor	-5029
▁drüben	-5030
▁dutzen	-5031
▁erlebt	-5032
▁beinhal	-5033
▁bezahlt	-5034
▁gelesen	-5035
▁körpers	-5036
▁respekt	-5037
▁erkannte	-5038
▁brauchten	-5039
▁lebewesen	-5040
▁mittleren	-5041
▁politiker	-5042
tex	-5043
iten	-5044
▁21.	-5045
▁bie	-5046
ierer	-5047
ängst	-5048
▁dumm	-5049
▁elef	-5050
iertes	-5051
swesen	-5052
▁insel	-5053
▁musst	-5054
▁parad	-5055
▁radik	-5056
artigen	-5057
▁astron	-5058
▁dunkle	-5059
▁planet	-5060
bewegung	-5061
▁interpre	-5062
▁wichtigen	-5063
▁angenommen	-5064
▁schlechten	-5065
rid	-5066
yse	-5067
üte	-5068
akte	-5069
pern	-5070
▁bon	-5071
fluss	-5072
kosten	-5073
▁hallo	-5074
▁krise	-5075
▁lebte	-5076
▁passt	-5077
▁repar	-5078
▁abstra	-5079
▁kurzen	-5080
▁schock	-5081
▁buchsta	-5082
▁kriegen	-5083
fähigkeit	-5084
▁entschul	-5085
▁hinsicht	-5086
▁konflikt	-5087
▁methoden	-5088
stellungen	-5089
▁schwarzen	-5090
▁zuschauer	-5091
▁erscheinen	-5092
▁entsprechen	-5093
▁generationen	-5094
oc	-5095
amt	-5096
dru	-5097
gas	-5098
▁tu	-5099
flug	-5100
asste	-5101
phone	-5102
▁dach	-5103
▁jähr	-5104
▁roll	-5105
derung	-5106
▁viren	-5107
▁weißt	-5108
▁zweck	-5109
schland	-5110
▁furcht	-5111
▁helden	-5112
▁einheit	-5113
▁aufbauen	-5114
▁brachten	-5115
▁gemeinden	-5116
▁definieren	-5117
▁zugänglich	-5118
nü	-5119
pol	-5120
til	-5121
kurr	-5122
ular	-5123
▁len	-5124
▁ros	-5125
ischt	-5126
komme	-5127
▁frie	-5128
riften	-5129
▁folgt	-5130
▁hotel	-5131
▁verpf	-5132
ständen	-5133
▁fakten	-5134
▁wellen	-5135
▁einstein	-5136
▁elemente	-5137
▁geändert	-5138
▁bewegungen	-5139
▁individuen	-5140
▁verbrachte	-5141
▁wahrnehmung	-5142
▁internationale	-5143
,5	-5144
-v	-5145
kä	-5146
lad	-5147
▁45	-5148
frau	-5149
▁feu	-5150
▁leg	-5151
▁wom	-5152
dient	-5153
▁lied	-5154
fallen	-5155
▁milch	-5156
▁times	-5157
▁aspekt	-5158
▁auftau	-5159
▁kaffee	-5160
▁linien	-5161
▁stammt	-5162
▁wetter	-5163
▁fördern	-5164
▁kapital	-5165
▁starten	-5166
▁viertel	-5167
▁anwenden	-5168
▁gefahren	-5169
▁prototyp	-5170
▁gestorben	-5171
▁reduzieren	-5172
▁schlechter	-5173
▁erwachsenen	-5174
▁elektrizität	-5175
▁veröffentlich	-5176
▁internationalen	-5177
för	-5178
org	-5179
kopf	-5180
äuse	-5181
▁bra	-5182
besch	-5183
▁ermu	-5184
▁isol	-5185
▁fängt	-5186
▁halbe	-5187
alisten	-5188
▁ausmaß	-5189
▁verlie	-5190
▁theater	-5191
▁entgegen	-5192
▁ersetzen	-5193
▁weltraum	-5194
▁abschluss	-5195
▁zerstören	-5196
▁beschlossen	-5197
uhr	-5198
berg	-5199
hyth	-5200
▁tom	-5201
mäßig	-5202
▁aids	-5203
▁atem	-5204
▁fuhr	-5205
▁stad	-5206
werden	-5207
▁meist	-5208
▁schie	-5209
▁weile	-5210
▁garten	-5211
▁nachts	-5212
▁träume	-5213
▁wolken	-5214
ographie	-5215
zusetzen	-5216
▁spielte	-5217
▁beweisen	-5218
▁komplexe	-5219
▁nützlich	-5220
▁schatten	-5221
▁netzwerke	-5222
▁verfügbar	-5223
▁wohlstand	-5224
▁überlegen	-5225
▁erstaunliche	-5226
▁traditionellen	-5227
.c	-5228
asa	-5229
res	-5230
rale	-5231
▁stau	-5232
▁blind	-5233
▁besitz	-5234
▁eindeu	-5235
▁sparen	-5236
▁wander	-5237
▁beinahe	-5238
▁details	-5239
▁verbindet	-5240
▁natürlichen	-5241
▁beschäftigen	-5242
▁beispielsweise	-5243
üge	-5244
▁99	-5245
nahm	-5246
▁code	-5247
▁live	-5248
aturen	-5249
fangen	-5250
gehend	-5251
recher	-5252
spruch	-5253
▁behin	-5254
▁paten	-5255
▁wagen	-5256
zentrum	-5257
▁schlaf	-5258
▁ansicht	-5259
▁beweise	-5260
▁francis	-5261
▁konkurr	-5262
▁maßstab	-5263
▁beschrän	-5264
▁beschloss	-5265
▁besondere	-5266
issenschaft	-5267
▁wesentlich	-5268
▁grundlegende	-5269
▁medizinische	-5270
▁schwierigkeiten	-5271
utt	-5272
hung	-5273
klen	-5274
rige	-5275
öpfe	-5276
ühlt	-5277
▁erm	-5278
▁kerl	-5279
▁rote	-5280
schrän	-5281
▁nötig	-5282
▁wuchs	-5283
▁übrig	-5284
▁dauern	-5285
▁größen	-5286
▁lebten	-5287
▁berechn	-5288
▁fischer	-5289
▁gefällt	-5290
▁geistes	-5291
▁schaden	-5292
▁umgeben	-5293
▁website	-5294
▁überein	-5295
▁transpar	-5296
▁emotionen	-5297
▁entdeckte	-5298
▁erklärung	-5299
▁deutschland	-5300
möglichkeiten	-5301
▁zivilisation	-5302
ehm	-5303
gro	-5304
passt	-5305
▁zuzu	-5306
umenten	-5307
▁erwart	-5308
▁inhalt	-5309
▁school	-5310
programm	-5311
▁ausgest	-5312
▁derzeit	-5313
▁install	-5314
▁werbung	-5315
mensionen	-5316
▁annehmen	-5317
▁arbeiter	-5318
▁zerstört	-5319
ban	-5320
tro	-5321
hält	-5322
ippe	-5323
mord	-5324
skop	-5325
sser	-5326
▁off	-5327
schau	-5328
olitik	-5329
▁blieb	-5330
▁pingu	-5331
▁quasi	-5332
▁chemik	-5333
▁heißen	-5334
▁setzte	-5335
▁willst	-5336
▁zusätz	-5337
▁gericht	-5338
▁vergröß	-5339
▁zeichnen	-5340
▁aufgebaut	-5341
▁erscheint	-5342
▁intellekt	-5343
▁operation	-5344
▁darstellen	-5345
▁jedenfalls	-5346
▁verhältnis	-5347
ls	-5348
ns	-5349
tä	-5350
jem	-5351
ube	-5352
äne	-5353
aria	-5354
▁fru	-5355
bares	-5356
fähig	-5357
wagen	-5358
rechte	-5359
▁bemüh	-5360
▁verab	-5361
fordert	-5362
gruppen	-5363
sprache	-5364
▁anteil	-5365
▁steigt	-5366
▁sequenz	-5367
▁nachbarn	-5368
▁vorfahren	-5369
▁beobachtet	-5370
▁mitarbeiter	-5371
▁selbstverständ	-5372
uß	-5373
dia	-5374
▁ew	-5375
▁sl	-5376
▁ve	-5377
0ern	-5378
eben	-5379
ufel	-5380
▁anb	-5381
▁lass	-5382
▁witz	-5383
▁worl	-5384
üchern	-5385
▁fähig	-5386
▁platt	-5387
▁stufe	-5388
▁vorne	-5389
▁weiße	-5390
▁zitat	-5391
▁christ	-5392
▁durchs	-5393
▁pflanz	-5394
▁schuld	-5395
endungen	-5396
▁gebeten	-5397
▁solange	-5398
▁spannen	-5399
▁freundin	-5400
▁vermitteln	-5401
▁schrecklich	-5402
▁situationen	-5403
▁grundsätzlich	-5404
da	-5405
fir	-5406
ozi	-5407
eise	-5408
herr	-5409
ones	-5410
▁got	-5411
▁pun	-5412
▁roh	-5413
▁sum	-5414
tzeit	-5415
▁baut	-5416
▁kosm	-5417
▁spir	-5418
▁feind	-5419
▁fälle	-5420
▁kohle	-5421
▁konfr	-5422
▁anführ	-5423
▁mexiko	-5424
▁tiefer	-5425
▁erwähnt	-5426
▁französ	-5427
▁hindern	-5428
▁verdopp	-5429
istischen	-5430
▁vertraut	-5431
▁bereichen	-5432
▁irgendjem	-5433
▁langfrist	-5434
▁interessen	-5435
▁korruption	-5436
▁unabhängig	-5437
▁allgemeinen	-5438
mma	-5439
prä	-5440
▁erg	-5441
linge	-5442
ungs-	-5443
▁qual	-5444
▁teen	-5445
▁bibli	-5446
▁toten	-5447
stimmen	-5448
▁enorme	-5449
▁handel	-5450
▁soviel	-5451
▁streit	-5452
▁mächtig	-5453
▁müssten	-5454
▁solcher	-5455
▁verring	-5456
▁kulturen	-5457
▁schlafen	-5458
▁angesicht	-5459
▁geschickt	-5460
▁notwendig	-5461
▁großmutter	-5462
▁feststellen	-5463
see	-5464
vin	-5465
ügt	-5466
▁kö	-5467
▁pak	-5468
▁süß	-5469
ehren	-5470
▁bele	-5471
▁gemü	-5472
▁kreuz	-5473
▁vögel	-5474
▁ausgel	-5475
▁herein	-5476
▁junger	-5477
▁quelle	-5478
▁singen	-5479
▁umfeld	-5480
▁verblü	-5481
▁auswahl	-5482
▁italien	-5483
forschung	-5484
▁aufnahme	-5485
▁folgende	-5486
▁lebenser	-5487
▁schätzen	-5488
versorgung	-5489
▁digitalen	-5490
▁diskussion	-5491
▁inspiriert	-5492
▁medikament	-5493
▁persönlichen	-5494
yr	-5495
zig	-5496
▁dre	-5497
lager	-5498
unken	-5499
▁rake	-5500
▁zahn	-5501
▁anrei	-5502
▁bestä	-5503
▁enden	-5504
▁lager	-5505
▁stuhl	-5506
▁tumor	-5507
▁world	-5508
▁erlaub	-5509
▁lehren	-5510
▁signal	-5511
▁ökonom	-5512
ktivität	-5513
▁schreib	-5514
isationen	-5515
▁besuchen	-5516
▁verteilt	-5517
▁kontinent	-5518
▁strategie	-5519
▁buchstaben	-5520
▁definition	-5521
▁vorhersagen	-5522
▁mr	-5523
eten	-5524
frei	-5525
vard	-5526
▁mas	-5527
▁urs	-5528
▁lich	-5529
▁wurz	-5530
tismus	-5531
▁letzt	-5532
▁stock	-5533
▁wofür	-5534
▁achten	-5535
▁effekt	-5536
▁freien	-5537
▁kochen	-5538
▁langer	-5539
▁treten	-5540
▁vergew	-5541
istische	-5542
▁hierher	-5543
▁student	-5544
▁versteht	-5545
▁aufnehmen	-5546
▁betroffen	-5547
▁aufzubauen	-5548
▁westlichen	-5549
▁persönliche	-5550
hel	-5551
igte	-5552
kung	-5553
oben	-5554
ulpt	-5555
▁wäl	-5556
▁zeh	-5557
erung	-5558
kreis	-5559
▁open	-5560
▁rief	-5561
▁seid	-5562
▁enorm	-5563
▁start	-5564
▁tests	-5565
▁zieht	-5566
▁chemie	-5567
▁diesel	-5568
▁grünen	-5569
▁kannte	-5570
▁zauber	-5571
▁molekül	-5572
▁verhand	-5573
▁bedenken	-5574
▁bereiche	-5575
▁erstellt	-5576
▁jahrzehnt	-5577
▁australien	-5578
▁untersucht	-5579
▁architekten	-5580
alog	-5581
ugel	-5582
▁top	-5583
ember	-5584
riffe	-5585
sätze	-5586
▁hind	-5587
▁obje	-5588
▁spät	-5589
kelett	-5590
▁gehör	-5591
▁blauen	-5592
▁ergibt	-5593
▁heisst	-5594
qualität	-5595
▁lokalen	-5596
▁anderson	-5597
▁diagramm	-5598
▁entstand	-5599
▁geräusch	-5600
▁gespielt	-5601
▁anwendung	-5602
▁beinhaltet	-5603
▁gegenseitig	-5604
▁schwieriger	-5605
▁unterstützt	-5606
▁faszinierend	-5607
öd	-5608
int	-5609
ipe	-5610
pha	-5611
reu	-5612
reif	-5613
▁air	-5614
ancen	-5615
eilen	-5616
mmert	-5617
othek	-5618
weile	-5619
▁brut	-5620
▁male	-5621
▁grüne	-5622
▁ledig	-5623
▁süden	-5624
▁hinten	-5625
▁mittag	-5626
▁rechen	-5627
issionen	-5628
▁besitzt	-5629
▁harvard	-5630
▁lächeln	-5631
▁malaria	-5632
▁besessen	-5633
▁gefallen	-5634
▁mehrheit	-5635
▁transpor	-5636
▁tausenden	-5637
▁vermeiden	-5638
▁verbessert	-5639
▁erinnerungen	-5640
▁unterrichten	-5641
tan	-5642
itel	-5643
kton	-5644
olly	-5645
ston	-5646
üche	-5647
▁att	-5648
karte	-5649
staat	-5650
ublik	-5651
▁haar	-5652
▁heiß	-5653
▁juli	-5654
▁seht	-5655
fernen	-5656
üstung	-5657
▁gehol	-5658
▁hunde	-5659
▁kapit	-5660
▁rhyth	-5661
▁seele	-5662
▁gegend	-5663
▁gelöst	-5664
▁sonder	-5665
▁stärke	-5666
▁vieles	-5667
▁worauf	-5668
▁berührt	-5669
▁niedrig	-5670
▁verlust	-5671
▁welchem	-5672
verbrauch	-5673
▁existenz	-5674
▁kreieren	-5675
▁ähnliche	-5676
▁lediglich	-5677
▁widerstand	-5678
▁irgendjemand	-5679
▁wirtschaftliche	-5680
hrop	-5681
iein	-5682
klär	-5683
▁abw	-5684
▁etc	-5685
▁jan	-5686
▁eier	-5687
▁fehl	-5688
▁wahn	-5689
▁yout	-5690
▁gemäl	-5691
▁manip	-5692
▁schen	-5693
gründet	-5694
▁modern	-5695
sprozess	-5696
▁standen	-5697
verhalten	-5698
▁dahinter	-5699
▁digitale	-5700
▁kognitiv	-5701
▁kongress	-5702
▁betrachte	-5703
▁entfernen	-5704
▁potential	-5705
po	-5706
akt	-5707
hes	-5708
eile	-5709
erne	-5710
hört	-5711
ender	-5712
nungs	-5713
tritt	-5714
▁entz	-5715
▁kate	-5716
▁prob	-5717
▁prop	-5718
▁synt	-5719
äusern	-5720
▁anstr	-5721
▁gesto	-5722
▁initi	-5723
▁unerw	-5724
▁bauten	-5725
▁rollen	-5726
▁teufel	-5727
▁tonnen	-5728
▁verknü	-5729
▁absicht	-5730
▁einiges	-5731
▁erkrank	-5732
▁risiken	-5733
▁zuhören	-5734
▁darunter	-5735
▁echtzeit	-5736
▁leistungs	-5737
▁teilweise	-5738
▁verlangen	-5739
▁zusammenf	-5740
▁überrasch	-5741
▁erwachsene	-5742
▁überwinden	-5743
▁menschlicher	-5744
s.	-5745
hre	-5746
ied	-5747
ram	-5748
▁flu	-5749
▁gre	-5750
▁pan	-5751
acher	-5752
hlung	-5753
kette	-5754
linie	-5755
▁grie	-5756
▁kurs	-5757
▁nett	-5758
▁real	-5759
iziert	-5760
reisen	-5761
▁blatt	-5762
▁hyper	-5763
einhalb	-5764
ließend	-5765
▁ausgew	-5766
▁blumen	-5767
▁epidem	-5768
▁herren	-5769
▁meinte	-5770
▁fahrrad	-5771
▁galaxie	-5772
▁grundle	-5773
▁liefern	-5774
▁wissens	-5775
▁youtube	-5776
▁äußerst	-5777
▁anschein	-5778
▁vergewal	-5779
▁verstehe	-5780
▁dieselben	-5781
▁wirkliche	-5782
▁geschlossen	-5783
▁afrikanischen	-5784
öh	-5785
ise	-5786
▁23	-5787
▁bä	-5788
hese	-5789
ores	-5790
▁pat	-5791
▁rum	-5792
barer	-5793
boden	-5794
ckten	-5795
denkt	-5796
viert	-5797
zieht	-5798
▁2008	-5799
▁droh	-5800
▁hell	-5801
▁phot	-5802
▁bauch	-5803
▁jewei	-5804
▁sowas	-5805
▁weihn	-5806
systeme	-5807
▁ausges	-5808
▁belieb	-5809
▁billig	-5810
▁george	-5811
▁mangel	-5812
▁winter	-5813
▁aussage	-5814
▁charles	-5815
▁erhöhen	-5816
▁freiwill	-5817
▁eindeutig	-5818
▁grundlage	-5819
▁instrument	-5820
▁übernehmen	-5821
▁beschrieben	-5822
▁kombination	-5823
▁kompliziert	-5824
zz	-5825
fig	-5826
heim	-5827
ktes	-5828
tere	-5829
▁bur	-5830
iveau	-5831
▁human	-5832
▁james	-5833
▁pfund	-5834
ausende	-5835
reibung	-5836
▁bedarf	-5837
▁gewiss	-5838
▁senden	-5839
▁vorder	-5840
besonder	-5841
▁konserv	-5842
▁meister	-5843
▁trocken	-5844
losigkeit	-5845
▁eingesch	-5846
▁gegenwart	-5847
▁aktivitäten	-5848
▁bedürfnisse	-5849
ago	-5850
ird	-5851
ire	-5852
beln	-5853
plom	-5854
▁11.	-5855
▁anp	-5856
▁täu	-5857
anger	-5858
weite	-5859
▁aspe	-5860
▁bund	-5861
▁höre	-5862
▁paul	-5863
▁fährt	-5864
▁kenia	-5865
ittlich	-5866
▁akadem	-5867
▁austau	-5868
▁gelebt	-5869
▁gesamt	-5870
▁gewohn	-5871
▁bildungs	-5872
▁spektrum	-5873
▁wertvoll	-5874
▁berichten	-5875
▁einfaches	-5876
▁veränderte	-5877
▁insbesonder	-5878
20	-5879
yl	-5880
ida	-5881
ley	-5882
▁wh	-5883
▁sur	-5884
räume	-5885
▁länd	-5886
▁skla	-5887
▁baute	-5888
▁blaue	-5889
▁kabel	-5890
▁stahl	-5891
▁befrei	-5892
▁besagt	-5893
▁brücke	-5894
▁fabrik	-5895
▁krimin	-5896
▁schätz	-5897
▁zufall	-5898
bevölker	-5899
▁komment	-5900
▁führungs	-5901
▁momentan	-5902
▁pakistan	-5903
▁positive	-5904
▁erfindung	-5905
▁gebraucht	-5906
▁gegründet	-5907
▁südafrika	-5908
▁gemeinsame	-5909
▁chemikalien	-5910
▁großartigen	-5911
leb	-5912
▁gö	-5913
adel	-5914
mehr	-5915
▁gig	-5916
▁ums	-5917
ehung	-5918
▁amaz	-5919
▁hing	-5920
▁lieb	-5921
fahrer	-5922
ichern	-5923
kungen	-5924
lösung	-5925
terial	-5926
wenden	-5927
▁brief	-5928
▁damen	-5929
▁drauf	-5930
▁folie	-5931
▁relev	-5932
▁market	-5933
▁mengen	-5934
▁überqu	-5935
pflanzen	-5936
▁afrikas	-5937
▁momente	-5938
▁quanten	-5939
▁verschm	-5940
▁wechsel	-5941
▁leichter	-5942
▁offenbar	-5943
▁perfekte	-5944
▁schritte	-5945
▁bekannten	-5946
▁transform	-5947
▁transport	-5948
bevölkerung	-5949
▁fasziniert	-5950
▁akzeptieren	-5951
▁statistiken	-5952
▁insbesondere	-5953
▁vorzustellen	-5954
▁funktionierte	-5955
▁ul	-5956
bern	-5957
gert	-5958
rett	-5959
▁brü	-5960
▁ill	-5961
menge	-5962
▁ausb	-5963
▁kühl	-5964
drückt	-5965
gesamt	-5966
haften	-5967
▁räume	-5968
▁versp	-5969
stoffen	-5970
▁aufbau	-5971
▁bietet	-5972
▁führer	-5973
▁kirche	-5974
▁lokale	-5975
▁lungen	-5976
▁ration	-5977
▁erhielt	-5978
▁glaubte	-5979
▁kapitel	-5980
▁konfron	-5981
▁lektion	-5982
▁nigeria	-5983
▁unteren	-5984
▁verstär	-5985
▁wieviel	-5986
▁zeitung	-5987
▁springen	-5988
▁wechseln	-5989
▁francisco	-5990
▁scheinbar	-5991
▁automatisch	-5992
▁interessantes	-5993
ati	-5994
kri	-5995
wen	-5996
asie	-5997
▁com	-5998
▁gal	-5999
▁hem	-6000
▁mic	-6001
amour	-6002
inken	-6003
▁nähr	-6004
bilden	-6005
ischem	-6006
▁küste	-6007
▁woran	-6008
▁zwang	-6009
▁amazon	-6010
▁konzep	-6011
▁nicht-	-6012
▁ozeane	-6013
▁manchen	-6014
▁übersch	-6015
▁besseres	-6016
▁ereignis	-6017
▁komponen	-6018
▁metapher	-6019
▁erweitern	-6020
▁speziellen	-6021
▁dargestellt	-6022
▁stammzellen	-6023
▁ursprünglich	-6024
▁überraschend	-6025
bas	-6026
bet	-6027
ikt	-6028
▁sä	-6029
ines	-6030
▁abl	-6031
zesse	-6032
ätter	-6033
▁alex	-6034
▁eink	-6035
▁kart	-6036
▁koch	-6037
achter	-6038
licken	-6039
stechn	-6040
▁nukle	-6041
▁stehe	-6042
▁wüste	-6043
▁anhand	-6044
▁e-mail	-6045
▁leiten	-6046
▁origin	-6047
▁völker	-6048
▁anerken	-6049
▁drücken	-6050
▁glamour	-6051
▁nervenz	-6052
▁signale	-6053
▁trinken	-6054
▁wirkung	-6055
▁zweifel	-6056
▁erlebnis	-6057
▁lebendig	-6058
▁kostenlos	-6059
▁bezeichnen	-6060
▁geburtstag	-6061
▁einstellung	-6062
▁terrorismus	-6063
▁menschliches	-6064
önt	-6065
ühe	-6066
▁75	-6067
▁hu	-6068
tend	-6069
▁19.	-6070
▁600	-6071
▁höl	-6072
▁stir	-6073
bstoff	-6074
tigten	-6075
tionen	-6076
▁atmen	-6077
▁erdbe	-6078
▁jener	-6079
▁profi	-6080
▁steve	-6081
▁vorzu	-6082
lischen	-6083
▁ausger	-6084
▁diplom	-6085
▁fingen	-6086
▁gottes	-6087
▁innere	-6088
▁löcher	-6089
▁neurow	-6090
▁skulpt	-6091
▁ansieht	-6092
▁weshalb	-6093
▁zeigten	-6094
▁zweimal	-6095
▁russland	-6096
▁literatur	-6097
▁profession	-6098
▁verbrechen	-6099
▁verwandelt	-6100
▁gemeinsamen	-6101
▁präsentation	-6102
▁unterhaltung	-6103
▁gerechtigkeit	-6104
▁nachhaltigkeit	-6105
vo	-6106
ael	-6107
cyc	-6108
kat	-6109
ruh	-6110
uls	-6111
ging	-6112
illi	-6113
tive	-6114
▁abh	-6115
metho	-6116
▁froh	-6117
▁moch	-6118
▁show	-6119
design	-6120
nommen	-6121
▁korre	-6122
▁samen	-6123
itation	-6124
sterben	-6125
▁aktion	-6126
▁kanada	-6127
▁landen	-6128
▁realen	-6129
▁unfall	-6130
▁dauerte	-6131
▁enthält	-6132
▁teenager	-6133
▁unmittel	-6134
▁weiterer	-6135
▁elefanten	-6136
▁gebrochen	-6137
▁gedächtnis	-6138
▁moralische	-6139
gesellschaft	-6140
▁aufgewachsen	-6141
▁mittlerweile	-6142
▁unglaublichen	-6143
oo	-6144
-sh	-6145
alte	-6146
gelt	-6147
ward	-6148
▁ann	-6149
▁pra	-6150
▁wüs	-6151
behör	-6152
kontr	-6153
▁adam	-6154
▁farb	-6155
▁flex	-6156
▁lebe	-6157
▁sorg	-6158
▁stür	-6159
▁tour	-6160
bilder	-6161
dienst	-6162
lernen	-6163
quelle	-6164
▁immun	-6165
▁micro	-6166
▁phase	-6167
▁wovon	-6168
wechsel	-6169
örungen	-6170
▁anfing	-6171
▁hunger	-6172
▁merken	-6173
gelassen	-6174
jährigen	-6175
▁veranst	-6176
▁vorteile	-6177
▁webseite	-6178
▁behaupten	-6179
▁beobachte	-6180
▁ingenieur	-6181
▁verglichen	-6182
▁alternative	-6183
▁sicherheits	-6184
▁organisieren	-6185
ech	-6186
tze	-6187
▁ip	-6188
▁ri	-6189
▁u.	-6190
▁194	-6191
▁sar	-6192
dreht	-6193
▁2010	-6194
▁ener	-6195
▁erhe	-6196
▁glüh	-6197
▁nase	-6198
recken	-6199
▁gelie	-6200
▁rufen	-6201
▁sympt	-6202
▁teles	-6203
▁trick	-6204
▁ausser	-6205
▁iphone	-6206
▁rennen	-6207
leistung	-6208
▁bekomme	-6209
▁gewählt	-6210
▁treiben	-6211
▁anstelle	-6212
▁beeindru	-6213
▁bemerkte	-6214
▁falschen	-6215
▁geschenk	-6216
leistungen	-6217
▁folgenden	-6218
▁schicksal	-6219
▁beibringen	-6220
▁sogenannte	-6221
▁chinesische	-6222
▁fortschritte	-6223
hu	-6224
äft	-6225
iche	-6226
star	-6227
▁geg	-6228
▁nar	-6229
ahnen	-6230
utern	-6231
▁böse	-6232
▁chic	-6233
▁nasa	-6234
▁sing	-6235
▁misch	-6236
▁ohren	-6237
▁worum	-6238
richtet	-6239
▁abfall	-6240
▁alltag	-6241
▁kriegs	-6242
▁pflege	-6243
▁soweit	-6244
-jährige	-6245
▁führten	-6246
▁gebiete	-6247
▁hielten	-6248
▁merkwür	-6249
▁unsicher	-6250
▁betrieben	-6251
▁billionen	-6252
▁einschrän	-6253
▁geräusche	-6254
▁zusätzlich	-6255
▁ausstellung	-6256
▁darstellung	-6257
▁jahrzehnten	-6258
▁untersuchung	-6259
geschwindigkeit	-6260
bio	-6261
eis	-6262
hrt	-6263
sum	-6264
▁gt	-6265
▁lt	-6266
-ein	-6267
oxid	-6268
▁eli	-6269
▁okt	-6270
drück	-6271
ttung	-6272
▁auff	-6273
kräfte	-6274
ktiver	-6275
winkel	-6276
▁erhol	-6277
▁lügen	-6278
▁noten	-6279
▁spann	-6280
▁auspro	-6281
▁geschw	-6282
▁grosse	-6283
▁märkte	-6284
▁spüren	-6285
▁tanzen	-6286
▁welten	-6287
▁wikipe	-6288
▁erneuer	-6289
▁musiker	-6290
▁nutzung	-6291
▁tatsäch	-6292
▁verlang	-6293
arbeitung	-6294
▁geholfen	-6295
▁gesichter	-6296
▁komplexen	-6297
▁marketing	-6298
▁wenigstens	-6299
▁innovationen	-6300
▁medizinischen	-6301
rel	-6302
täu	-6303
ymp	-6304
▁2.	-6305
▁pho	-6306
▁tur	-6307
icken	-6308
ügend	-6309
▁bezü	-6310
▁quer	-6311
▁stan	-6312
bungen	-6313
dieren	-6314
▁asien	-6315
▁günst	-6316
▁hilfs	-6317
▁magie	-6318
▁zehnt	-6319
gedacht	-6320
ografie	-6321
▁hinauf	-6322
▁strand	-6323
▁wirken	-6324
isierung	-6325
material	-6326
▁erkannt	-6327
▁gekauft	-6328
▁michael	-6329
▁anführer	-6330
▁physikal	-6331
▁resultat	-6332
▁sichtbar	-6333
▁betreiben	-6334
▁bezüglich	-6335
▁enthalten	-6336
▁antwortete	-6337
▁durchführen	-6338
▁verschwunden	-6339
▁vorstellungen	-6340
-l	-6341
-an	-6342
-er	-6343
▁rö	-6344
andt	-6345
förm	-6346
nütz	-6347
phen	-6348
spar	-6349
zenz	-6350
zten	-6351
▁ath	-6352
asien	-6353
inter	-6354
gerung	-6355
tausen	-6356
ührung	-6357
▁horiz	-6358
▁schme	-6359
▁umher	-6360
tierung	-6361
▁bedien	-6362
▁bundes	-6363
▁grippe	-6364
▁heilen	-6365
▁schlei	-6366
▁trafen	-6367
ollywood	-6368
▁einzeln	-6369
▁quellen	-6370
▁sternen	-6371
schneiden	-6372
▁anschaut	-6373
▁genügend	-6374
▁regionen	-6375
▁schweden	-6376
▁aufnahmen	-6377
▁basierend	-6378
▁langsamer	-6379
▁versteckt	-6380
▁weltkrieg	-6381
▁prinzipien	-6382
▁restaurant	-6383
▁unterricht	-6384
▁nachgedacht	-6385
hof	-6386
azin	-6387
nern	-6388
xper	-6389
zipl	-6390
öser	-6391
▁dör	-6392
ordin	-6393
preis	-6394
soren	-6395
äufer	-6396
mechan	-6397
punkte	-6398
▁stern	-6399
-dollar	-6400
fliegen	-6401
mitglie	-6402
spiegel	-6403
▁fokuss	-6404
▁golden	-6405
▁presse	-6406
▁schnee	-6407
gegangen	-6408
▁chancen	-6409
▁gemälde	-6410
▁starben	-6411
▁genießen	-6412
▁hinunter	-6413
▁derselben	-6414
▁ernährung	-6415
▁insgesamt	-6416
▁arabischen	-6417
▁wettbewerb	-6418
▁zusammenzu	-6419
▁konzentriert	-6420
i-	-6421
kul	-6422
▁ba	-6423
▁cl	-6424
test	-6425
zial	-6426
▁bla	-6427
▁lad	-6428
▁ost	-6429
▁stä	-6430
kehrt	-6431
älter	-6432
ünden	-6433
▁span	-6434
modell	-6435
▁armee	-6436
▁treib	-6437
griffen	-6438
rüstung	-6439
▁berück	-6440
▁bezahl	-6441
▁tiefen	-6442
▁aufgere	-6443
▁spenden	-6444
▁überwäl	-6445
▁republik	-6446
▁schreibt	-6447
▁umfassen	-6448
▁versagen	-6449
▁wahnsinn	-6450
▁darstellt	-6451
▁irgendwel	-6452
▁irgendeine	-6453
▁weltweiten	-6454
▁inspirieren	-6455
▁fantastische	-6456
▁klassenzimmer	-6457
▁gemeinschaften	-6458
-bo	-6459
pel	-6460
urz	-6461
▁27	-6462
▁py	-6463
ison	-6464
prov	-6465
schm	-6466
euert	-6467
▁1000	-6468
▁kalt	-6469
▁ruhe	-6470
▁wach	-6471
bücher	-6472
karten	-6473
reiche	-6474
ueller	-6475
▁angem	-6476
▁chaos	-6477
▁fokus	-6478
▁gehei	-6479
▁heben	-6480
▁phant	-6481
▁detail	-6482
▁flücht	-6483
▁gesamm	-6484
vermögen	-6485
▁chicago	-6486
▁fremden	-6487
▁grossen	-6488
▁stoppen	-6489
▁versamm	-6490
schriften	-6491
▁kampagne	-6492
▁kleidung	-6493
▁schlacht	-6494
▁speziell	-6495
oberfläche	-6496
▁scheitern	-6497
▁ausgesetzt	-6498
▁inzwischen	-6499
▁jahrzehnte	-6500
▁öffentlich	-6501
▁elektrische	-6502
▁lebenserwart	-6503
eg	-6504
col	-6505
ney	-6506
▁22	-6507
▁mü	-6508
▁zü	-6509
-ver	-6510
erte	-6511
schi	-6512
stür	-6513
zung	-6514
▁lab	-6515
▁max	-6516
▁nir	-6517
onent	-6518
onien	-6519
samen	-6520
▁2007	-6521
▁dire	-6522
▁expl	-6523
▁hieß	-6524
▁higg	-6525
▁jüng	-6526
▁trug	-6527
▁weis	-6528
muster	-6529
zeigen	-6530
▁1.000	-6531
▁kurve	-6532
▁liber	-6533
▁paris	-6534
systems	-6535
▁boston	-6536
▁erneut	-6537
▁pollen	-6538
bekommen	-6539
▁100.000	-6540
▁annahme	-6541
▁debatte	-6542
▁argument	-6543
▁beachten	-6544
▁mikroben	-6545
▁proteine	-6546
▁vielmehr	-6547
ussendlich	-6548
▁bedeutete	-6549
▁computern	-6550
▁spielzeug	-6551
▁versorgen	-6552
▁eingeladen	-6553
▁ereignisse	-6554
▁verblüffen	-6555
▁wundervoll	-6556
▁anscheinend	-6557
▁biologische	-6558
▁kontrolliert	-6559
▁schlussendlich	-6560
-g	-6561
ime	-6562
kla	-6563
kür	-6564
hrer	-6565
nach	-6566
▁hir	-6567
athie	-6568
stero	-6569
▁bang	-6570
▁fürs	-6571
▁mart	-6572
kultur	-6573
▁erwär	-6574
▁fehlt	-6575
▁säuge	-6576
▁verur	-6577
dlichen	-6578
▁fläche	-6579
▁kindes	-6580
▁status	-6581
▁suchte	-6582
aufnahme	-6583
ieinhalb	-6584
▁angesch	-6585
▁besorgt	-6586
▁dokumen	-6587
▁doppelt	-6588
▁flächen	-6589
▁gedicht	-6590
▁streben	-6591
▁untersch	-6592
▁beteiligt	-6593
▁ernsthaft	-6594
▁unterwegs	-6595
▁entfernung	-6596
▁psychologie	-6597
▁sonnenlicht	-6598
sterblichkeit	-6599
▁entscheidend	-6600
▁überraschung	-6601
▁programmieren	-6602
▁veröffentlichen	-6603
mod	-6604
here	-6605
mack	-6606
vert	-6607
wald	-6608
▁beu	-6609
▁fau	-6610
▁ruf	-6611
▁wem	-6612
andid	-6613
eidet	-6614
ismen	-6615
weich	-6616
ünder	-6617
▁flor	-6618
werken	-6619
werten	-6620
▁draht	-6621
▁erfol	-6622
bewusst	-6623
▁eingeb	-6624
▁faktor	-6625
▁hörten	-6626
▁improv	-6627
▁robert	-6628
▁stücke	-6629
▁beenden	-6630
▁chirurg	-6631
▁offenen	-6632
▁traurig	-6633
▁drittens	-6634
▁erweiter	-6635
▁liebling	-6636
▁programme	-6637
▁wikipedia	-6638
▁zunehmend	-6639
▁depression	-6640
▁hinzufügen	-6641
▁langweilig	-6642
▁wahrnehmen	-6643
▁dimensionen	-6644
▁grundlegend	-6645
▁inspiration	-6646
▁verbreitung	-6647
▁voneinander	-6648
▁entdeckungen	-6649
▁bemerkenswert	-6650
cin	-6651
its	-6652
▁eu	-6653
▁ug	-6654
eigt	-6655
king	-6656
komm	-6657
▁250	-6658
▁can	-6659
▁hüh	-6660
▁lar	-6661
enter	-6662
halts	-6663
nchen	-6664
plant	-6665
▁2005	-6666
▁akte	-6667
▁ethn	-6668
▁mode	-6669
▁sech	-6670
bringt	-6671
riffen	-6672
stücke	-6673
▁auton	-6674
▁eisen	-6675
▁kämpf	-6676
▁scien	-6677
▁sorge	-6678
▁warte	-6679
standen	-6680
▁deiner	-6681
▁dienen	-6682
▁feiern	-6683
▁flügel	-6684
▁global	-6685
▁handys	-6686
▁hängen	-6687
▁schalt	-6688
▁ergeben	-6689
▁letzter	-6690
▁batterie	-6691
▁bewirken	-6692
▁verliert	-6693
▁afrikaner	-6694
▁aufgeregt	-6695
▁niemanden	-6696
▁spezielle	-6697
▁umzugehen	-6698
▁bezeichnet	-6699
▁frankreich	-6700
▁sichtweise	-6701
▁university	-6702
▁algorithmen	-6703
▁instrumente	-6704
▁konsequenzen	-6705
▁dreidimension	-6706
er-	-6707
ory	-6708
▁dh	-6709
▁zy	-6710
brid	-6711
ehrt	-6712
fung	-6713
osen	-6714
▁pen	-6715
▁tin	-6716
▁wid	-6717
▁ärm	-6718
ässer	-6719
▁chef	-6720
▁ghan	-6721
▁sper	-6722
pflanz	-6723
▁alpha	-6724
▁knapp	-6725
▁wirkt	-6726
▁astero	-6727
▁futter	-6728
▁island	-6729
▁planen	-6730
▁schach	-6731
▁unwahr	-6732
▁angriff	-6733
▁dringen	-6734
▁dunklen	-6735
▁gezogen	-6736
▁kameras	-6737
▁skelett	-6738
▁älteren	-6739
▁bekannte	-6740
▁erdbeben	-6741
▁nebenbei	-6742
▁schauten	-6743
▁verdient	-6744
▁wünschte	-6745
▁zeitraum	-6746
▁begreifen	-6747
▁mikroskop	-6748
▁mitnehmen	-6749
▁verfahren	-6750
▁brustkrebs	-6751
▁genetische	-6752
▁zerstörung	-6753
▁eigentliche	-6754
▁vorbereitet	-6755
▁wunderbaren	-6756
▁hinterlassen	-6757
ica	-6758
ics	-6759
▁sw	-6760
leib	-6761
mpft	-6762
stit	-6763
▁abt	-6764
▁ank	-6765
▁box	-6766
▁erb	-6767
▁imm	-6768
▁jer	-6769
illen	-6770
küste	-6771
viele	-6772
▁half	-6773
▁raub	-6774
▁schä	-6775
▁tele	-6776
mittag	-6777
▁beton	-6778
▁misst	-6779
▁scham	-6780
▁unvor	-6781
▁abente	-6782
▁angeht	-6783
▁beherr	-6784
▁einzus	-6785
▁falten	-6786
▁gelang	-6787
▁höchst	-6788
▁oberen	-6789
▁vorhin	-6790
▁winzig	-6791
▁angeles	-6792
▁aspekte	-6793
▁taschen	-6794
▁begegnen	-6795
▁leuchten	-6796
▁abgesehen	-6797
▁anzusehen	-6798
▁bekämpfen	-6799
▁definiert	-6800
▁reduziert	-6801
▁verrückte	-6802
▁beeindruck	-6803
▁regierungs	-6804
▁änderungen	-6805
▁herstellung	-6806
▁vergangenen	-6807
▁lebenserwartung	-6808
abl	-6809
ots	-6810
pus	-6811
obel	-6812
rang	-6813
sour	-6814
älte	-6815
▁mig	-6816
gespr	-6817
lesen	-6818
▁bord	-6819
▁infe	-6820
▁kore	-6821
▁meth	-6822
rieren	-6823
zahlen	-6824
▁berge	-6825
▁cyber	-6826
▁humor	-6827
▁kateg	-6828
▁teams	-6829
▁womit	-6830
▁zähne	-6831
zwungen	-6832
▁dichte	-6833
▁kaufte	-6834
▁lächer	-6835
▁marken	-6836
▁metall	-6837
▁schuhe	-6838
▁schicht	-6839
▁träumen	-6840
▁anpassen	-6841
▁ausgeben	-6842
▁erfüllen	-6843
▁ernähren	-6844
▁gesichts	-6845
▁schulter	-6846
▁geschäfte	-6847
▁potenzial	-6848
▁wichtiges	-6849
▁eingeführt	-6850
▁ingenieure	-6851
▁richtungen	-6852
▁wiederholen	-6853
▁interessanten	-6854
car	-6855
xis	-6856
ärm	-6857
▁av	-6858
▁ts	-6859
back	-6860
derm	-6861
uche	-6862
utet	-6863
▁cir	-6864
▁cle	-6865
▁mad	-6866
▁rek	-6867
▁ära	-6868
führt	-6869
nügen	-6870
unruh	-6871
▁biom	-6872
▁juni	-6873
▁legt	-6874
▁mini	-6875
geräte	-6876
linien	-6877
▁alltä	-6878
▁angen	-6879
▁decke	-6880
▁garan	-6881
▁haiti	-6882
▁olymp	-6883
prozess	-6884
▁beides	-6885
▁erhöht	-6886
▁explos	-6887
▁geruch	-6888
▁higgs-	-6889
▁machst	-6890
▁beunruh	-6891
▁dichter	-6892
▁mittels	-6893
▁nannten	-6894
▁schönes	-6895
▁spinnen	-6896
▁anhalten	-6897
▁gegenden	-6898
▁gelassen	-6899
▁horizont	-6900
▁intensiv	-6901
▁männchen	-6902
▁verschie	-6903
▁letztlich	-6904
▁kulturelle	-6905
▁schwierige	-6906
▁teilnehmer	-6907
▁zusammenge	-6908
▁technischen	-6909
▁verursachen	-6910
▁andererseits	-6911
▁persönlichkeit	-6912
bür	-6913
obi	-6914
ops	-6915
ost	-6916
tru	-6917
zum	-6918
bran	-6919
üter	-6920
▁hai	-6921
▁lam	-6922
gangs	-6923
krise	-6924
stamm	-6925
üssen	-6926
▁bahn	-6927
▁mama	-6928
▁rock	-6929
▁rönt	-6930
ativer	-6931
gebiet	-6932
▁anruf	-6933
▁besei	-6934
▁ghana	-6935
▁kongo	-6936
▁obama	-6937
▁ungeh	-6938
▁übert	-6939
▁gemüse	-6940
▁höhere	-6941
▁neigen	-6942
▁niveau	-6943
▁rezept	-6944
▁street	-6945
▁theore	-6946
▁wenden	-6947
▁general	-6948
▁verlauf	-6949
▁berühren	-6950
▁chinesen	-6951
▁erfassen	-6952
▁gebäuden	-6953
▁krankenh	-6954
▁mehreren	-6955
▁nationale	-6956
▁vergnügen	-6957
zeichnungen	-6958
▁bibliothek	-6959
▁bevölkerungs	-6960
wissenschaften	-6961
▁nachbarschaft	-6962
▁außergewöhnlich	-6963
za	-6964
arr	-6965
ota	-6966
ruf	-6967
züg	-6968
▁vi	-6969
dach	-6970
oler	-6971
omas	-6972
sich	-6973
ülle	-6974
▁don	-6975
▁kün	-6976
▁pin	-6977
▁ras	-6978
elang	-6979
gebäu	-6980
rauen	-6981
▁haie	-6982
▁mosk	-6983
▁myth	-6984
▁stim	-6985
eilung	-6986
graben	-6987
▁befeh	-6988
▁karik	-6989
▁level	-6990
▁recyc	-6991
ichtete	-6992
mittelt	-6993
problem	-6994
▁schild	-6995
▁verwen	-6996
▁mobilte	-6997
▁negativ	-6998
▁schwere	-6999
▁starken	-7000
▁exponent	-7001
▁glaubten	-7002
▁seltsame	-7003
▁vorwärts	-7004
▁zentrale	-7005
produktion	-7006
▁angelegen	-7007
▁erforscht	-7008
▁hoffnungs	-7009
▁indischen	-7010
schnittlich	-7011
▁dunkelheit	-7012
▁interaktiv	-7013
▁ländlichen	-7014
▁vorsichtig	-7015
▁eigenschaft	-7016
▁einzigartig	-7017
▁erwartungen	-7018
▁terroristen	-7019
kw	-7020
tin	-7021
▁cm	-7022
.com	-7023
cket	-7024
ftig	-7025
holt	-7026
same	-7027
tien	-7028
äufe	-7029
▁kuh	-7030
▁mak	-7031
atein	-7032
auten	-7033
gener	-7034
reift	-7035
vileg	-7036
wesen	-7037
▁2009	-7038
▁dist	-7039
▁grav	-7040
▁nimm	-7041
▁pazi	-7042
leiter	-7043
mensch	-7044
▁frühe	-7045
▁hitze	-7046
▁nahen	-7047
▁prior	-7048
▁subst	-7049
▁verde	-7050
▁zweit	-7051
schicht	-7052
▁alters	-7053
▁analog	-7054
▁center	-7055
▁enttäu	-7056
▁keines	-7057
▁kriege	-7058
▁latein	-7059
▁dankbar	-7060
▁entwurf	-7061
▁krieges	-7062
▁nirgend	-7063
▁ägypten	-7064
▁getrennt	-7065
▁hundertt	-7066
▁kreative	-7067
▁lebenden	-7068
▁ursprung	-7069
▁kreativen	-7070
gehensweise	-7071
▁dazwischen	-7072
▁investiert	-7073
▁beigebracht	-7074
▁neuigkeiten	-7075
▁konfrontiert	-7076
▁mathematiker	-7077
▁grundlegenden	-7078
▁weiterentwick	-7079
ias	-7080
irk	-7081
vir	-7082
▁dü	-7083
soft	-7084
▁hon	-7085
▁mio	-7086
eiter	-7087
leute	-7088
▁glet	-7089
▁leer	-7090
▁wozu	-7091
führer	-7092
handel	-7093
messer	-7094
schiff	-7095
▁griff	-7096
▁hypot	-7097
▁malen	-7098
gemacht	-7099
sproble	-7100
▁reihen	-7101
▁schlug	-7102
gefallen	-7103
▁brechen	-7104
▁koordin	-7105
▁röntgen	-7106
▁problems	-7107
▁reagiert	-7108
▁ausmachen	-7109
▁bedrohung	-7110
▁belohnung	-7111
▁berechnen	-7112
▁ignorieren	-7113
▁gleichgewicht	-7114
30	-7115
ams	-7116
uar	-7117
arma	-7118
osex	-7119
grenz	-7120
iness	-7121
malen	-7122
▁besa	-7123
▁chip	-7124
▁dame	-7125
▁ritu	-7126
▁schi	-7127
▁bibel	-7128
▁diabe	-7129
▁dicht	-7130
▁flexi	-7131
▁hoher	-7132
▁meere	-7133
▁offiz	-7134
fischen	-7135
schläge	-7136
▁nervös	-7137
▁späten	-7138
▁therap	-7139
▁vierte	-7140
▁weisen	-7141
stimmung	-7142
▁bericht	-7143
▁besucht	-7144
▁musikal	-7145
▁stärken	-7146
▁aktuelle	-7147
▁besuchte	-7148
▁erklärte	-7149
▁fahrzeug	-7150
▁theorien	-7151
▁training	-7152
▁visuelle	-7153
▁weisheit	-7154
▁denselben	-7155
▁besonderen	-7156
▁schlechtes	-7157
▁verwendung	-7158
▁transparenz	-7159
▁wirtschafts	-7160
▁wundervolle	-7161
▁zurückgehen	-7162
▁wirtschaftsw	-7163
▁identifizieren	-7164
gin	-7165
ice	-7166
rim	-7167
▁ky	-7168
denz	-7169
okol	-7170
urop	-7171
ähen	-7172
▁cor	-7173
▁mau	-7174
▁sus	-7175
ratet	-7176
tteln	-7177
▁brow	-7178
▁knie	-7179
▁line	-7180
▁meet	-7181
▁präz	-7182
▁visu	-7183
andern	-7184
findet	-7185
stisch	-7186
▁anspr	-7187
▁beruh	-7188
▁brill	-7189
▁enkel	-7190
▁kugel	-7191
▁peter	-7192
▁reser	-7193
▁ruhig	-7194
chester	-7195
▁bildet	-7196
▁kommer	-7197
▁liebte	-7198
▁recher	-7199
▁spirit	-7200
▁umwand	-7201
funktion	-7202
geschäft	-7203
ierenden	-7204
▁anstieg	-7205
▁benutze	-7206
▁geteilt	-7207
▁systema	-7208
▁tauchen	-7209
▁faktoren	-7210
▁privileg	-7211
▁verfolgt	-7212
▁ökonomen	-7213
▁microsoft	-7214
▁plattform	-7215
▁projekten	-7216
▁schmerzen	-7217
▁ähnliches	-7218
▁geschäftsm	-7219
▁einfachheit	-7220
▁wasserstoff	-7221
▁elektrischen	-7222
▁einrichtungen	-7223
if	-7224
dro	-7225
enk	-7226
▁28	-7227
▁bg	-7228
bein	-7229
burg	-7230
iner	-7231
zusp	-7232
▁120	-7233
▁ren	-7234
▁van	-7235
▁wut	-7236
euern	-7237
stete	-7238
▁bier	-7239
▁brun	-7240
▁budd	-7241
▁fair	-7242
▁häss	-7243
▁lese	-7244
▁salz	-7245
▁stap	-7246
freund	-7247
klasse	-7248
schten	-7249
▁bedro	-7250
▁brand	-7251
▁figur	-7252
▁front	-7253
▁geome	-7254
▁harte	-7255
▁könne	-7256
▁linke	-7257
▁stieg	-7258
dringen	-7259
isierte	-7260
omputer	-7261
▁deinem	-7262
▁gebrau	-7263
▁jünger	-7264
▁medium	-7265
▁proben	-7266
▁schaue	-7267
▁thomas	-7268
▁wahlen	-7269
designer	-7270
ierungen	-7271
▁analyse	-7272
▁blätter	-7273
▁paralle	-7274
-jährigen	-7275
▁dokument	-7276
▁erwähnen	-7277
▁physiker	-7278
▁studiert	-7279
▁vermögen	-7280
▁empfinden	-7281
▁gestartet	-7282
▁politisch	-7283
▁umständen	-7284
▁wachstums	-7285
▁nationalen	-7286
▁willkommen	-7287
▁wunderschöne	-7288
tic	-7289
▁36	-7290
arto	-7291
▁ark	-7292
▁bob	-7293
▁vag	-7294
eihen	-7295
endes	-7296
statt	-7297
vater	-7298
▁jack	-7299
▁last	-7300
▁mamm	-7301
▁sele	-7302
▁umso	-7303
fältig	-7304
uchtet	-7305
▁jenem	-7306
▁leber	-7307
▁wärme	-7308
ierungs	-7309
jährige	-7310
▁höhlen	-7311
▁leiter	-7312
▁reflek	-7313
▁stille	-7314
▁unterb	-7315
▁wohlbe	-7316
▁yorker	-7317
▁ältere	-7318
▁öffnet	-7319
▁abgesch	-7320
▁science	-7321
▁wünsche	-7322
▁kleinere	-7323
▁riesiges	-7324
▁systemen	-7325
▁winzigen	-7326
geschlagen	-7327
▁konflikte	-7328
▁schwanger	-7329
▁weihnacht	-7330
▁englischen	-7331
▁nachhaltig	-7332
▁reaktionen	-7333
▁übersetzen	-7334
▁oberflächen	-7335
▁organisiert	-7336
▁präsidenten	-7337
▁traditionelle	-7338
va	-7339
eme	-7340
erk	-7341
gut	-7342
ham	-7343
kap	-7344
kar	-7345
-kon	-7346
bene	-7347
mern	-7348
ossi	-7349
sthe	-7350
▁dep	-7351
▁jon	-7352
▁mün	-7353
▁zig	-7354
stuhl	-7355
▁bush	-7356
▁risk	-7357
▁saal	-7358
▁stet	-7359
▁strö	-7360
andelt	-7361
izient	-7362
▁carto	-7363
▁exakt	-7364
▁küche	-7365
gezogen	-7366
mischen	-7367
staaten	-7368
station	-7369
uchtung	-7370
zustand	-7371
▁aussah	-7372
▁chirur	-7373
▁explod	-7374
▁hassen	-7375
▁offene	-7376
▁partei	-7377
▁studio	-7378
▁wütend	-7379
gekommen	-7380
▁berühmt	-7381
▁betrieb	-7382
▁durchzu	-7383
▁gesetzt	-7384
▁vorgang	-7385
▁erfinder	-7386
▁gebieten	-7387
▁auftreten	-7388
▁denkweise	-7389
▁effizienz	-7390
▁vorschlag	-7391
▁wiederver	-7392
▁beschreibt	-7393
▁population	-7394
▁glücklicher	-7395
▁biologischen	-7396
▁entschlossen	-7397
▁informations	-7398
▁verschiedener	-7399
ep	-7400
ats	-7401
hai	-7402
ony	-7403
▁26	-7404
▁ye	-7405
▁ät	-7406
züge	-7407
▁big	-7408
▁ham	-7409
▁pre	-7410
▁pum	-7411
▁vul	-7412
ckung	-7413
▁dna-	-7414
▁feed	-7415
▁füße	-7416
▁gelb	-7417
▁läng	-7418
▁türk	-7419
wirken	-7420
▁apple	-7421
▁einbe	-7422
▁entsp	-7423
▁klick	-7424
▁lehre	-7425
▁marke	-7426
▁missb	-7427
▁selbe	-7428
▁serie	-7429
▁stärk	-7430
▁valle	-7431
▁zählt	-7432
▁öfter	-7433
gerufen	-7434
▁atomen	-7435
▁echtes	-7436
▁kredit	-7437
▁potent	-7438
▁stirbt	-7439
▁wälder	-7440
schaffen	-7441
▁anstren	-7442
▁bevorzu	-7443
▁flederm	-7444
▁protein	-7445
▁zerstör	-7446
▁diagnost	-7447
▁hinblick	-7448
▁pinguine	-7449
▁speicher	-7450
▁benutzten	-7451
▁wiederher	-7452
▁angesichts	-7453
▁schlimmste	-7454
▁unsichtbar	-7455
▁verstecken	-7456
▁anwendungen	-7457
▁genetischen	-7458
▁moralischen	-7459
▁philosophie	-7460
▁sogenannten	-7461
▁investitionen	-7462
ike	-7463
ägt	-7464
fand	-7465
▁ego	-7466
▁tja	-7467
appen	-7468
liste	-7469
▁co2-	-7470
▁ehre	-7471
▁life	-7472
anlage	-7473
drehen	-7474
drücke	-7475
lefone	-7476
▁saßen	-7477
▁drehte	-7478
▁filmen	-7479
▁fliegt	-7480
▁gewann	-7481
▁organe	-7482
▁tränen	-7483
▁wartet	-7484
▁diszipl	-7485
▁dutzend	-7486
▁höheren	-7487
▁jeweils	-7488
▁lernten	-7489
▁rechner	-7490
▁schokol	-7491
▁ausnahme	-7492
▁autismus	-7493
▁gegenwär	-7494
▁gründete	-7495
▁hindurch	-7496
▁höchsten	-7497
▁wünschen	-7498
▁abenteuer	-7499
▁chemische	-7500
▁infiziert	-7501
▁neugierig	-7502
▁versicher	-7503
ischerweise	-7504
▁angemessen	-7505
▁emotionale	-7506
▁motivation	-7507
▁organismus	-7508
▁reparieren	-7509
▁analysieren	-7510
▁chinesischen	-7511
▁schauspieler	-7512
▁zurückkehren	-7513
ya	-7514
500	-7515
bur	-7516
kra	-7517
own	-7518
▁0,	-7519
▁65	-7520
anal	-7521
iens	-7522
strä	-7523
▁195	-7524
▁gän	-7525
▁hüb	-7526
▁jur	-7527
▁kab	-7528
▁ohr	-7529
▁sms	-7530
▁ört	-7531
knall	-7532
schwe	-7533
teste	-7534
uster	-7535
ächer	-7536
▁alko	-7537
▁brei	-7538
▁ther	-7539
▁trat	-7540
▁zwöl	-7541
gänger	-7542
wellen	-7543
▁achse	-7544
▁befür	-7545
▁desig	-7546
▁geeig	-7547
▁gefol	-7548
▁katze	-7549
▁neutr	-7550
▁polio	-7551
▁stich	-7552
fordern	-7553
gebiete	-7554
▁fliege	-7555
▁frustr	-7556
▁instin	-7557
▁muskel	-7558
stration	-7559
▁diesmal	-7560
▁gewöhnt	-7561
▁höchste	-7562
▁klavier	-7563
▁pflanze	-7564
▁vernünf	-7565
▁zentral	-7566
▁fettleib	-7567
▁gemessen	-7568
▁gerettet	-7569
▁jenseits	-7570
▁sinnvoll	-7571
▁symptome	-7572
▁gezwungen	-7573
▁resultate	-7574
▁ungeheuer	-7575
▁weibliche	-7576
▁funktionen	-7577
▁teilnehmen	-7578
▁irgendeinem	-7579
▁katastrophe	-7580
▁irgendwelche	-7581
▁universitäten	-7582
▁weltbevölkerung	-7583
bir	-7584
hnt	-7585
emin	-7586
fang	-7587
ight	-7588
lant	-7589
▁dns	-7590
▁dum	-7591
▁fro	-7592
anzig	-7593
biert	-7594
▁2006	-7595
▁vorn	-7596
annter	-7597
skraft	-7598
▁braun	-7599
▁bösen	-7600
▁freie	-7601
▁geöff	-7602
▁graus	-7603
▁logik	-7604
▁texas	-7605
projekt	-7606
quellen	-7607
▁anweis	-7608
▁daumen	-7609
▁ebenen	-7610
▁fahrer	-7611
▁kaputt	-7612
▁paläst	-7613
▁polizi	-7614
▁preise	-7615
aufgaben	-7616
zukommen	-7617
▁angehen	-7618
▁bedeckt	-7619
▁muskeln	-7620
▁richten	-7621
▁verließ	-7622
▁weltall	-7623
alisierte	-7624
regierung	-7625
▁eingehen	-7626
▁früheren	-7627
alisierten	-7628
▁gesammelt	-7629
▁gespräche	-7630
▁maßnahmen	-7631
▁treibhaus	-7632
▁britischen	-7633
▁gemeinnütz	-7634
▁mitglieder	-7635
▁offensicht	-7636
▁regelmäßig	-7637
▁strategien	-7638
▁konsumenten	-7639
▁beeindruckend	-7640
aku	-7641
dio	-7642
don	-7643
lag	-7644
ses	-7645
▁32	-7646
-sch	-7647
ania	-7648
komp	-7649
üren	-7650
▁ast	-7651
▁kör	-7652
▁mac	-7653
▁tee	-7654
dungs	-7655
größe	-7656
ision	-7657
letzt	-7658
▁base	-7659
▁bran	-7660
▁harm	-7661
▁konz	-7662
▁mio.	-7663
▁sieh	-7664
▁song	-7665
chnung	-7666
gebung	-7667
spanne	-7668
steine	-7669
▁fossi	-7670
▁jenen	-7671
▁sowje	-7672
▁talen	-7673
ogenese	-7674
▁abends	-7675
▁assozi	-7676
▁authen	-7677
▁belast	-7678
▁füllen	-7679
▁gipfel	-7680
▁januar	-7681
▁mochte	-7682
▁myster	-7683
▁sprung	-7684
▁verhei	-7685
▁verzer	-7686
chnitten	-7687
mögliche	-7688
▁alkohol	-7689
▁anwesen	-7690
▁auftrag	-7691
▁ausland	-7692
▁greifen	-7693
▁lebende	-7694
▁stammen	-7695
▁symmetr	-7696
▁systems	-7697
▁ursache	-7698
▁vernetz	-7699
▁zwingen	-7700
▁änderte	-7701
▁ärmsten	-7702
setzungen	-7703
▁anbieten	-7704
▁aufstieg	-7705
▁ausgaben	-7706
▁ausgehen	-7707
▁begrenzt	-7708
▁betracht	-7709
▁epidemie	-7710
▁mitglied	-7711
▁prozesse	-7712
▁schweine	-7713
▁sensoren	-7714
▁weibchen	-7715
▁höhepunkt	-7716
▁nachfrage	-7717
▁verpflich	-7718
▁handlungen	-7719
▁menschlich	-7720
▁aufeinander	-7721
▁diskutieren	-7722
▁versprechen	-7723
▁videospiele	-7724
bus	-7725
flu	-7726
yto	-7727
▁bf	-7728
▁jh	-7729
läuf	-7730
strö	-7731
stät	-7732
▁arz	-7733
▁lux	-7734
ülern	-7735
▁flog	-7736
achung	-7737
reicht	-7738
sprach	-7739
versen	-7740
▁bewäl	-7741
▁brach	-7742
▁breit	-7743
▁flach	-7744
▁respe	-7745
▁staub	-7746
▁szene	-7747
▁wohlt	-7748
▁wände	-7749
anlagen	-7750
▁dialog	-7751
▁frucht	-7752
▁inklus	-7753
▁metern	-7754
▁ratten	-7755
▁sprich	-7756
▁valley	-7757
▁überfl	-7758
ologisch	-7759
▁büchern	-7760
▁digital	-7761
▁geraten	-7762
▁neulich	-7763
▁raketen	-7764
▁schwach	-7765
▁schwein	-7766
▁vermute	-7767
▁zurecht	-7768
▁eröffnet	-7769
▁fantasie	-7770
▁hingehen	-7771
▁schickte	-7772
▁schwerer	-7773
▁änderung	-7774
zentration	-7775
▁physische	-7776
▁positiven	-7777
▁visuellen	-7778
▁außerorden	-7779
▁kommerziel	-7780
▁physischen	-7781
▁schwestern	-7782
▁verteilung	-7783
▁wiederholt	-7784
▁investition	-7785
▁schlimmsten	-7786
▁hinsichtlich	-7787
▁bemerkenswerte	-7788
oh	-7789
tn	-7790
yd	-7791
aff	-7792
eff	-7793
ps-	-7794
tal	-7795
hiop	-7796
tika	-7797
wort	-7798
ühen	-7799
▁aug	-7800
▁bip	-7801
▁hob	-7802
▁leb	-7803
arden	-7804
gänge	-7805
rufen	-7806
änner	-7807
▁befr	-7808
▁beur	-7809
▁ever	-7810
ausend	-7811
leiten	-7812
waffen	-7813
▁circa	-7814
▁orien	-7815
▁pferd	-7816
▁titan	-7817
▁übung	-7818
politik	-7819
▁bomben	-7820
▁budget	-7821
▁keinem	-7822
▁sektor	-7823
▁uganda	-7824
▁fließen	-7825
▁gesunde	-7826
▁kreiert	-7827
▁amerikas	-7828
▁arbeitsp	-7829
▁befassen	-7830
▁benutzte	-7831
▁diabetes	-7832
▁gesunden	-7833
▁zugleich	-7834
▁beitragen	-7835
▁geschmack	-7836
▁nachdenkt	-7837
▁toiletten	-7838
ministerium	-7839
▁ausdrücken	-7840
▁prototypen	-7841
▁selbstmord	-7842
▁treibstoff	-7843
▁berechnungen	-7844
▁komplizierter	-7845
▁repräsentiert	-7846
▁globalisierung	-7847
kö	-7848
bit	-7849
bru	-7850
ele	-7851
ipp	-7852
▁3d	-7853
▁kg	-7854
agte	-7855
ammt	-7856
ing-	-7857
last	-7858
▁por	-7859
dizin	-7860
igend	-7861
▁1950	-7862
▁2004	-7863
▁frag	-7864
▁gete	-7865
▁usw.	-7866
▁üben	-7867
archie	-7868
dioxid	-7869
gelegt	-7870
stoßen	-7871
zenten	-7872
▁fried	-7873
▁gedul	-7874
▁löwen	-7875
▁raten	-7876
▁waffe	-7877
gemeine	-7878
▁doppel	-7879
▁fließt	-7880
▁glücks	-7881
▁nahezu	-7882
▁respek	-7883
▁werdet	-7884
▁äthiop	-7885
sammlung	-7886
▁designs	-7887
▁erfolgs	-7888
▁großzüg	-7889
▁kontinu	-7890
▁lehrern	-7891
▁richter	-7892
▁setzten	-7893
▁absolute	-7894
▁ausmacht	-7895
▁behaupte	-7896
▁biologen	-7897
▁geöffnet	-7898
▁privaten	-7899
▁toilette	-7900
▁umstände	-7901
▁verletzt	-7902
▁fahrzeuge	-7903
▁schweigen	-7904
▁symmetrie	-7905
▁allgemeine	-7906
▁ausrüstung	-7907
▁besonderes	-7908
▁versorgung	-7909
▁unterhalten	-7910
▁zukünftigen	-7911
▁europäischen	-7912
▁festgestellt	-7913
▁privatsphäre	-7914
▁ungleichheit	-7915
ii	-7916
bie	-7917
gül	-7918
ift	-7919
kal	-7920
▁hä	-7921
aben	-7922
akul	-7923
gewe	-7924
sper	-7925
stel	-7926
städ	-7927
öten	-7928
ügel	-7929
üger	-7930
▁gez	-7931
▁krä	-7932
▁mah	-7933
achel	-7934
forma	-7935
▁2001	-7936
▁lärm	-7937
▁pand	-7938
▁plus	-7939
artete	-7940
schild	-7941
▁blase	-7942
▁dient	-7943
▁haare	-7944
▁invol	-7945
▁lagen	-7946
▁legte	-7947
▁nadel	-7948
▁onkel	-7949
▁prost	-7950
▁stets	-7951
▁trink	-7952
▁tritt	-7953
gebäude	-7954
steigen	-7955
▁befest	-7956
▁benzin	-7957
▁bestra	-7958
▁metaph	-7959
▁moskit	-7960
▁nutzer	-7961
▁praxis	-7962
▁tasche	-7963
▁wahren	-7964
▁angebot	-7965
▁beträgt	-7966
▁enormen	-7967
▁ersetzt	-7968
▁heutige	-7969
▁klingen	-7970
▁lichter	-7971
▁unschul	-7972
▁verbrei	-7973
▁bescheid	-7974
▁einziges	-7975
▁erkunden	-7976
▁feedback	-7977
▁geograph	-7978
▁hinweise	-7979
▁schießen	-7980
▁schreibe	-7981
▁therapie	-7982
unterricht	-7983
▁hollywood	-7984
▁probieren	-7985
▁unterhalt	-7986
▁verteilen	-7987
▁weltweite	-7988
▁ähnlichen	-7989
▁übersetzt	-7990
▁ausgegeben	-7991
▁dramatisch	-7992
▁entdeckten	-7993
▁flüssigkeit	-7994
▁komponenten	-7995
▁kulturellen	-7996
▁afrikanische	-7997
▁nervenzellen	-7998
▁verbesserung	-7999
▁verschwindet	-8000
▁ausschließlich	-8001
▁schriftsteller	-8002
bro	-8003
lip	-8004
▁2,	-8005
▁95	-8006
felt	-8007
folg	-8008
pend	-8009
vice	-8010
▁joe	-8011
▁ske	-8012
-bahn	-8013
lösen	-8014
weist	-8015
▁appl	-8016
▁grau	-8017
▁klug	-8018
▁noti	-8019
▁skal	-8020
▁spur	-8021
garten	-8022
steckt	-8023
strate	-8024
straße	-8025
▁altes	-8026
▁ausbr	-8027
▁frühl	-8028
▁lokal	-8029
▁oxyto	-8030
▁spont	-8031
▁tätig	-8032
▁wasch	-8033
▁ärger	-8034
ologien	-8035
version	-8036
▁forder	-8037
▁kandid	-8038
▁kontra	-8039
▁tolles	-8040
▁umgang	-8041
▁werten	-8042
▁wohltä	-8043
eitungen	-8044
tisieren	-8045
▁anfängt	-8046
▁ehemann	-8047
▁komprom	-8048
▁magazin	-8049
▁schwanz	-8050
▁schöner	-8051
▁spitzen	-8052
▁urknall	-8053
▁betreten	-8054
▁erlangen	-8055
▁gebäudes	-8056
▁geworfen	-8057
▁griechen	-8058
▁schnelle	-8059
▁vorträge	-8060
▁ansichten	-8061
▁bedeutend	-8062
▁gletscher	-8063
▁standpunkt	-8064
▁technische	-8065
▁wirklichen	-8066
▁blickwinkel	-8067
▁verarbeiten	-8068
▁katastrophen	-8069
▁unternehmens	-8070
▁wohlbefinden	-8071
▁zurückkommen	-8072
▁geschichtener	-8073
üd	-8074
-up	-8075
uth	-8076
▁d.	-8077
▁vo	-8078
arth	-8079
klin	-8080
ulen	-8081
▁700	-8082
▁dru	-8083
▁kub	-8084
▁kul	-8085
▁sec	-8086
acken	-8087
firma	-8088
hafen	-8089
heber	-8090
▁brie	-8091
▁homo	-8092
▁kilo	-8093
▁manh	-8094
▁mist	-8095
▁nest	-8096
▁pein	-8097
▁zerb	-8098
eltern	-8099
lehnen	-8100
ritten	-8101
speich	-8102
ändler	-8103
▁annäh	-8104
▁behör	-8105
▁carol	-8106
▁ehren	-8107
▁event	-8108
▁höhle	-8109
▁käfer	-8110
▁mathe	-8111
▁prima	-8112
▁straf	-8113
▁vietn	-8114
▁werbe	-8115
▁zwölf	-8116
tragung	-8117
▁blasen	-8118
▁clever	-8119
▁ehemal	-8120
▁klinik	-8121
▁kuchen	-8122
▁trends	-8123
▁bedroht	-8124
▁gelangt	-8125
▁inhalte	-8126
▁protest	-8127
▁rauchen	-8128
▁wurzeln	-8129
▁zuletzt	-8130
▁bedauern	-8131
▁bewahren	-8132
▁diagnose	-8133
▁getestet	-8134
▁illusion	-8135
▁konzepte	-8136
▁sozialer	-8137
▁stiftung	-8138
▁aktuellen	-8139
▁betreffen	-8140
▁explosion	-8141
▁schlagzei	-8142
▁techniken	-8143
krankheiten	-8144
▁entstehung	-8145
▁lebensraum	-8146
▁verbrennen	-8147
▁vorgestellt	-8148
▁komplizierte	-8149
▁entscheidende	-8150
▁entschuldigung	-8151
hh	-8152
0er	-8153
tun	-8154
äub	-8155
ümm	-8156
able	-8157
feln	-8158
ival	-8159
okra	-8160
orte	-8161
part	-8162
reut	-8163
stoß	-8164
ödie	-8165
ünde	-8166
▁anl	-8167
▁brä	-8168
▁cal	-8169
▁clo	-8170
▁woh	-8171
▁zen	-8172
-welt	-8173
ehmer	-8174
eifen	-8175
romos	-8176
▁elen	-8177
▁gand	-8178
▁stab	-8179
▁tote	-8180
▁u.s.	-8181
heimer	-8182
terien	-8183
▁autob	-8184
▁konst	-8185
▁rüber	-8186
▁stick	-8187
▁trage	-8188
▁übers	-8189
▁ballon	-8190
▁brauch	-8191
▁kalten	-8192
▁profit	-8193
▁u-bahn	-8194
▁umfang	-8195
▁verlor	-8196
▁vertik	-8197
▁drucker	-8198
▁gelehrt	-8199
▁kümmert	-8200
▁wertsch	-8201
▁befreien	-8202
▁demonstr	-8203
▁jährlich	-8204
▁minister	-8205
▁original	-8206
▁oxytocin	-8207
▁schülern	-8208
▁austausch	-8209
▁erhielten	-8210
▁errichten	-8211
▁gleichung	-8212
▁internets	-8213
▁komplexer	-8214
▁statistik	-8215
▁unterhalb	-8216
▁vereinten	-8217
▁wiederauf	-8218
▁beschützen	-8219
▁gegenstand	-8220
▁umzusetzen	-8221
▁verringern	-8222
▁überprüfen	-8223
▁kooperation	-8224
▁mechanismus	-8225
▁nachhaltige	-8226
▁profitieren	-8227
▁auszudrücken	-8228
▁industrielle	-8229
▁ungewöhnlich	-8230
anc	-8231
bom	-8232
rix	-8233
sbe	-8234
urr	-8235
▁tv	-8236
denk	-8237
letz	-8238
lied	-8239
phys	-8240
▁800	-8241
▁jüd	-8242
▁weh	-8243
gehör	-8244
griff	-8245
inger	-8246
kunst	-8247
roren	-8248
spers	-8249
▁löst	-8250
▁papa	-8251
▁seil	-8252
▁thun	-8253
mungen	-8254
sorgan	-8255
▁knopf	-8256
▁magne	-8257
▁steig	-8258
▁synch	-8259
▁verpa	-8260
fleisch	-8261
▁beinen	-8262
▁bäumen	-8263
▁durfte	-8264
▁eingef	-8265
▁empfeh	-8266
▁köpfen	-8267
▁mannes	-8268
▁oxford	-8269
▁pocken	-8270
▁synthe	-8271
▁treibt	-8272
▁wirbel	-8273
▁argumen	-8274
▁beschäd	-8275
▁blicken	-8276
▁fußball	-8277
▁private	-8278
▁punkten	-8279
▁regener	-8280
▁schädel	-8281
▁urheber	-8282
▁verwirk	-8283
▁wodurch	-8284
▁zweites	-8285
▁gebildet	-8286
▁gebrauch	-8287
▁skulptur	-8288
▁spannend	-8289
▁stanford	-8290
▁bedürfnis	-8291
▁erinnerte	-8292
▁inklusive	-8293
▁schrieben	-8294
▁wohlhaben	-8295
▁asteroiden	-8296
▁auswirkung	-8297
▁konvention	-8298
▁künstliche	-8299
▁nachmittag	-8300
▁verbraucht	-8301
▁virtuellen	-8302
▁anerkennung	-8303
▁operationen	-8304
▁verbrauchen	-8305
▁schreckliche	-8306
▁abgeschlossen	-8307
ani	-8308
dat	-8309
krä	-8310
pos	-8311
put	-8312
▁85	-8313
ates	-8314
kern	-8315
klar	-8316
pper	-8317
▁aqu	-8318
▁här	-8319
▁leh	-8320
▁lkw	-8321
▁rem	-8322
lässt	-8323
orter	-8324
▁bron	-8325
▁euer	-8326
▁gast	-8327
▁hard	-8328
▁mahl	-8329
▁mais	-8330
sitzen	-8331
summen	-8332
uelles	-8333
▁5.000	-8334
▁dreie	-8335
▁herab	-8336
▁hölle	-8337
▁illeg	-8338
▁kapaz	-8339
▁lasse	-8340
▁pause	-8341
▁ultra	-8342
▁wette	-8343
▁ästhe	-8344
-system	-8345
wertung	-8346
zugehen	-8347
▁20.000	-8348
▁danken	-8349
▁dinger	-8350
▁filter	-8351
▁fremde	-8352
▁martin	-8353
▁pharma	-8354
▁ruanda	-8355
▁schief	-8356
gleichen	-8357
reichend	-8358
ständige	-8359
▁beitrag	-8360
▁beliebt	-8361
▁empfind	-8362
▁fühlten	-8363
▁gewinnt	-8364
▁glühbir	-8365
▁liefert	-8366
▁online-	-8367
▁schmutz	-8368
▁trennen	-8369
▁zwanzig	-8370
ulationen	-8371
zeichnung	-8372
▁einblick	-8373
▁sexuelle	-8374
▁überlebt	-8375
krankungen	-8376
▁bewegungs	-8377
▁erfordert	-8378
▁gestaltet	-8379
▁irgendwas	-8380
▁virtuelle	-8381
▁angekommen	-8382
▁aussterben	-8383
▁elektronen	-8384
▁vermittelt	-8385
▁zukünftige	-8386
▁angetrieben	-8387
▁zusätzliche	-8388
▁abhängigkeit	-8389
▁intelligente	-8390
▁durcheinander	-8391
▁menschlichkeit	-8392
las	-8393
way	-8394
▁kb	-8395
▁pc	-8396
elen	-8397
espe	-8398
holz	-8399
mith	-8400
rick	-8401
vern	-8402
▁gei	-8403
▁jim	-8404
▁tel	-8405
ielen	-8406
legal	-8407
schel	-8408
srate	-8409
▁mary	-8410
▁zust	-8411
andert	-8412
jenige	-8413
lament	-8414
lehrer	-8415
ramide	-8416
spunkt	-8417
▁apfel	-8418
▁gigan	-8419
▁mauer	-8420
▁satur	-8421
▁schiz	-8422
▁tempo	-8423
▁fuhren	-8424
▁katzen	-8425
▁knoten	-8426
▁obdach	-8427
▁option	-8428
▁reform	-8429
▁schall	-8430
▁spuren	-8431
▁stämme	-8432
▁blutgef	-8433
▁dynamik	-8434
▁geburts	-8435
▁illegal	-8436
▁landete	-8437
▁vereinf	-8438
ianischen	-8439
▁amazonas	-8440
▁benutzer	-8441
▁einziger	-8442
▁energien	-8443
▁gegessen	-8444
▁heiraten	-8445
▁nochmals	-8446
▁schließt	-8447
▁verdammt	-8448
▁angepasst	-8449
▁definitiv	-8450
▁einheiten	-8451
▁flughafen	-8452
▁institute	-8453
▁intuition	-8454
▁vorkommen	-8455
▁westliche	-8456
▁zeitungen	-8457
▁gestaltung	-8458
▁gleichheit	-8459
▁journalist	-8460
▁verwandten	-8461
▁ausgebildet	-8462
▁einzusetzen	-8463
▁kombinieren	-8464
▁nordamerika	-8465
▁arbeitsplatz	-8466
▁produktivität	-8467
▁nahrungsmittel	-8468
sä	-8469
gno	-8470
het	-8471
nei	-8472
tit	-8473
öne	-8474
▁33	-8475
▁os	-8476
-mal	-8477
ckel	-8478
illa	-8479
stil	-8480
▁dop	-8481
▁lob	-8482
▁non	-8483
▁nör	-8484
▁oel	-8485
tiven	-8486
ville	-8487
▁enzy	-8488
▁flag	-8489
▁gift	-8490
▁king	-8491
▁lohn	-8492
▁tode	-8493
breite	-8494
bridge	-8495
decken	-8496
deuten	-8497
genden	-8498
ingung	-8499
mengen	-8500
mitten	-8501
ogramm	-8502
ündung	-8503
▁anste	-8504
▁chron	-8505
▁conne	-8506
▁derer	-8507
▁erhöh	-8508
▁gates	-8509
▁hügel	-8510
▁nobel	-8511
▁scher	-8512
▁smith	-8513
▁werke	-8514
▁willi	-8515
▁zogen	-8516
▁zuhör	-8517
assungs	-8518
konstru	-8519
▁graben	-8520
▁leeren	-8521
▁lenken	-8522
▁talent	-8523
▁weinen	-8524
menschen	-8525
pedition	-8526
▁anthrop	-8527
▁dreimal	-8528
▁erfüllt	-8529
▁hinweis	-8530
▁korrekt	-8531
▁rechnen	-8532
▁verwirr	-8533
▁winzige	-8534
tisierung	-8535
▁erschien	-8536
▁schlange	-8537
▁wieviele	-8538
▁arbeitspl	-8539
▁ausführen	-8540
▁cambridge	-8541
▁erwärmung	-8542
▁erziehung	-8543
▁flugzeuge	-8544
▁geblieben	-8545
▁orchester	-8546
▁tätigkeit	-8547
▁abendessen	-8548
▁elektronik	-8549
▁schwerkraft	-8550
▁schwierigen	-8551
▁stattfinden	-8552
▁kohlendioxid	-8553
▁bürgermeister	-8554
▁gewissermaßen	-8555
▁unterscheidet	-8556
▁wunderschönen	-8557
ci	-8558
rew	-8559
▁dä	-8560
▁pm	-8561
alem	-8562
anst	-8563
arat	-8564
dium	-8565
erei	-8566
esie	-8567
film	-8568
grad	-8569
unge	-8570
verl	-8571
▁hut	-8572
▁lim	-8573
aller	-8574
elles	-8575
ündet	-8576
▁2003	-8577
▁amer	-8578
▁iron	-8579
▁kond	-8580
▁nied	-8581
▁ulti	-8582
anders	-8583
fühlen	-8584
vember	-8585
▁genie	-8586
▁green	-8587
▁kiste	-8588
▁party	-8589
▁power	-8590
▁summe	-8591
▁sätze	-8592
▁unbeh	-8593
▁volle	-8594
▁50.000	-8595
▁bestäu	-8596
▁einges	-8597
▁gehalt	-8598
▁herbei	-8599
▁küsten	-8600
▁phosph	-8601
▁poster	-8602
▁psychi	-8603
▁ultima	-8604
▁wüsten	-8605
▁autoren	-8606
▁flasche	-8607
▁gefüllt	-8608
▁geredet	-8609
▁manhatt	-8610
▁nutzten	-8611
▁oktober	-8612
▁baseball	-8613
▁behinder	-8614
▁bewerten	-8615
▁beziehen	-8616
▁gesünder	-8617
▁inmitten	-8618
▁verlangt	-8619
▁verliebt	-8620
▁weltbank	-8621
▁überzeug	-8622
▁schichten	-8623
▁vielerlei	-8624
▁angeschaut	-8625
▁auftauchen	-8626
▁einstellen	-8627
▁engagement	-8628
▁religiösen	-8629
▁trainieren	-8630
▁anzuschauen	-8631
▁zeichnungen	-8632
▁depressionen	-8633
▁individuelle	-8634
▁kapitalismus	-8635
▁schreibtisch	-8636
▁weitermachen	-8637
▁international	-8638
▁sicherstellen	-8639
-ch	-8640
dam	-8641
drü	-8642
osh	-8643
uck	-8644
▁zo	-8645
,000	-8646
fabr	-8647
mark	-8648
otto	-8649
urer	-8650
wehr	-8651
öcke	-8652
▁bay	-8653
▁cra	-8654
▁pas	-8655
▁soc	-8656
▁öst	-8657
bruar	-8658
mpfer	-8659
ulare	-8660
üchte	-8661
▁besp	-8662
▁kehr	-8663
haufen	-8664
kasten	-8665
körper	-8666
lässig	-8667
ordnet	-8668
▁allzu	-8669
▁anson	-8670
▁begrü	-8671
▁coole	-8672
▁derek	-8673
▁honig	-8674
▁jagen	-8675
▁kauft	-8676
▁köpfe	-8677
▁länge	-8678
▁physi	-8679
▁polar	-8680
▁probe	-8681
▁regul	-8682
▁verdr	-8683
▁verne	-8684
▁volks	-8685
▁welle	-8686
▁wirft	-8687
technik	-8688
timeter	-8689
tisiert	-8690
verschm	-8691
▁beglei	-8692
▁bergen	-8693
▁inseln	-8694
▁mandel	-8695
▁prakti	-8696
▁sinken	-8697
▁szenar	-8698
▁tollen	-8699
▁tricks	-8700
▁anfangs	-8701
▁ausgang	-8702
▁beendet	-8703
▁februar	-8704
▁figuren	-8705
▁suchten	-8706
igerweise	-8707
▁aufrecht	-8708
▁erledigt	-8709
▁fabriken	-8710
▁institut	-8711
▁reichtum	-8712
▁sicherer	-8713
▁streiten	-8714
▁ansonsten	-8715
▁effizient	-8716
▁erledigen	-8717
▁erzählten	-8718
▁hilfreich	-8719
▁hunderten	-8720
▁niedriger	-8721
▁nirgendwo	-8722
▁parlament	-8723
▁regenwald	-8724
bedingungen	-8725
▁ansprechen	-8726
▁gewöhnlich	-8727
▁lächerlich	-8728
gemeinschaft	-8729
▁irgendeiner	-8730
▁journalisten	-8731
▁medikamenten	-8732
issenschaftler	-8733
▁durchzuführen	-8734
▁ursprüngliche	-8735
--	-8736
do	-8737
zo	-8738
-be	-8739
fot	-8740
ric	-8741
sek	-8742
tum	-8743
umb	-8744
▁eb	-8745
ardo	-8746
blei	-8747
ilen	-8748
lein	-8749
otor	-8750
quem	-8751
unft	-8752
uste	-8753
zone	-8754
ülen	-8755
▁191	-8756
▁alz	-8757
▁mr.	-8758
▁nav	-8759
aktor	-8760
ppich	-8761
sorge	-8762
ucken	-8763
▁irre	-8764
▁just	-8765
▁klat	-8766
▁poly	-8767
▁schö	-8768
▁skep	-8769
▁wale	-8770
gewebe	-8771
person	-8772
wecken	-8773
zählen	-8774
▁atlan	-8775
▁heiße	-8776
▁liebt	-8777
sträger	-8778
verkehr	-8779
▁ameise	-8780
▁aufgeb	-8781
▁befrie	-8782
▁echter	-8783
▁erfuhr	-8784
▁erzähl	-8785
▁frisch	-8786
▁getrei	-8787
▁kompon	-8788
▁reiste	-8789
▁senken	-8790
▁stoßen	-8791
gewiesen	-8792
ichteten	-8793
schalten	-8794
▁balance	-8795
▁florida	-8796
▁fressen	-8797
▁kletter	-8798
▁kolonie	-8799
▁pazifik	-8800
▁reicher	-8801
▁rettung	-8802
▁studium	-8803
▁tropfen	-8804
▁unangen	-8805
▁würdest	-8806
schließen	-8807
▁business	-8808
▁empathie	-8809
▁erzielen	-8810
▁intuitiv	-8811
▁kopieren	-8812
▁relevant	-8813
▁sammlung	-8814
▁soziales	-8815
▁synchron	-8816
▁teleskop	-8817
▁tragödie	-8818
▁verfügen	-8819
▁widerspr	-8820
▁alzheimer	-8821
▁anzeichen	-8822
▁begriffen	-8823
▁einwohner	-8824
▁fernseher	-8825
▁fischerei	-8826
▁folgender	-8827
▁fortgesch	-8828
▁genetisch	-8829
▁kreislauf	-8830
▁speichern	-8831
▁täuschung	-8832
▁unendlich	-8833
▁ausgewählt	-8834
▁bandbreite	-8835
▁chemischen	-8836
▁geschlagen	-8837
▁verhindert	-8838
▁abschließen	-8839
▁großartiger	-8840
▁großartiges	-8841
▁mittagessen	-8842
▁zweieinhalb	-8843
▁optimistisch	-8844
▁wundervollen	-8845
▁einschließlich	-8846
▁lebensqualität	-8847
▁untersuchungen	-8848
a.	-8849
agd	-8850
mil	-8851
mor	-8852
mär	-8853
tzu	-8854
umt	-8855
urt	-8856
▁3.	-8857
▁ib	-8858
achs	-8859
arzt	-8860
emie	-8861
ilde	-8862
itor	-8863
wich	-8864
älle	-8865
änen	-8866
▁dez	-8867
▁err	-8868
▁fix	-8869
▁sir	-8870
block	-8871
flung	-8872
formt	-8873
leger	-8874
stall	-8875
werks	-8876
▁anre	-8877
▁foss	-8878
▁kost	-8879
▁krab	-8880
▁maße	-8881
▁prem	-8882
gesund	-8883
ophren	-8884
uchsen	-8885
öpfung	-8886
▁attra	-8887
▁engag	-8888
▁etabl	-8889
▁falle	-8890
▁fremd	-8891
▁füßen	-8892
▁lücke	-8893
▁mäuse	-8894
▁sensi	-8895
▁smart	-8896
behörde	-8897
hundert	-8898
zentren	-8899
ziehung	-8900
▁antark	-8901
▁brüder	-8902
▁felsen	-8903
▁halben	-8904
▁sensor	-8905
▁widmen	-8906
▁ärzten	-8907
-projekt	-8908
sichtigt	-8909
versität	-8910
▁abstand	-8911
▁distanz	-8912
▁erfasst	-8913
▁komisch	-8914
▁planung	-8915
▁zugeben	-8916
▁ankommen	-8917
▁bewohner	-8918
▁frühling	-8919
▁hervorra	-8920
▁mischung	-8921
▁sprecher	-8922
▁vernunft	-8923
▁vortrags	-8924
▁übergang	-8925
▁animation	-8926
▁anzugehen	-8927
▁architekt	-8928
▁englische	-8929
▁mitteilen	-8930
▁offenheit	-8931
▁perfekten	-8932
▁schwarzes	-8933
▁aufmerksam	-8934
▁optimismus	-8935
▁finanzieren	-8936
▁schizophren	-8937
▁bewusstseins	-8938
▁experimentel	-8939
▁verzweiflung	-8940
▁konzentration	-8941
▁fortgeschritten	-8942
aa	-8943
ms	-8944
nd	-8945
ope	-8946
que	-8947
▁s.	-8948
ffin	-8949
icon	-8950
mitt	-8951
park	-8952
▁adr	-8953
▁bir	-8954
▁jes	-8955
▁ram	-8956
▁tas	-8957
▁tän	-8958
▁äqu	-8959
achse	-8960
attet	-8961
dauer	-8962
diert	-8963
haber	-8964
pfern	-8965
sters	-8966
▁euro	-8967
▁güte	-8968
▁matt	-8969
▁meme	-8970
▁sexu	-8971
fanden	-8972
zierte	-8973
ästhes	-8974
▁80ern	-8975
▁gehst	-8976
▁geläh	-8977
▁grenz	-8978
▁kluft	-8979
▁reale	-8980
grenzen	-8981
methode	-8982
▁kurzer	-8983
▁lieder	-8984
▁marsch	-8985
▁spiels	-8986
▁staats	-8987
▁unverm	-8988
▁vagina	-8989
▁vorles	-8990
▁wohnen	-8991
vielfalt	-8992
▁aggress	-8993
▁beginne	-8994
▁detaill	-8995
▁dopamin	-8996
▁hierfür	-8997
▁manager	-8998
▁paradig	-8999
▁realist	-9000
▁außerird	-9001
▁basieren	-9002
▁bedienen	-9003
▁billiger	-9004
▁diplomat	-9005
▁handlung	-9006
▁häufiger	-9007
▁liebsten	-9008
▁schaffte	-9009
▁schienen	-9010
▁schwefel	-9011
▁vielzahl	-9012
▁berühmten	-9013
▁geschützt	-9014
▁großvater	-9015
▁kreaturen	-9016
▁rückwärts	-9017
▁strahlung	-9018
▁täglichen	-9019
▁umgekehrt	-9020
▁vereinbar	-9021
▁finanziert	-9022
▁management	-9023
▁reichweite	-9024
▁simulation	-9025
▁wörterbuch	-9026
▁überqueren	-9027
▁einrichtung	-9028
▁intelligent	-9029
▁mittelpunkt	-9030
▁widerspruch	-9031
▁zusammengef	-9032
▁überzeugung	-9033
▁alternativen	-9034
▁fotografiert	-9035
▁freiwilligen	-9036
▁industriellen	-9037
-di	-9038
bai	-9039
feh	-9040
gab	-9041
osn	-9042
ünd	-9043
▁ec	-9044
baum	-9045
code	-9046
teln	-9047
äger	-9048
üten	-9049
▁amb	-9050
▁hen	-9051
▁imi	-9052
▁mob	-9053
▁tes	-9054
▁vit	-9055
-kopf	-9056
agent	-9057
inson	-9058
inzip	-9059
kampf	-9060
reter	-9061
ropie	-9062
spezi	-9063
▁fröh	-9064
▁simp	-9065
▁u-bo	-9066
▁vene	-9067
▁zuge	-9068
ennung	-9069
fällen	-9070
ichert	-9071
ladung	-9072
üllung	-9073
▁black	-9074
▁bruch	-9075
▁dreck	-9076
▁ideal	-9077
▁koran	-9078
▁liest	-9079
▁rauch	-9080
▁sonnt	-9081
▁toler	-9082
▁väter	-9083
legenen	-9084
örtlich	-9085
▁binden	-9086
▁genaue	-9087
▁großem	-9088
▁multip	-9089
▁poesie	-9090
▁reiche	-9091
▁winkel	-9092
isierten	-9093
probleme	-9094
sprecher	-9095
zumachen	-9096
ächtigen	-9097
▁anreize	-9098
▁antibio	-9099
▁e-mails	-9100
▁fischen	-9101
▁handels	-9102
▁königin	-9103
▁phantom	-9104
▁solaren	-9105
maschinen	-9106
▁aufgeben	-9107
▁dezember	-9108
▁gewinner	-9109
▁herkunft	-9110
▁umsetzen	-9111
▁verboten	-9112
▁vielmals	-9113
▁anstellen	-9114
▁auswählen	-9115
▁autorität	-9116
▁berichtet	-9117
▁dimension	-9118
▁manhattan	-9119
▁störungen	-9120
▁technisch	-9121
bewusstsein	-9122
▁aktivieren	-9123
▁bescheiden	-9124
▁effektiver	-9125
▁einkommens	-9126
▁involviert	-9127
▁klassische	-9128
▁leistungen	-9129
▁supermarkt	-9130
▁überlassen	-9131
▁erforschung	-9132
▁gegenstände	-9133
▁stattfindet	-9134
▁unterwasser	-9135
▁angestellten	-9136
▁beeindrucken	-9137
▁finanziellen	-9138
▁präsentieren	-9139
▁sonnensystem	-9140
▁erstaunlichen	-9141
▁individuellen	-9142
▁sterblichkeit	-9143
ish	-9144
ros	-9145
zit	-9146
öch	-9147
iban	-9148
uzin	-9149
▁3d-	-9150
▁biz	-9151
▁cap	-9152
▁fik	-9153
▁kum	-9154
▁out	-9155
▁rio	-9156
▁sat	-9157
auert	-9158
chnet	-9159
ließt	-9160
teils	-9161
uchte	-9162
▁brem	-9163
▁etc.	-9164
▁gps-	-9165
▁mont	-9166
▁ring	-9167
▁warm	-9168
▁yeah	-9169
kinder	-9170
ordnen	-9171
tigend	-9172
ustern	-9173
▁arist	-9174
▁brook	-9175
▁endet	-9176
▁leder	-9177
grammen	-9178
wirkung	-9179
▁babies	-9180
▁berufs	-9181
▁beutel	-9182
▁breite	-9183
▁gelben	-9184
▁küchen	-9185
▁messer	-9186
▁progno	-9187
fertigen	-9188
wechseln	-9189
▁bewirkt	-9190
▁brennen	-9191
▁brücken	-9192
▁einkauf	-9193
▁homosex	-9194
▁kannten	-9195
▁motoren	-9196
▁strateg	-9197
▁wahrhaf	-9198
▁wirksam	-9199
irtschaft	-9200
katastrop	-9201
sprogramm	-9202
wirkungen	-9203
▁andauern	-9204
▁beobacht	-9205
▁berühmte	-9206
▁blutgefä	-9207
▁geeignet	-9208
▁herrscht	-9209
▁kompeten	-9210
▁mithilfe	-9211
▁phosphor	-9212
▁problema	-9213
▁startete	-9214
▁bakterium	-9215
▁einnehmen	-9216
▁hypothese	-9217
▁schickten	-9218
▁spektakul	-9219
▁aufregende	-9220
▁konkurrenz	-9221
▁merkwürdig	-9222
▁religionen	-9223
▁verdoppelt	-9224
▁vergrößern	-9225
▁überwachen	-9226
▁beobachtete	-9227
▁erfindungen	-9228
▁hilfsmittel	-9229
▁hindernisse	-9230
▁trinkwasser	-9231
▁verbraucher	-9232
▁beschreibung	-9233
▁erkrankungen	-9234
▁krankenschwe	-9235
▁beschleunigen	-9236
▁unabhängigkeit	-9237
▁sicherzustellen	-9238
ey	-9239
lv	-9240
pu	-9241
y-	-9242
kin	-9243
uel	-9244
wie	-9245
äck	-9246
öss	-9247
▁29	-9248
▁ue	-9249
bole	-9250
face	-9251
idee	-9252
igem	-9253
sitz	-9254
▁1,5	-9255
▁akk	-9256
▁bör	-9257
▁fla	-9258
▁gib	-9259
▁gif	-9260
▁nei	-9261
▁sno	-9262
arfen	-9263
bogen	-9264
fache	-9265
figur	-9266
jahre	-9267
uropa	-9268
zeige	-9269
▁affe	-9270
▁held	-9271
▁hipp	-9272
▁jose	-9273
▁kalk	-9274
▁leit	-9275
▁nick	-9276
▁skiz	-9277
bellen	-9278
illige	-9279
leiden	-9280
schmer	-9281
▁abgel	-9282
▁akust	-9283
▁anfäl	-9284
▁blogs	-9285
▁bären	-9286
▁ernte	-9287
▁genen	-9288
▁grand	-9289
▁kürze	-9290
▁laser	-9291
▁möbel	-9292
▁proto	-9293
▁redet	-9294
▁teure	-9295
▁unber	-9296
▁wende	-9297
fferenz	-9298
▁banken	-9299
▁erfand	-9300
▁steine	-9301
▁tedtal	-9302
▁türkei	-9303
▁virgin	-9304
▁überre	-9305
lizieren	-9306
änderung	-9307
▁blieben	-9308
▁blinden	-9309
▁niederl	-9310
▁radikal	-9311
▁annahmen	-9312
▁besitzer	-9313
▁größeres	-9314
▁heiligen	-9315
▁hochzeit	-9316
▁norwegen	-9317
▁objekten	-9318
▁primitiv	-9319
▁rhythmus	-9320
▁spielten	-9321
▁steigern	-9322
▁ältesten	-9323
temperatur	-9324
▁impfstoff	-9325
▁kognitive	-9326
▁prozesses	-9327
▁religiöse	-9328
▁schafften	-9329
▁selektion	-9330
▁beschaffen	-9331
▁glückliche	-9332
▁sorgfältig	-9333
▁verrückten	-9334
▁verurteilt	-9335
▁wahrschein	-9336
▁ausreichend	-9337
▁faszinieren	-9338
▁reihenfolge	-9339
▁städtischen	-9340
▁tiefgreifen	-9341
▁voraussagen	-9342
▁darzustellen	-9343
▁diskussionen	-9344
▁einzigartige	-9345
▁verletzungen	-9346
▁faszinierende	-9347
▁wohltätigkeit	-9348
▁aufzeichnungen	-9349
▁experimentieren	-9350
▁hunderttausende	-9351
oß	-9352
r.	-9353
uf	-9354
had	-9355
kol	-9356
low	-9357
ora	-9358
uni	-9359
▁55	-9360
▁mt	-9361
ahme	-9362
arre	-9363
fert	-9364
iene	-9365
ulin	-9366
▁fbi	-9367
▁hub	-9368
▁piz	-9369
▁rut	-9370
▁äuß	-9371
erten	-9372
läuft	-9373
steht	-9374
▁adop	-9375
▁chao	-9376
▁gore	-9377
▁mill	-9378
▁quan	-9379
▁watt	-9380
-masch	-9381
chtern	-9382
ieller	-9383
inseln	-9384
ission	-9385
itiver	-9386
mische	-9387
ranten	-9388
räumen	-9389
sektor	-9390
strahl	-9391
▁atome	-9392
▁befol	-9393
▁leser	-9394
▁luxus	-9395
▁meint	-9396
▁panik	-9397
▁story	-9398
▁tiger	-9399
brachte	-9400
geboren	-9401
wachsen	-9402
▁anreiz	-9403
▁buches	-9404
▁howard	-9405
▁prüfen	-9406
▁stufen	-9407
computer	-9408
gespräch	-9409
schungen	-9410
▁betonen	-9411
▁bewegte	-9412
▁daneben	-9413
▁effekte	-9414
▁gedreht	-9415
▁gerecht	-9416
▁muslime	-9417
▁platten	-9418
▁schlägt	-9419
▁tendenz	-9420
▁umfrage	-9421
▁wandern	-9422
▁wüssten	-9423
aktivität	-9424
▁anhänger	-9425
▁draussen	-9426
▁eröffnen	-9427
▁geringer	-9428
▁gleicher	-9429
▁ignoranz	-9430
▁kalorien	-9431
▁angeboten	-9432
▁britische	-9433
▁ermutigen	-9434
▁feuerwehr	-9435
▁gewachsen	-9436
▁schneiden	-9437
▁studierte	-9438
▁bewältigen	-9439
▁emissionen	-9440
▁königreich	-9441
▁schokolade	-9442
▁stabilität	-9443
▁effizienter	-9444
▁verzweifelt	-9445
▁beizubringen	-9446
▁entsprechend	-9447
▁solarenergie	-9448
▁zehntausende	-9449
▁mathematische	-9450
▁bildungssystem	-9451
▁eingeschlossen	-9452
▁zusammenfassen	-9453
d.	-9454
fü	-9455
rü	-9456
yo	-9457
-sy	-9458
ray	-9459
vis	-9460
▁42	-9461
▁rb	-9462
empf	-9463
orth	-9464
pers	-9465
stei	-9466
ugen	-9467
zier	-9468
zwei	-9469
▁17.	-9470
▁al-	-9471
▁bzw	-9472
▁cri	-9473
▁cro	-9474
▁mai	-9475
▁nel	-9476
deckt	-9477
ffung	-9478
klang	-9479
ogene	-9480
strom	-9481
verse	-9482
äsche	-9483
▁1960	-9484
▁agen	-9485
▁dete	-9486
▁gefl	-9487
▁geni	-9488
▁hass	-9489
▁ipod	-9490
▁lein	-9491
▁mühe	-9492
▁penn	-9493
▁reis	-9494
▁tsun	-9495
▁vieh	-9496
firmen	-9497
istent	-9498
krimin	-9499
zähler	-9500
▁baumw	-9501
▁befra	-9502
▁exter	-9503
▁freit	-9504
▁galer	-9505
▁geprä	-9506
▁glaub	-9507
▁greif	-9508
▁leere	-9509
▁unaus	-9510
klärung	-9511
zierten	-9512
▁archiv	-9513
▁august	-9514
▁grauen	-9515
▁hacker	-9516
▁kontro	-9517
▁kreise	-9518
▁legten	-9519
▁neuron	-9520
▁räumen	-9521
▁saturn	-9522
▁sinnes	-9523
▁termin	-9524
▁unklar	-9525
▁vollen	-9526
▁zutief	-9527
stheorie	-9528
▁ankommt	-9529
▁antrieb	-9530
▁beängst	-9531
▁gefolgt	-9532
▁grösser	-9533
▁hierbei	-9534
▁laptops	-9535
▁mischen	-9536
▁taliban	-9537
▁töchter	-9538
▁vielfäl	-9539
▁vorbild	-9540
ikationen	-9541
kontrolle	-9542
otherapie	-9543
▁anliegen	-9544
▁erstaunt	-9545
▁indische	-9546
▁negative	-9547
▁spannung	-9548
▁auflösung	-9549
▁bedeutsam	-9550
▁deutschen	-9551
▁differenz	-9552
▁gewaltige	-9553
▁komplette	-9554
▁meinungen	-9555
▁männliche	-9556
▁standards	-9557
▁verborgen	-9558
▁verkaufte	-9559
▁akzeptiert	-9560
▁berechnung	-9561
▁expedition	-9562
▁grundlagen	-9563
▁herzlichen	-9564
▁individuum	-9565
▁umgebungen	-9566
▁algorithmus	-9567
▁anweisungen	-9568
▁beobachtung	-9569
▁eingestellt	-9570
▁europäische	-9571
▁finanzielle	-9572
▁fokussieren	-9573
▁geheimnisse	-9574
▁verblüffend	-9575
▁ausgestorben	-9576
▁ausprobieren	-9577
▁konstruktion	-9578
▁unterrichtet	-9579
▁fantastischen	-9580
▁unglaubliches	-9581
▁repräsentieren	-9582
▁transportieren	-9583
▁ursprünglichen	-9584
▁außerordentlich	-9585
-1	-9586
rö	-9587
bon	-9588
sey	-9589
wäl	-9590
yle	-9591
▁ce	-9592
gase	-9593
geld	-9594
gäng	-9595
iser	-9596
phin	-9597
robo	-9598
tran	-9599
weiß	-9600
well	-9601
▁193	-9602
▁fün	-9603
▁lou	-9604
▁rab	-9605
▁wat	-9606
angel	-9607
ellos	-9608
ieden	-9609
spart	-9610
▁2011	-9611
▁fang	-9612
▁käse	-9613
▁lego	-9614
▁mani	-9615
▁räum	-9616
▁wall	-9617
altete	-9618
bergen	-9619
besitz	-9620
senden	-9621
weiten	-9622
▁2.000	-9623
▁beför	-9624
▁femin	-9625
▁freue	-9626
▁sturm	-9627
▁tötet	-9628
▁wiegt	-9629
▁zehen	-9630
anthrop	-9631
nehmern	-9632
verhält	-9633
▁bestes	-9634
▁denkst	-9635
▁drüber	-9636
▁fassen	-9637
▁nelson	-9638
▁schmel	-9639
▁seiden	-9640
▁wortes	-9641
▁wähler	-9642
wegungen	-9643
▁ausländ	-9644
▁bezieht	-9645
▁bislang	-9646
▁breiten	-9647
▁drinnen	-9648
▁drucken	-9649
▁heilung	-9650
▁insulin	-9651
▁paradox	-9652
▁sendung	-9653
▁sonntag	-9654
▁vertrag	-9655
▁zeitgen	-9656
▁züchten	-9657
schreiben	-9658
ungsweise	-9659
▁auftritt	-9660
▁behörden	-9661
▁bewiesen	-9662
▁dutzende	-9663
▁entropie	-9664
▁freizeit	-9665
▁geleitet	-9666
▁gesetzen	-9667
▁getreide	-9668
▁globaler	-9669
▁lehrerin	-9670
▁normales	-9671
▁schenken	-9672
▁zutiefst	-9673
gesundheit	-9674
▁aktiviert	-9675
▁berechnet	-9676
▁chirurgen	-9677
▁hinweisen	-9678
▁karikatur	-9679
▁keinerlei	-9680
▁niemandem	-9681
▁auffassung	-9682
▁biologisch	-9683
▁kombiniert	-9684
▁stickstoff	-9685
▁verpflicht	-9686
▁zentimeter	-9687
organisation	-9688
▁aufzunehmen	-9689
▁durchmesser	-9690
▁gewöhnliche	-9691
▁konsumieren	-9692
▁psychologen	-9693
▁restaurants	-9694
▁eigentlichen	-9695
▁erfolgreiche	-9696
▁jugendlichen	-9697
▁klimawandels	-9698
▁stoffwechsel	-9699
▁arbeitsplätze	-9700
▁interaktionen	-9701
▁notwendigkeit	-9702
▁menschenrechte	-9703
ae	-9704
ny	-9705
-sc	-9706
ace	-9707
atr	-9708
dex	-9709
gei	-9710
lay	-9711
nel	-9712
une	-9713
▁37	-9714
▁mi	-9715
herz	-9716
ifiz	-9717
osis	-9718
swür	-9719
udie	-9720
▁idi	-9721
▁mum	-9722
▁tax	-9723
ammen	-9724
auben	-9725
board	-9726
dacht	-9727
probe	-9728
▁bell	-9729
▁dikt	-9730
▁fakt	-9731
▁hero	-9732
▁hill	-9733
▁kreb	-9734
▁nano	-9735
▁pilz	-9736
dliche	-9737
source	-9738
tikeln	-9739
ündete	-9740
▁endes	-9741
▁found	-9742
▁graph	-9743
▁höhen	-9744
▁jesus	-9745
▁pilot	-9746
▁pläne	-9747
▁seife	-9748
▁slums	-9749
▁ständ	-9750
▁umgew	-9751
▁unbew	-9752
▁wollt	-9753
▁zwill	-9754
aterial	-9755
wärmung	-9756
▁arznei	-9757
▁felder	-9758
▁lauter	-9759
▁lincol	-9760
▁tempor	-9761
▁zigare	-9762
▁zwangs	-9763
effizien	-9764
wachstum	-9765
zutreten	-9766
▁anschau	-9767
▁gelingt	-9768
▁gesucht	-9769
▁indiens	-9770
▁schätze	-9771
▁silicon	-9772
▁sklaven	-9773
▁verteil	-9774
▁vietnam	-9775
▁zurzeit	-9776
▁dringend	-9777
▁gebunden	-9778
▁halluzin	-9779
▁personal	-9780
▁schulden	-9781
▁schuldig	-9782
▁typische	-9783
▁verraten	-9784
▁benötigte	-9785
▁disziplin	-9786
▁eingebaut	-9787
▁infektion	-9788
▁jedermann	-9789
▁kritische	-9790
▁produkten	-9791
▁trainiert	-9792
▁anzunehmen	-9793
▁beteiligen	-9794
▁durchgehen	-9795
▁festhalten	-9796
▁foundation	-9797
▁initiative	-9798
▁investoren	-9799
▁zueinander	-9800
▁durchlaufen	-9801
verschmutzung	-9802
▁schlagzeilen	-9803
▁unsicherheit	-9804
▁vergewaltigt	-9805
▁elektronische	-9806
▁fotografieren	-9807
▁größenordnung	-9808
▁programmierer	-9809
▁fettleibigkeit	-9810
ary	-9811
dis	-9812
gos	-9813
yon	-9814
äle	-9815
▁up	-9816
erkt	-9817
kind	-9818
wing	-9819
▁18.	-9820
▁cel	-9821
▁law	-9822
▁urb	-9823
▁who	-9824
arren	-9825
aster	-9826
ergeb	-9827
lings	-9828
loser	-9829
ophen	-9830
opter	-9831
otten	-9832
right	-9833
stock	-9834
öhnen	-9835
▁anat	-9836
▁ausf	-9837
▁bast	-9838
▁cous	-9839
▁fels	-9840
▁funk	-9841
▁gött	-9842
▁long	-9843
▁sche	-9844
▁zens	-9845
eschön	-9846
ketten	-9847
kommun	-9848
▁3.000	-9849
▁absor	-9850
▁ausde	-9851
▁blitz	-9852
▁bogen	-9853
▁bombe	-9854
▁count	-9855
▁dschi	-9856
▁ergän	-9857
▁erwer	-9858
▁jenes	-9859
▁kopie	-9860
▁open-	-9861
▁shang	-9862
▁stell	-9863
▁stopp	-9864
▁ueber	-9865
▁verkl	-9866
▁wolke	-9867
▁zudem	-9868
blicken	-9869
ometern	-9870
setzten	-9871
▁methan	-9872
▁regist	-9873
▁second	-9874
ferenzen	-9875
gegenwär	-9876
getragen	-9877
schnitte	-9878
standard	-9879
zuhalten	-9880
▁behaupt	-9881
▁direkte	-9882
▁erleich	-9883
▁erstmal	-9884
▁fluores	-9885
▁fürchte	-9886
▁gewaltt	-9887
▁langleb	-9888
▁nicht-n	-9889
▁symbole	-9890
▁versagt	-9891
▁wohnung	-9892
▁zweiter	-9893
▁öffnete	-9894
▁analogie	-9895
▁dschihad	-9896
▁erwähnte	-9897
▁parallel	-9898
▁primaten	-9899
▁rauschen	-9900
▁riesiger	-9901
▁strahlen	-9902
▁woanders	-9903
▁zerbrech	-9904
▁aufstehen	-9905
▁computers	-9906
▁datenbank	-9907
▁empfangen	-9908
▁erweitert	-9909
▁herstellt	-9910
▁kleineren	-9911
▁rollstuhl	-9912
▁zentralen	-9913
▁anzuwenden	-9914
▁beschränkt	-9915
▁dankeschön	-9916
▁kommentare	-9917
▁kunststoff	-9918
▁verstorben	-9919
▁beantwortet	-9920
▁beherrschen	-9921
▁emotionalen	-9922
▁staatlichen	-9923
▁verheiratet	-9924
▁wichtigkeit	-9925
▁erkenntnisse	-9926
▁intervention	-9927
▁studierenden	-9928
▁durchschnitts	-9929
▁schrecklichen	-9930
▁tatsächlichen	-9931
▁kommunikations	-9932
aw	-9933
fo	-9934
cer	-9935
ilz	-9936
mat	-9937
opf	-9938
ows	-9939
sol	-9940
typ	-9941
ßig	-9942
▁dv	-9943
▁ig	-9944
▁wi	-9945
ahrt	-9946
bell	-9947
kler	-9948
olum	-9949
zehn	-9950
▁blu	-9951
▁kau	-9952
▁mur	-9953
▁ray	-9954
▁squ	-9955
-test	-9956
agten	-9957
hoben	-9958
lafen	-9959
onanz	-9960
ullen	-9961
verei	-9962
▁2002	-9963
▁farm	-9964
▁ford	-9965
▁gumm	-9966
▁haup	-9967
▁kenn	-9968
▁leon	-9969
▁prie	-9970
▁radi	-9971
▁süch	-9972
becken	-9973
berech	-9974
voller	-9975
üsseln	-9976
▁anti-	-9977
▁betra	-9978
▁brian	-9979
▁gelbe	-9980
▁haust	-9981
▁kanad	-9982
▁malte	-9983
▁media	-9984
▁schad	-9985
gesehen	-9986
medizin	-9987
schrank	-9988
▁anwalt	-9989
▁brilli	-9990
▁decken	-9991
▁derzei	-9992
▁dörfer	-9993
▁flogen	-9994
▁gegner	-9995
▁herzin	-9996
▁kortex	-9997
▁merkte	-9998
▁mitlei	-9999
▁patent	-10000
▁rakete	-10001
▁sendet	-10002
▁wurzel	-10003
bereiten	-10004
schafter	-10005
▁anrufen	-10006
▁anzeige	-10007
▁drohnen	-10008
▁kleider	-10009
▁kollege	-10010
▁leichte	-10011
▁lincoln	-10012
▁spanien	-10013
▁stammes	-10014
▁tiefsee	-10015
▁umfasst	-10016
icherheit	-10017
▁anziehen	-10018
▁besserer	-10019
▁direktor	-10020
▁erlaubte	-10021
▁frequenz	-10022
▁fürchten	-10023
▁getragen	-10024
▁hingegen	-10025
▁kollabor	-10026
verstanden	-10027
▁anspruchs	-10028
▁erlaubnis	-10029
▁erschwing	-10030
▁negativen	-10031
▁typischen	-10032
▁verletzen	-10033
▁zustimmen	-10034
▁brennstoff	-10035
▁einerseits	-10036
▁fotografie	-10037
▁motivieren	-10038
▁unterdrück	-10039
▁architekton	-10040
▁atomenergie	-10041
▁eingeschrän	-10042
▁freiwillige	-10043
▁gravitation	-10044
▁natürlicher	-10045
▁unsichtbare	-10046
▁wesentliche	-10047
▁angelegenheit	-10048
wissenschaftler	-10049
jo	-10050
sc	-10051
.a.	-10052
har	-10053
spf	-10054
-kam	-10055
ifik	-10056
inos	-10057
odie	-10058
rien	-10059
vide	-10060
ökon	-10061
▁bit	-10062
▁bun	-10063
▁gay	-10064
▁ski	-10065
▁sud	-10066
▁won	-10067
anner	-10068
günst	-10069
istin	-10070
itäre	-10071
legte	-10072
rogen	-10073
örder	-10074
▁2050	-10075
▁allm	-10076
▁angi	-10077
▁bzw.	-10078
▁clin	-10079
▁delf	-10080
▁hebt	-10081
▁rass	-10082
▁rate	-10083
▁rick	-10084
▁shak	-10085
▁tast	-10086
▁warf	-10087
asiten	-10088
bereit	-10089
fassen	-10090
inform	-10091
plätze	-10092
reißen	-10093
sprodu	-10094
stimmt	-10095
ächter	-10096
ätzung	-10097
▁ablen	-10098
▁abrah	-10099
▁güter	-10100
▁inder	-10101
▁lande	-10102
▁lehrt	-10103
▁mexik	-10104
▁minen	-10105
▁perio	-10106
▁sitze	-10107
▁sorgt	-10108
▁south	-10109
▁teilt	-10110
▁anlage	-10111
▁bringe	-10112
▁ehrgei	-10113
▁ernten	-10114
▁fasern	-10115
▁filmem	-10116
▁garage	-10117
▁gelegt	-10118
▁gerüst	-10119
▁konkre	-10120
▁korrig	-10121
▁kritik	-10122
▁landet	-10123
▁matrix	-10124
▁newton	-10125
▁phasen	-10126
▁portra	-10127
▁weizen	-10128
▁wüsste	-10129
freiheit	-10130
gebildet	-10131
gehalten	-10132
gesteuer	-10133
geworfen	-10134
▁abhängt	-10135
▁allerer	-10136
▁banglad	-10137
▁branche	-10138
▁chromos	-10139
▁design-	-10140
▁gestalt	-10141
▁goldene	-10142
▁konvers	-10143
▁massive	-10144
▁premier	-10145
▁strecke	-10146
▁verdeut	-10147
abschluss	-10148
aufnahmen	-10149
▁anderswo	-10150
▁arbeitsk	-10151
▁generell	-10152
▁jegliche	-10153
▁kolonien	-10154
▁mächtige	-10155
▁neuesten	-10156
▁robotern	-10157
▁substanz	-10158
▁verschle	-10159
▁versehen	-10160
▁versorgt	-10161
landschaft	-10162
▁alexander	-10163
▁angewandt	-10164
▁einfallen	-10165
▁einführen	-10166
▁erzählung	-10167
▁gestohlen	-10168
▁getrieben	-10169
▁hinterher	-10170
▁repräsent	-10171
▁schlangen	-10172
▁schütteln	-10173
▁äthiopien	-10174
▁bedeutende	-10175
▁durchbruch	-10176
▁gewaltigen	-10177
▁großeltern	-10178
▁interviews	-10179
▁nährstoffe	-10180
▁restlichen	-10181
▁säugetiere	-10182
▁verdoppeln	-10183
▁gefährliche	-10184
▁islamischen	-10185
▁mitgebracht	-10186
▁unabhängige	-10187
▁verbreitete	-10188
▁beschleunigt	-10189
▁beschäftigte	-10190
▁krankenhäuser	-10191
▁wirtschaftlich	-10192
▁einschränkungen	-10193
▁verletzlichkeit	-10194
-j	-10195
ema	-10196
häu	-10197
ini	-10198
ola	-10199
rus	-10200
wol	-10201
arkt	-10202
iole	-10203
luft	-10204
tein	-10205
wege	-10206
▁2,5	-10207
▁alb	-10208
▁amy	-10209
▁cur	-10210
▁lud	-10211
▁rap	-10212
-tech	-10213
akten	-10214
diger	-10215
liebe	-10216
namen	-10217
orten	-10218
ramme	-10219
▁2012	-10220
▁benj	-10221
▁bern	-10222
▁einb	-10223
▁erbe	-10224
▁eric	-10225
▁feyn	-10226
▁hang	-10227
▁hekt	-10228
▁jazz	-10229
▁link	-10230
▁litt	-10231
▁sach	-10232
▁snow	-10233
▁unzu	-10234
eidung	-10235
eitete	-10236
hafter	-10237
ierbar	-10238
region	-10239
steten	-10240
▁70ern	-10241
▁algen	-10242
▁anony	-10243
▁ansah	-10244
▁baten	-10245
▁buddh	-10246
▁cloud	-10247
▁formt	-10248
▁gefil	-10249
▁hafen	-10250
▁hosen	-10251
▁korea	-10252
▁leise	-10253
▁liban	-10254
▁miner	-10255
▁minus	-10256
▁ratte	-10257
▁tafel	-10258
▁veget	-10259
▁vorur	-10260
bilität	-10261
kreisen	-10262
kriegen	-10263
ografen	-10264
ungslos	-10265
▁befand	-10266
▁betrug	-10267
▁brasil	-10268
▁bricht	-10269
▁folgte	-10270
▁freuen	-10271
▁hühner	-10272
▁minder	-10273
▁packen	-10274
▁siehst	-10275
▁trauma	-10276
▁treppe	-10277
forscher	-10278
▁abweich	-10279
▁anhören	-10280
▁applaus	-10281
▁günstig	-10282
▁haltung	-10283
▁oftmals	-10284
▁origami	-10285
▁riechen	-10286
▁stehlen	-10287
▁teppich	-10288
▁unfälle	-10289
▁wartete	-10290
probieren	-10291
▁fossilen	-10292
▁merkmale	-10293
▁neandert	-10294
▁verkehrs	-10295
▁erreichte	-10296
▁führenden	-10297
▁jahrelang	-10298
▁kleinsten	-10299
▁kommentar	-10300
▁komplexes	-10301
▁molekular	-10302
▁moralisch	-10303
▁schätzung	-10304
▁sklaverei	-10305
▁verknüpft	-10306
▁verkörper	-10307
▁vertreten	-10308
übergreifen	-10309
▁integriert	-10310
▁werkzeugen	-10311
▁wohnzimmer	-10312
▁übernommen	-10313
▁allgegenwär	-10314
▁kollektiven	-10315
▁traditionen	-10316
▁verwendeten	-10317
▁widerstands	-10318
▁landschaften	-10319
▁tatsächliche	-10320
▁festzustellen	-10321
▁intelligenten	-10322
▁interpretation	-10323
▁interpretieren	-10324
▁technologische	-10325
▁transformation	-10326
ki	-10327
ux	-10328
aps	-10329
hur	-10330
lyn	-10331
ona	-10332
oni	-10333
pum	-10334
ret	-10335
ähe	-10336
übt	-10337
▁38	-10338
▁48	-10339
▁lg	-10340
▁ze	-10341
haut	-10342
kömm	-10343
ütze	-10344
▁192	-10345
▁gär	-10346
▁läh	-10347
▁tar	-10348
▁unn	-10349
ansas	-10350
blatt	-10351
eland	-10352
fällt	-10353
kamen	-10354
ocken	-10355
reche	-10356
usste	-10357
ühnen	-10358
▁1990	-10359
▁chri	-10360
▁kühe	-10361
▁märz	-10362
▁news	-10363
▁pest	-10364
▁plat	-10365
▁quot	-10366
▁rosa	-10367
▁töne	-10368
▁zelt	-10369
▁zugr	-10370
esseln	-10371
haftes	-10372
hängen	-10373
sender	-10374
ummern	-10375
ährung	-10376
▁60ern	-10377
▁abhol	-10378
▁antik	-10379
▁aufbl	-10380
▁belei	-10381
▁ethik	-10382
▁fügen	-10383
▁hydro	-10384
▁loszu	-10385
▁magen	-10386
▁neuse	-10387
▁rande	-10388
▁risik	-10389
▁schub	-10390
▁türen	-10391
▁zuver	-10392
abdruck	-10393
energie	-10394
viertel	-10395
wohnern	-10396
▁deprim	-10397
▁formel	-10398
▁genome	-10399
▁geschm	-10400
▁halfen	-10401
▁impuls	-10402
▁liebes	-10403
▁magnet	-10404
▁portug	-10405
▁reserv	-10406
heimlich	-10407
leuchten	-10408
methoden	-10409
▁agieren	-10410
▁gewinne	-10411
▁gewohnt	-10412
▁herkömm	-10413
▁indones	-10414
▁logisch	-10415
▁mandela	-10416
▁meeting	-10417
▁märkten	-10418
▁nuklear	-10419
▁präzise	-10420
▁sammelt	-10421
▁schwamm	-10422
▁spontan	-10423
▁steuert	-10424
▁unbesch	-10425
▁verzerr	-10426
▁willkür	-10427
▁beschwer	-10428
▁durchaus	-10429
▁elektrom	-10430
▁erstmals	-10431
▁forschen	-10432
▁jedesmal	-10433
▁physisch	-10434
▁projekts	-10435
▁schalter	-10436
▁shanghai	-10437
▁zugrunde	-10438
emissionen	-10439
▁absichten	-10440
▁begleitet	-10441
▁bestätigt	-10442
▁daraufhin	-10443
▁innovativ	-10444
▁jederzeit	-10445
▁kapazität	-10446
▁klinische	-10447
▁rekonstru	-10448
▁schwellen	-10449
▁us-amerik	-10450
▁zeichnung	-10451
wasserstoff	-10452
▁einbringen	-10453
▁eineinhalb	-10454
▁erkrankung	-10455
▁existierte	-10456
▁kandidaten	-10457
▁unbekannte	-10458
stechnologie	-10459
▁ausprobiert	-10460
▁bürgerkrieg	-10461
▁integrieren	-10462
▁jugendliche	-10463
▁naturschutz	-10464
▁politischer	-10465
▁schmerzhaft	-10466
▁transparent	-10467
▁umgewandelt	-10468
▁unmittelbar	-10469
▁vorschlagen	-10470
▁wettbewerbs	-10471
kommunikation	-10472
▁gelegentlich	-10473
▁größtenteils	-10474
▁hausaufgaben	-10475
▁persönlicher	-10476
▁programmiert	-10477
▁urheberrecht	-10478
▁demokratische	-10479
▁meeresspiegel	-10480
▁transportiert	-10481
▁demokratischen	-10482
▁premierminister	-10483
▁q	-10484
bab	-10485
dar	-10486
mas	-10487
pal	-10488
tts	-10489
▁7.	-10490
▁bm	-10491
▁cr	-10492
-stu	-10493
blog	-10494
dest	-10495
lebt	-10496
ness	-10497
orea	-10498
tain	-10499
unen	-10500
▁350	-10501
▁agr	-10502
▁hmm	-10503
▁reh	-10504
▁äng	-10505
digte	-10506
iehen	-10507
reckt	-10508
sport	-10509
uther	-10510
utung	-10511
öscht	-10512
▁ewig	-10513
▁flut	-10514
▁hals	-10515
▁isst	-10516
▁panz	-10517
▁pion	-10518
▁treu	-10519
▁ärzt	-10520
proben	-10521
▁90ern	-10522
▁amate	-10523
▁detro	-10524
▁eurem	-10525
▁gemäß	-10526
▁klare	-10527
▁mcdon	-10528
▁müsst	-10529
▁navig	-10530
▁pfeil	-10531
▁pizza	-10532
▁popul	-10533
▁traur	-10534
▁tromm	-10535
▁warst	-10536
fahrung	-10537
zession	-10538
▁30.000	-10539
▁akzept	-10540
▁autist	-10541
▁bequem	-10542
▁berlin	-10543
▁biolum	-10544
▁blinde	-10545
▁briefe	-10546
▁county	-10547
▁gitter	-10548
▁halbes	-10549
▁herbst	-10550
▁kurzes	-10551
▁plätze	-10552
▁raffin	-10553
▁raumes	-10554
▁riecht	-10555
▁teller	-10556
▁unsinn	-10557
▁urlaub	-10558
▁vaters	-10559
▁weiten	-10560
▁würfel	-10561
behalten	-10562
gebieten	-10563
gefahren	-10564
netzwerk	-10565
ästhesie	-10566
▁beeintr	-10567
▁feynman	-10568
▁freitag	-10569
▁geformt	-10570
▁gelände	-10571
▁johnson	-10572
▁körpern	-10573
▁schnapp	-10574
▁schufen	-10575
▁weitaus	-10576
sichtigen	-10577
▁anfingen	-10578
▁aufwuchs	-10579
▁auslösen	-10580
▁eigentum	-10581
▁erzähler	-10582
▁geflogen	-10583
▁gespeich	-10584
▁gesunken	-10585
▁gewalttä	-10586
▁immerhin	-10587
▁möchtest	-10588
▁parteien	-10589
▁radikale	-10590
▁rational	-10591
▁schweren	-10592
▁sicheren	-10593
▁vermuten	-10594
▁vorgehen	-10595
▁antarktis	-10596
▁berührung	-10597
▁beschrieb	-10598
▁geometrie	-10599
▁motiviert	-10600
▁probanden	-10601
▁wachsende	-10602
▁zuzuhören	-10603
geschichten	-10604
▁ausschnitt	-10605
▁beseitigen	-10606
▁betrachter	-10607
▁einfachste	-10608
▁elektroden	-10609
▁generieren	-10610
▁hersteller	-10611
▁kategorien	-10612
▁männlichen	-10613
▁polizisten	-10614
▁psychische	-10615
▁unheimlich	-10616
▁völkermord	-10617
▁antibiotika	-10618
▁anwesenheit	-10619
▁beeindruckt	-10620
▁bestandteil	-10621
▁glücklichen	-10622
▁open-source	-10623
▁verschieben	-10624
▁wunderbares	-10625
▁ausgestattet	-10626
▁jahrhunderte	-10627
▁wahrgenommen	-10628
▁artenvielfalt	-10629
▁konzentrierte	-10630
▁untereinander	-10631
▁verwirklichen	-10632
▁physikalischen	-10633
ec	-10634
din	-10635
▁31	-10636
-und	-10637
isen	-10638
onds	-10639
opft	-10640
otte	-10641
sens	-10642
stad	-10643
verk	-10644
vort	-10645
zens	-10646
älen	-10647
▁dän	-10648
▁elf	-10649
▁ema	-10650
▁kro	-10651
▁ran	-10652
▁tak	-10653
▁val	-10654
agert	-10655
apier	-10656
frika	-10657
ianer	-10658
iland	-10659
laubt	-10660
masse	-10661
opfen	-10662
oskop	-10663
swert	-10664
äusen	-10665
üllte	-10666
▁dile	-10667
▁fuer	-10668
▁hawa	-10669
▁hong	-10670
▁inne	-10671
▁käme	-10672
▁lock	-10673
▁stig	-10674
▁ted-	-10675
▁tony	-10676
▁vaku	-10677
brüche	-10678
ertigt	-10679
felder	-10680
itären	-10681
läufig	-10682
presse	-10683
regeln	-10684
rollen	-10685
schrau	-10686
stands	-10687
terung	-10688
▁analy	-10689
▁earth	-10690
▁einig	-10691
▁ferne	-10692
▁henry	-10693
▁nutze	-10694
▁proth	-10695
▁rasch	-10696
▁runde	-10697
▁saudi	-10698
▁texte	-10699
▁weite	-10700
▁zunge	-10701
▁zwei-	-10702
digungs	-10703
flasche	-10704
produkt	-10705
rechung	-10706
▁auszur	-10707
▁balken	-10708
▁baumkr	-10709
▁comics	-10710
▁griech	-10711
▁hektar	-10712
▁insekt	-10713
▁klaren	-10714
▁korrel	-10715
▁kümmer	-10716
▁langes	-10717
▁singap	-10718
▁teurer	-10719
▁untere	-10720
reaktion	-10721
springen	-10722
stritten	-10723
▁aktiven	-10724
▁anwälte	-10725
▁austral	-10726
▁begeben	-10727
▁charlie	-10728
▁delfine	-10729
▁dörfern	-10730
▁erheben	-10731
▁gelähmt	-10732
▁gemeint	-10733
▁genetik	-10734
▁heilige	-10735
▁mitleid	-10736
▁mitteln	-10737
▁orangen	-10738
▁rituale	-10739
▁teilten	-10740
▁waschen	-10741
▁wörtern	-10742
▁zusehen	-10743
▁abwasser	-10744
▁atlantik	-10745
▁friedens	-10746
▁gelaufen	-10747
▁gewaltig	-10748
▁globales	-10749
▁hardware	-10750
▁haushalt	-10751
▁leinwand	-10752
▁pyramide	-10753
▁recherch	-10754
▁strassen	-10755
▁streifen	-10756
▁verläuft	-10757
▁verwende	-10758
▁angezogen	-10759
▁anpassung	-10760
▁ausgelöst	-10761
▁automobil	-10762
▁erkannten	-10763
▁eventuell	-10764
▁gestiegen	-10765
▁kollektiv	-10766
▁kreativer	-10767
▁rückseite	-10768
▁umgesetzt	-10769
▁verleihen	-10770
▁verschmel	-10771
▁versetzen	-10772
geschrieben	-10773
versprechen	-10774
▁einführung	-10775
▁jahrtausen	-10776
▁kompromiss	-10777
▁netzwerken	-10778
▁vergleicht	-10779
▁aufgestellt	-10780
▁ausgedrückt	-10781
▁heimatstadt	-10782
▁konstruiert	-10783
▁unglücklich	-10784
▁exponentiell	-10785
▁republikaner	-10786
▁unsichtbaren	-10787
▁identifiziert	-10788
▁schizophrenie	-10789
▁auszuprobieren	-10790
▁führungskräfte	-10791
ax	-10792
bra	-10793
cal	-10794
esh	-10795
fle	-10796
ika	-10797
irt	-10798
ody	-10799
▁o.	-10800
-fil	-10801
atar	-10802
kopp	-10803
kter	-10804
meer	-10805
reen	-10806
saal	-10807
stär	-10808
äser	-10809
▁are	-10810
▁pul	-10811
▁ret	-10812
▁roy	-10813
▁sun	-10814
▁twe	-10815
brett	-10816
endig	-10817
kennt	-10818
noten	-10819
titel	-10820
▁1998	-10821
▁aufb	-10822
▁chor	-10823
▁come	-10824
▁ein-	-10825
▁ekel	-10826
▁jeff	-10827
▁prüf	-10828
▁ruft	-10829
▁sang	-10830
▁tank	-10831
▁umar	-10832
bricht	-10833
dachte	-10834
fabrik	-10835
folgen	-10836
gender	-10837
grenze	-10838
ickelt	-10839
mpfung	-10840
sichts	-10841
öglich	-10842
▁anerk	-10843
▁beten	-10844
▁beute	-10845
▁blume	-10846
▁drei-	-10847
▁eurer	-10848
▁hinab	-10849
▁juden	-10850
▁kanal	-10851
▁motto	-10852
▁nebel	-10853
▁north	-10854
▁obere	-10855
▁schil	-10856
▁sinkt	-10857
▁solle	-10858
▁stere	-10859
▁stieß	-10860
▁worin	-10861
arteten	-10862
artikel	-10863
bestand	-10864
▁absolv	-10865
▁beiträ	-10866
▁chinas	-10867
▁frosch	-10868
▁gandhi	-10869
▁mythos	-10870
▁provin	-10871
▁rettet	-10872
▁riesig	-10873
▁sahara	-10874
▁schafe	-10875
▁tempel	-10876
▁unterr	-10877
▁watson	-10878
▁winden	-10879
▁wonach	-10880
▁zuvers	-10881
faktoren	-10882
icherung	-10883
produkte	-10884
schlägen	-10885
steuropa	-10886
▁ausgabe	-10887
▁cricket	-10888
▁detroit	-10889
▁drachen	-10890
▁entschl	-10891
▁erlebte	-10892
▁extreme	-10893
▁fingern	-10894
▁geplant	-10895
▁himmels	-10896
▁prostat	-10897
▁psychop	-10898
▁robotik	-10899
▁solches	-10900
▁typisch	-10901
▁william	-10902
schmerzen	-10903
stelligen	-10904
unterhalt	-10905
▁astronom	-10906
▁autobahn	-10907
▁behälter	-10908
▁benjamin	-10909
▁betriebs	-10910
▁bewunder	-10911
▁christen	-10912
▁handelte	-10913
▁kliniken	-10914
▁könntest	-10915
▁manifest	-10916
▁niedrige	-10917
▁peinlich	-10918
▁strecken	-10919
▁versetzt	-10920
▁verwandt	-10921
▁wiederbe	-10922
mitglieder	-10923
▁angeblich	-10924
▁aufhalten	-10925
▁durchführ	-10926
▁eintreten	-10927
▁furchtbar	-10928
▁gefährdet	-10929
▁kategorie	-10930
▁mitfühlen	-10931
▁möglichst	-10932
▁seltsamen	-10933
▁wohnungen	-10934
▁örtlichen	-10935
▁analysiert	-10936
▁aufstellen	-10937
▁bestätigen	-10938
▁biolumines	-10939
▁elektromag	-10940
▁freiwillig	-10941
▁kontinuier	-10942
▁nicht-null	-10943
▁perfektion	-10944
▁verschwand	-10945
▁wahrhaftig	-10946
▁überdenken	-10947
-technologie	-10948
▁erzählungen	-10949
▁fledermäuse	-10950
▁geschlechts	-10951
▁körperliche	-10952
▁veränderten	-10953
▁experimenten	-10954
▁langfristige	-10955
▁quadratmeter	-10956
▁verpflichtet	-10957
▁öffentlicher	-10958
▁entwicklungen	-10959
▁gelegenheiten	-10960
▁interessierte	-10961
▁üblicherweise	-10962
-2	-10963
ex	-10964
uv	-10965
box	-10966
ila	-10967
ino	-10968
war	-10969
▁iq	-10970
eilt	-10971
ftet	-10972
gebr	-10973
kenn	-10974
opäd	-10975
ppte	-10976
ruhe	-10977
ttes	-10978
uckt	-10979
zell	-10980
▁blö	-10981
▁ess	-10982
▁fit	-10983
▁fox	-10984
▁han	-10985
▁haw	-10986
▁hof	-10987
▁nag	-10988
▁pip	-10989
▁vin	-10990
blase	-10991
molek	-10992
oment	-10993
smann	-10994
sucht	-10995
ührte	-10996
▁aust	-10997
▁beam	-10998
▁data	-10999
▁dünn	-11000
▁fuss	-11001
▁kell	-11002
▁mike	-11003
▁müde	-11004
▁pend	-11005
▁riff	-11006
▁serv	-11007
▁seti	-11008
▁tans	-11009
▁ufer	-11010
▁unre	-11011
-inter	-11012
endete	-11013
gelöst	-11014
griffe	-11015
kreise	-11016
menten	-11017
schern	-11018
üchtig	-11019
▁agend	-11020
▁altru	-11021
▁begra	-11022
▁chile	-11023
▁dampf	-11024
▁fahrt	-11025
▁fange	-11026
▁heter	-11027
▁jemen	-11028
▁orbit	-11029
▁rasen	-11030
▁seide	-11031
▁skala	-11032
▁state	-11033
digkeit	-11034
igungen	-11035
ingenie	-11036
roboter	-11037
ünstler	-11038
▁americ	-11039
▁aristo	-11040
▁beauft	-11041
▁flagge	-11042
▁fusion	-11043
▁gewähr	-11044
▁geziel	-11045
▁hauses	-11046
▁hormon	-11047
▁ironie	-11048
▁klänge	-11049
▁lücken	-11050
▁mikrof	-11051
▁nieren	-11052
▁opfern	-11053
▁ozeans	-11054
▁supern	-11055
▁toller	-11056
frequenz	-11057
personen	-11058
streifen	-11059
zutragen	-11060
▁aktuell	-11061
▁bemühen	-11062
▁fiktion	-11063
▁fordern	-11064
▁geprägt	-11065
▁häusern	-11066
▁meinten	-11067
▁redwood	-11068
▁schließ	-11069
▁störung	-11070
▁verblei	-11071
▁zugriff	-11072
-jähriger	-11073
maßnahmen	-11074
ordnungen	-11075
▁annähern	-11076
▁anspruch	-11077
▁flaschen	-11078
▁gedichte	-11079
▁geglaubt	-11080
▁gestoßen	-11081
▁kleinste	-11082
▁kritiker	-11083
▁november	-11084
▁shakespe	-11085
▁singapur	-11086
▁tauschen	-11087
▁wörtlich	-11088
▁biosphäre	-11089
▁emotional	-11090
▁erschafft	-11091
▁kommenden	-11092
▁stärksten	-11093
▁wenigsten	-11094
▁angewendet	-11095
▁anzufangen	-11096
▁beispielen	-11097
▁bestimmtes	-11098
▁chinesisch	-11099
▁entfernten	-11100
▁garantiert	-11101
▁klinischen	-11102
▁palästinen	-11103
▁raumschiff	-11104
▁unmögliche	-11105
▁unvorstell	-11106
▁vergrößert	-11107
▁wachsenden	-11108
▁weiblichen	-11109
▁zuversicht	-11110
▁ökosysteme	-11111
▁botschaften	-11112
▁ermöglichte	-11113
▁historische	-11114
▁immunsystem	-11115
▁künstlichen	-11116
▁olympischen	-11117
▁verschaffen	-11118
dimensionalen	-11119
▁arzneimittel	-11120
▁fundamentale	-11121
▁führungspers	-11122
▁historischen	-11123
▁untersuchten	-11124
gesellschaften	-11125
▁aufgezeichnet	-11126
▁einzigartigen	-11127
▁überzeugungen	-11128
▁berücksichtigt	-11129
▁herausgestellt	-11130
▁intellektuelle	-11131
▁verantwortungs	-11132
▁veröffentlichte	-11133
▁zusammengefasst	-11134
hs	-11135
üb	-11136
ado	-11137
ain	-11138
ca-	-11139
cel	-11140
fas	-11141
zel	-11142
▁44	-11143
▁bh	-11144
▁ut	-11145
alie	-11146
amie	-11147
enkt	-11148
fess	-11149
flos	-11150
gets	-11151
ieso	-11152
konz	-11153
kurs	-11154
rief	-11155
▁bös	-11156
▁git	-11157
▁mul	-11158
ablen	-11159
front	-11160
riert	-11161
splan	-11162
szeit	-11163
▁1999	-11164
▁2030	-11165
▁beat	-11166
▁capt	-11167
▁cola	-11168
▁doug	-11169
▁embr	-11170
▁kong	-11171
▁kreu	-11172
▁mord	-11173
▁spar	-11174
apital	-11175
dichte	-11176
gewinn	-11177
grippe	-11178
haftet	-11179
ortion	-11180
schrei	-11181
stitut	-11182
tunion	-11183
zyklus	-11184
▁absur	-11185
▁ankam	-11186
▁anzug	-11187
▁brown	-11188
▁erdöl	-11189
▁ethan	-11190
▁gramm	-11191
▁immen	-11192
▁jäger	-11193
▁kurse	-11194
▁lohnt	-11195
▁nette	-11196
▁pilze	-11197
▁rente	-11198
▁resul	-11199
▁ruder	-11200
▁teils	-11201
▁verfl	-11202
analyse	-11203
aufgabe	-11204
bleiben	-11205
schulen	-11206
▁aufbew	-11207
▁denker	-11208
▁elegan	-11209
▁endgül	-11210
▁erdgas	-11211
▁ersatz	-11212
▁feinde	-11213
▁mentor	-11214
▁nutzte	-11215
▁pferde	-11216
▁profil	-11217
▁prophe	-11218
▁redner	-11219
▁sender	-11220
▁square	-11221
▁treffe	-11222
▁vakuum	-11223
▁zielen	-11224
ähnliche	-11225
▁bananen	-11226
▁erfolge	-11227
▁experte	-11228
▁gereist	-11229
▁gerufen	-11230
▁grausam	-11231
▁hungers	-11232
▁informa	-11233
▁lebensl	-11234
▁löschen	-11235
▁mysteri	-11236
▁nordpol	-11237
▁notfall	-11238
▁reprodu	-11239
▁rückmel	-11240
▁schweiz	-11241
▁sowieso	-11242
▁stipend	-11243
▁tsunami	-11244
▁vereint	-11245
▁vierten	-11246
▁vorherr	-11247
▁zuhörer	-11248
gerichtet	-11249
rechungen	-11250
schreiten	-11251
▁abkommen	-11252
▁carolina	-11253
▁gelungen	-11254
▁mcdonald	-11255
▁normaler	-11256
▁schreien	-11257
▁verwirrt	-11258
▁vorlesen	-11259
▁bausteine	-11260
▁einladung	-11261
▁ergreifen	-11262
▁genannten	-11263
▁ignoriert	-11264
▁künstlern	-11265
▁markieren	-11266
▁niedrigen	-11267
▁ressource	-11268
▁schweizer	-11269
▁starteten	-11270
▁verwandel	-11271
▁zeichnete	-11272
▁überfluss	-11273
▁übersehen	-11274
▁beurteilen	-11275
▁diskutiert	-11276
▁geographic	-11277
▁beleuchtung	-11278
▁entscheidet	-11279
▁ergebnissen	-11280
▁flüchtlinge	-11281
▁forschungen	-11282
▁irgendeinen	-11283
▁prioritäten	-11284
▁programmier	-11285
▁sowjetunion	-11286
▁spezifische	-11287
▁unbekannten	-11288
▁variationen	-11289
▁finanzierung	-11290
▁gewöhnlichen	-11291
▁herausstellt	-11292
▁manipulieren	-11293
organisationen	-11294
▁nebeneinander	-11295
▁treibhausgase	-11296
▁verschmutzung	-11297
▁zufriedenheit	-11298
▁diagnostiziert	-11299
▁mathematischen	-11300
▁geschäftsmodell	-11301
fu	-11302
ni	-11303
bor	-11304
kil	-11305
set	-11306
öre	-11307
ürt	-11308
▁3,	-11309
▁72	-11310
▁ii	-11311
▁lä	-11312
▁ni	-11313
flie	-11314
kain	-11315
kins	-11316
muse	-11317
sack	-11318
wahr	-11319
ätzt	-11320
ürzt	-11321
▁bol	-11322
▁frö	-11323
▁ibm	-11324
▁kas	-11325
▁lot	-11326
▁pir	-11327
▁sky	-11328
-zahl	-11329
brach	-11330
liger	-11331
mität	-11332
motor	-11333
musik	-11334
perrt	-11335
sonst	-11336
▁bekl	-11337
▁mall	-11338
▁mega	-11339
▁note	-11340
▁pfad	-11341
▁rang	-11342
▁trop	-11343
ameter	-11344
anfall	-11345
assten	-11346
drüsen	-11347
gefügt	-11348
halter	-11349
linder	-11350
physik	-11351
ättern	-11352
▁abbau	-11353
▁alarm	-11354
▁begab	-11355
▁bronx	-11356
▁ecken	-11357
▁engel	-11358
▁harry	-11359
▁jones	-11360
▁kleid	-11361
▁merkt	-11362
▁parks	-11363
▁scott	-11364
▁stirn	-11365
▁synap	-11366
▁tauch	-11367
▁tinte	-11368
branche	-11369
büchern	-11370
nutzung	-11371
▁agenda	-11372
▁andrew	-11373
▁anwend	-11374
▁drückt	-11375
▁enthus	-11376
▁kokain	-11377
▁krähen	-11378
▁leidet	-11379
▁redete	-11380
▁steven	-11381
▁trugen	-11382
▁tunnel	-11383
▁tänzer	-11384
▁umlauf	-11385
▁vulkan	-11386
▁woraus	-11387
▁zweier	-11388
engungen	-11389
kontroll	-11390
strecken	-11391
▁200.000	-11392
▁benannt	-11393
▁beschul	-11394
▁connect	-11395
▁eingang	-11396
▁herumzu	-11397
▁hungrig	-11398
▁stephen	-11399
▁tomaten	-11400
▁vernach	-11401
▁zualler	-11402
programme	-11403
stitution	-11404
▁befanden	-11405
▁brooklyn	-11406
▁einladen	-11407
▁erlernen	-11408
▁ermutigt	-11409
▁isoliert	-11410
▁jungfrau	-11411
▁klettern	-11412
▁meinungs	-11413
▁schieben	-11414
▁schweben	-11415
▁schöpfer	-11416
▁standort	-11417
▁stimmung	-11418
▁vorkommt	-11419
bewegungen	-11420
verbindung	-11421
▁aufweisen	-11422
▁ausnahmen	-11423
▁durchfall	-11424
▁empfänger	-11425
▁entkommen	-11426
▁forschern	-11427
▁gerichtet	-11428
▁high-tech	-11429
▁metaphern	-11430
▁mitmachen	-11431
▁produktiv	-11432
▁rezession	-11433
▁techniker	-11434
▁umwandeln	-11435
▁zugegeben	-11436
▁aktivisten	-11437
▁engagieren	-11438
▁fallschirm	-11439
▁gezeichnet	-11440
▁grundstück	-11441
▁indonesien	-11442
▁innenstadt	-11443
▁kritischen	-11444
▁neuseeland	-11445
▁regulieren	-11446
▁schauspiel	-11447
▁schlussfol	-11448
▁vorhersage	-11449
▁angegriffen	-11450
▁anstrengung	-11451
▁aristoteles	-11452
▁erschaffung	-11453
▁gespeichert	-11454
▁gleichungen	-11455
▁kostengünst	-11456
▁langfristig	-11457
▁theoretisch	-11458
▁überwachung	-11459
▁anschließend	-11460
▁begeisterung	-11461
▁muslimischen	-11462
▁persönliches	-11463
▁systematisch	-11464
▁umweltschutz	-11465
▁demonstrieren	-11466
▁entschuldigen	-11467
▁verbesserungen	-11468
▁zivilisationen	-11469
▁berücksichtigen	-11470
▁lebensunterhalt	-11471
bc	-11472
dä	-11473
e-	-11474
gs	-11475
h.	-11476
bem	-11477
bez	-11478
ids	-11479
neu	-11480
oma	-11481
on-	-11482
oto	-11483
öck	-11484
▁34	-11485
▁lü	-11486
ause	-11487
bett	-11488
eier	-11489
esst	-11490
ikro	-11491
onom	-11492
umpf	-11493
öhne	-11494
ümer	-11495
▁190	-11496
▁apr	-11497
▁gps	-11498
▁moz	-11499
▁nad	-11500
▁nic	-11501
▁oma	-11502
▁one	-11503
▁que	-11504
▁ron	-11505
anter	-11506
azine	-11507
halle	-11508
igste	-11509
lickt	-11510
thalb	-11511
▁1900	-11512
▁2020	-11513
▁back	-11514
▁brad	-11515
▁gall	-11516
▁guer	-11517
▁hack	-11518
▁inti	-11519
▁opti	-11520
▁rauf	-11521
▁rohr	-11522
-spiel	-11523
acheln	-11524
gentin	-11525
ielles	-11526
lichem	-11527
stätte	-11528
▁aids-	-11529
▁anten	-11530
▁bonob	-11531
▁euren	-11532
▁gelei	-11533
▁gestr	-11534
▁heira	-11535
▁notiz	-11536
▁urban	-11537
▁wilde	-11538
▁wortw	-11539
-modell	-11540
alteten	-11541
ination	-11542
liziert	-11543
osition	-11544
platten	-11545
spunkte	-11546
tlichen	-11547
utation	-11548
üchtern	-11549
▁action	-11550
▁autoun	-11551
▁beruht	-11552
▁bewaff	-11553
▁bewerk	-11554
▁bildes	-11555
▁geschn	-11556
▁geträn	-11557
▁götter	-11558
▁hawaii	-11559
▁helium	-11560
▁leitet	-11561
▁liefen	-11562
▁linsen	-11563
▁master	-11564
▁perspe	-11565
▁reifen	-11566
▁tasman	-11567
▁teilte	-11568
▁wohler	-11569
▁wärmer	-11570
ituation	-11571
▁ankunft	-11572
▁begehen	-11573
▁denkens	-11574
▁gefühlt	-11575
▁hypothe	-11576
▁klicken	-11577
▁konzert	-11578
▁mustern	-11579
▁präsent	-11580
▁scheibe	-11581
▁station	-11582
▁streich	-11583
▁umsonst	-11584
▁wildnis	-11585
▁wuchsen	-11586
▁zutaten	-11587
ständigen	-11588
wertungen	-11589
xperiment	-11590
zeichnete	-11591
▁abnehmen	-11592
▁aussagen	-11593
▁begraben	-11594
▁beliebte	-11595
▁bereitet	-11596
▁errungen	-11597
▁gefroren	-11598
▁gehirnen	-11599
▁gewässer	-11600
▁glaubens	-11601
▁jüngeren	-11602
▁komische	-11603
▁langzeit	-11604
▁priester	-11605
▁vereinen	-11606
▁verlegen	-11607
▁zukunfts	-11608
▁überlegt	-11609
ografische	-11610
▁abstrakte	-11611
▁einzelner	-11612
▁erfüllung	-11613
▁frühstück	-11614
▁geschicht	-11615
▁identisch	-11616
▁lektionen	-11617
▁recycling	-11618
▁schachtel	-11619
▁verhaftet	-11620
▁versionen	-11621
▁anderthalb	-11622
▁ausbreiten	-11623
▁charaktere	-11624
▁demokraten	-11625
▁hierarchie	-11626
▁kilometern	-11627
▁kognitiven	-11628
▁kostenlose	-11629
▁lebensstil	-11630
▁praktische	-11631
▁unangenehm	-11632
▁zeitgenöss	-11633
▁zeitspanne	-11634
▁absichtlich	-11635
▁erwachsener	-11636
▁kooperieren	-11637
▁solarzellen	-11638
▁zuallererst	-11639
▁ökonomische	-11640
▁übersetzung	-11641
▁herausfanden	-11642
▁nervensystem	-11643
▁spezifischen	-11644
▁verschmelzen	-11645
▁beschäftigung	-11646
▁demonstration	-11647
▁dokumentieren	-11648
▁erstaunliches	-11649
▁offensichtliche	-11650
qa	-11651
cor	-11652
ita	-11653
ral	-11654
sex	-11655
ule	-11656
ößt	-11657
▁43	-11658
▁46	-11659
▁bö	-11660
▁dp	-11661
eins	-11662
empl	-11663
eras	-11664
iegt	-11665
mten	-11666
rede	-11667
such	-11668
ummy	-11669
ägen	-11670
▁1,2	-11671
▁aer	-11672
▁inj	-11673
▁kie	-11674
▁mis	-11675
▁nam	-11676
abeth	-11677
attle	-11678
eiler	-11679
farbe	-11680
farkt	-11681
herum	-11682
irekt	-11683
lampe	-11684
ndrom	-11685
reben	-11686
reser	-11687
üpfen	-11688
▁90er	-11689
▁barm	-11690
▁darm	-11691
▁diät	-11692
▁fung	-11693
▁gekl	-11694
▁irrt	-11695
▁jetz	-11696
▁kino	-11697
▁mari	-11698
▁moun	-11699
▁path	-11700
▁renn	-11701
▁time	-11702
bieten	-11703
fällig	-11704
gelenk	-11705
märkte	-11706
odelle	-11707
school	-11708
sehbar	-11709
spitze	-11710
strafe	-11711
ularen	-11712
unkten	-11713
ydummy	-11714
ächern	-11715
ächtig	-11716
▁berat	-11717
▁betäu	-11718
▁busch	-11719
▁comic	-11720
▁dekor	-11721
▁dünne	-11722
▁elite	-11723
▁favor	-11724
▁kevin	-11725
▁meile	-11726
▁raums	-11727
▁rekru	-11728
▁rover	-11729
▁segel	-11730
▁starr	-11731
▁trieb	-11732
▁wegzu	-11733
▁weich	-11734
bezogen	-11735
eistern	-11736
förmige	-11737
mmunity	-11738
ordnete	-11739
▁angere	-11740
▁arthur	-11741
▁bäcker	-11742
▁derart	-11743
▁einher	-11744
▁farmer	-11745
▁greift	-11746
▁joseph	-11747
▁kämpfe	-11748
▁lichts	-11749
▁nähern	-11750
▁orange	-11751
▁scharf	-11752
▁schrit	-11753
▁silber	-11754
▁stapel	-11755
▁strafe	-11756
▁säulen	-11757
▁ungere	-11758
▁ähnelt	-11759
-dollar-	-11760
derweise	-11761
software	-11762
strahlen	-11763
teilchen	-11764
▁bindung	-11765
▁ehrgeiz	-11766
▁entwarf	-11767
▁fördert	-11768
▁hiermit	-11769
▁integra	-11770
▁jüngste	-11771
▁pestizi	-11772
▁schloss	-11773
▁währung	-11774
-programm	-11775
▁american	-11776
▁antreibt	-11777
▁argentin	-11778
▁ausgesch	-11779
▁bereiten	-11780
▁biomasse	-11781
▁cartoons	-11782
▁erwischt	-11783
▁irration	-11784
▁leonardo	-11785
▁markiert	-11786
▁reformen	-11787
▁ursachen	-11788
▁vergeben	-11789
▁verlässt	-11790
▁versuchs	-11791
▁virginia	-11792
▁ökologie	-11793
▁übersetz	-11794
lichkeiten	-11795
▁bekannter	-11796
▁beruhigen	-11797
▁dynamisch	-11798
▁einzelnes	-11799
▁parasiten	-11800
▁parkinson	-11801
▁reduktion	-11802
▁schnellen	-11803
▁tatsachen	-11804
▁tendieren	-11805
▁trainings	-11806
▁unvermeid	-11807
gehörigkeit	-11808
▁anpassungs	-11809
▁auszusehen	-11810
▁bearbeiten	-11811
▁dummydummy	-11812
▁erschienen	-11813
▁simulieren	-11814
▁skulpturen	-11815
▁transplant	-11816
▁verstärken	-11817
▁verwendete	-11818
▁wahnsinnig	-11819
▁wohingegen	-11820
▁zigaretten	-11821
▁angiogenese	-11822
▁behandlungs	-11823
▁erneuerbare	-11824
▁erscheinung	-11825
▁gesichtsaus	-11826
▁japanischen	-11827
▁klassischen	-11828
▁kühlschrank	-11829
▁philanthrop	-11830
▁studierende	-11831
▁verarbeitet	-11832
▁konstruieren	-11833
▁mobiltelefon	-11834
▁verteidigung	-11835
▁angeschlossen	-11836
▁ausgesprochen	-11837
▁beobachtungen	-11838
▁einstellungen	-11839
▁fluoreszieren	-11840
▁hervorbringen	-11841
▁physikalische	-11842
▁zusammenbruch	-11843
▁folgendermaßen	-11844
▁krankenhäusern	-11845
▁intellektuellen	-11846
-r	-11847
cc	-11848
v-	-11849
ads	-11850
aks	-11851
amp	-11852
fuß	-11853
mte	-11854
sag	-11855
wan	-11856
yer	-11857
▁ms	-11858
-mil	-11859
aker	-11860
auto	-11861
bast	-11862
dose	-11863
groß	-11864
inkt	-11865
rand	-11866
sion	-11867
west	-11868
wett	-11869
▁130	-11870
▁anz	-11871
▁häu	-11872
▁inf	-11873
▁pix	-11874
▁sav	-11875
denke	-11876
gerte	-11877
loses	-11878
ohnen	-11879
ottet	-11880
reuen	-11881
selbe	-11882
twick	-11883
ützer	-11884
▁3000	-11885
▁asia	-11886
▁aufr	-11887
▁bosn	-11888
▁einl	-11889
▁foot	-11890
▁grab	-11891
▁grob	-11892
▁infr	-11893
▁maxi	-11894
▁modi	-11895
▁palm	-11896
▁puls	-11897
▁rose	-11898
▁taxi	-11899
▁ware	-11900
attung	-11901
faktor	-11902
gingen	-11903
iction	-11904
rahmen	-11905
skrise	-11906
triebs	-11907
zettel	-11908
▁april	-11909
▁büros	-11910
▁fleck	-11911
▁glied	-11912
▁herrn	-11913
▁hütte	-11914
▁imper	-11915
▁kluge	-11916
▁linse	-11917
▁lunge	-11918
▁paare	-11919
▁reine	-11920
▁schuf	-11921
▁suppe	-11922
▁ungew	-11923
▁verär	-11924
▁wolle	-11925
-amerik	-11926
glicher	-11927
leichen	-11928
mäßigen	-11929
rechner	-11930
smuster	-11931
streben	-11932
▁40.000	-11933
▁aktive	-11934
▁becher	-11935
▁daniel	-11936
▁endete	-11937
▁essens	-11938
▁exempl	-11939
▁flüsse	-11940
▁genehm	-11941
▁harten	-11942
▁ketten	-11943
▁kriter	-11944
▁mumbai	-11945
▁stigma	-11946
▁taucht	-11947
▁trauer	-11948
▁u-boot	-11949
▁waisen	-11950
▁zwecke	-11951
bewohner	-11952
fikation	-11953
gerissen	-11954
istenten	-11955
▁abraham	-11956
▁anlagen	-11957
▁atember	-11958
▁dienste	-11959
▁dollars	-11960
▁dunkler	-11961
▁durften	-11962
▁gründer	-11963
▁koralle	-11964
▁kreatur	-11965
▁maschin	-11966
▁müttern	-11967
▁pinguin	-11968
▁schlage	-11969
▁spender	-11970
▁starkes	-11971
▁steckte	-11972
▁truppen	-11973
▁unrecht	-11974
▁übungen	-11975
absichtig	-11976
vertrauen	-11977
▁genossen	-11978
▁hühnchen	-11979
▁instabil	-11980
▁referenz	-11981
▁tansania	-11982
▁tägliche	-11983
▁weiterzu	-11984
ungsmittel	-11985
▁arabische	-11986
▁aussuchen	-11987
▁demselben	-11988
▁einnahmen	-11989
▁entlassen	-11990
▁fußgänger	-11991
▁glamourös	-11992
▁klatschen	-11993
▁kunstwerk	-11994
▁schmelzen	-11995
▁schwachen	-11996
▁unbewusst	-11997
▁universen	-11998
▁verstärkt	-11999
▁wertvolle	-12000
unternehmer	-12001
▁angebracht	-12002
▁angewiesen	-12003
▁aufklärung	-12004
▁beinhalten	-12005
▁beliebigen	-12006
▁elternteil	-12007
▁komponente	-12008
▁konflikten	-12009
▁körperlich	-12010
▁millimeter	-12011
▁nachkommen	-12012
▁unendliche	-12013
▁veranschau	-12014
▁verletzung	-12015
▁versteckte	-12016
▁überlebens	-12017
▁angestellte	-12018
▁austauschen	-12019
▁beigetragen	-12020
▁mittelalter	-12021
▁natürliches	-12022
▁richtlinien	-12023
▁vermächtnis	-12024
▁übertragung	-12025
▁alltäglichen	-12026
▁atemberauben	-12027
▁bestandteile	-12028
▁griechenland	-12029
▁vergleichbar	-12030
▁verständlich	-12031
▁ökonomischen	-12032
▁anstrengungen	-12033
▁argumentieren	-12034
▁chemotherapie	-12035
▁französischen	-12036
▁korallenriffe	-12037
sorganisationen	-12038
▁amerikanischer	-12039
▁vorgehensweise	-12040
▁weltwirtschaft	-12041
▁geschäftsführer	-12042
▁halluzinationen	-12043
▁voraussetzungen	-12044
fi	-12045
sf	-12046
bat	-12047
ehl	-12048
gur	-12049
isa	-12050
lem	-12051
ois	-12052
ump	-12053
van	-12054
▁lh	-12055
-man	-12056
alls	-12057
brot	-12058
dite	-12059
elig	-12060
impf	-12061
iums	-12062
penh	-12063
samt	-12064
sius	-12065
umin	-12066
unts	-12067
▁ere	-12068
▁eti	-12069
▁gir	-12070
▁gor	-12071
▁hür	-12072
▁jos	-12073
▁pik	-12074
▁sug	-12075
andet	-12076
länge	-12077
olera	-12078
opard	-12079
packt	-12080
rimin	-12081
räder	-12082
samer	-12083
ssinn	-12084
ttert	-12085
▁1984	-12086
▁1995	-12087
▁abed	-12088
▁demü	-12089
▁ertr	-12090
▁foie	-12091
▁horm	-12092
▁l.a.	-12093
▁mult	-12094
▁pant	-12095
▁proj	-12096
▁seni	-12097
▁sieb	-12098
▁supr	-12099
▁zwie	-12100
▁übel	-12101
-produ	-12102
igsten	-12103
männer	-12104
sparen	-12105
städte	-12106
usalem	-12107
ässern	-12108
ührten	-12109
▁agrar	-12110
▁al-qa	-12111
▁aufsp	-12112
▁ausro	-12113
▁craig	-12114
▁dicke	-12115
▁feder	-12116
▁gewün	-12117
▁grupp	-12118
▁hohem	-12119
▁holte	-12120
▁indus	-12121
▁kamel	-12122
▁kathe	-12123
▁orden	-12124
▁rasse	-12125
▁sarah	-12126
▁somal	-12127
▁sorte	-12128
▁spinn	-12129
▁subje	-12130
▁tatto	-12131
▁union	-12132
▁veter	-12133
▁zerti	-12134
-proble	-12135
bewegen	-12136
flossen	-12137
kennung	-12138
pflanzt	-12139
prinzip	-12140
sequenz	-12141
spitzen	-12142
▁aktien	-12143
▁bekann	-12144
▁bühnen	-12145
▁campus	-12146
▁gewehr	-12147
▁infrar	-12148
▁junges	-12149
▁killer	-12150
▁kopenh	-12151
▁legiti	-12152
▁lippen	-12153
▁mozart	-12154
▁pumpen	-12155
▁regime	-12156
▁syrien	-12157
▁tinten	-12158
▁ungehe	-12159
▁unterm	-12160
▁verwei	-12161
▁vögeln	-12162
basierte	-12163
beziehen	-12164
mechanik	-12165
spolitik	-12166
sproblem	-12167
▁ausgeht	-12168
▁ausüben	-12169
▁belohnt	-12170
▁bürgern	-12171
▁celsius	-12172
▁cholera	-12173
▁clinton	-12174
▁dilemma	-12175
▁einheim	-12176
▁erholen	-12177
▁erkläre	-12178
▁geräten	-12179
▁kauften	-12180
▁koennen	-12181
▁landwir	-12182
▁pflegen	-12183
▁project	-12184
▁saubere	-12185
▁scheiße	-12186
▁service	-12187
▁sichere	-12188
▁telesko	-12189
▁verwund	-12190
leitungen	-12191
strahlung	-12192
verfahren	-12193
▁befolgen	-12194
▁extremen	-12195
▁fließend	-12196
▁geradezu	-12197
▁kontrast	-12198
▁kristall	-12199
▁reporter	-12200
▁rückkehr	-12201
▁schwelle	-12202
▁signifik	-12203
▁szenario	-12204
▁tastatur	-12205
▁tiefgrün	-12206
-industrie	-12207
ergebnisse	-12208
▁argumente	-12209
▁drastisch	-12210
▁geschenkt	-12211
▁gründeten	-12212
▁interface	-12213
▁kurzfrist	-12214
▁mobilität	-12215
▁potenziel	-12216
▁rohstoffe	-12217
▁schöpfung	-12218
▁teilnahme	-12219
▁therapien	-12220
▁womöglich	-12221
verständnis	-12222
▁aufwachsen	-12223
▁baumkronen	-12224
▁bemühungen	-12225
▁gebrauchen	-12226
▁konsequenz	-12227
▁kopenhagen	-12228
▁meerwasser	-12229
▁platzieren	-12230
▁verbleiben	-12231
▁verkauften	-12232
▁verringert	-12233
▁versichern	-12234
▁verwaltung	-12235
▁wochenende	-12236
-unternehmen	-12237
technologien	-12238
▁brennstoffe	-12239
▁dankbarkeit	-12240
▁erklärungen	-12241
▁erweiterung	-12242
▁philosophen	-12243
▁vernachläss	-12244
▁behandlungen	-12245
▁betrachteten	-12246
▁elektromagne	-12247
▁französische	-12248
▁hinterfragen	-12249
▁konkurrieren	-12250
▁militärische	-12251
▁reflektieren	-12252
▁respektieren	-12253
▁temperaturen	-12254
▁verarbeitung	-12255
▁überwältigen	-12256
▁eingeschränkt	-12257
▁jahrhunderten	-12258
▁mobiltelefone	-12259
▁veranstaltung	-12260
▁verhandlungen	-12261
▁verteidigungs	-12262
▁elektronischen	-12263
▁zusammenkommen	-12264
▁angelegenheiten	-12265
.c.	-12266
ces	-12267
kli	-12268
ktu	-12269
kör	-12270
mie	-12271
wis	-12272
▁4.	-12273
▁98	-12274
▁e.	-12275
▁ek	-12276
▁oz	-12277
▁uh	-12278
.org	-12279
gesp	-12280
ilzt	-12281
lenn	-12282
oche	-12283
port	-12284
verw	-12285
ädag	-12286
ällt	-12287
ärer	-12288
▁12.	-12289
▁acc	-12290
▁act	-12291
▁aha	-12292
▁amt	-12293
▁ara	-12294
▁bor	-12295
▁cat	-12296
▁dod	-12297
▁ero	-12298
▁exo	-12299
▁fär	-12300
▁ohn	-12301
▁st.	-12302
▁tha	-12303
▁tok	-12304
-krie	-12305
-zeit	-12306
anzug	-12307
bären	-12308
dring	-12309
ering	-12310
euten	-12311
geräu	-12312
ieber	-12313
kugel	-12314
lanta	-12315
maler	-12316
mungs	-12317
sburg	-12318
▁1980	-12319
▁80er	-12320
▁asth	-12321
▁aßen	-12322
▁d.h.	-12323
▁diam	-12324
▁diff	-12325
▁galt	-12326
▁gäng	-12327
▁haft	-12328
▁hans	-12329
▁kram	-12330
▁lege	-12331
▁ofen	-12332
▁pitt	-12333
▁seri	-12334
▁sieg	-12335
▁spag	-12336
▁zero	-12337
antwor	-12338
bedarf	-12339
beding	-12340
blasen	-12341
farben	-12342
geheim	-12343
gehirn	-12344
mäßige	-12345
schuhe	-12346
stchen	-12347
undern	-12348
▁4.000	-12349
▁alice	-12350
▁besaß	-12351
▁dumme	-12352
▁larry	-12353
▁mutig	-12354
▁schuh	-12355
▁strei	-12356
▁symph	-12357
▁söhne	-12358
▁unzäh	-12359
▁verzö	-12360
artiges	-12361
ikopter	-12362
planung	-12363
stunden	-12364
theorie	-12365
▁albert	-12366
▁allmäh	-12367
▁beacht	-12368
▁besorg	-12369
▁bombar	-12370
▁delfin	-12371
▁essenz	-12372
▁flucht	-12373
▁folien	-12374
▁freier	-12375
▁geduld	-12376
▁gefiel	-12377
▁gramma	-12378
▁grösse	-12379
▁ideale	-12380
▁implan	-12381
▁irland	-12382
▁kathol	-12383
▁kehren	-12384
▁keller	-12385
▁klappt	-12386
▁kontak	-12387
▁luther	-12388
▁marath	-12389
▁montag	-12390
▁psycho	-12391
▁reflex	-12392
▁riefen	-12393
▁runden	-12394
▁sterbe	-12395
▁strich	-12396
▁wahres	-12397
▁ähneln	-12398
handlung	-12399
jähriger	-12400
regionen	-12401
stafrika	-12402
▁atlanta	-12403
▁cartoon	-12404
▁everest	-12405
▁fesseln	-12406
▁gebilde	-12407
▁geister	-12408
▁kartoff	-12409
▁kondome	-12410
▁kämpfer	-12411
▁membran	-12412
▁monster	-12413
▁montere	-12414
▁museums	-12415
▁nachher	-12416
▁spazier	-12417
▁starker	-12418
▁steinen	-12419
▁strasse	-12420
▁südlich	-12421
▁visuell	-12422
arbeitern	-12423
strategie	-12424
▁anzeigen	-12425
▁arabisch	-12426
▁derselbe	-12427
▁designen	-12428
▁freundes	-12429
▁gefühlen	-12430
▁gelandet	-12431
▁geringen	-12432
▁gespannt	-12433
▁gewissem	-12434
▁harmonie	-12435
▁motorrad	-12436
▁pro-kopf	-12437
▁probiert	-12438
▁relation	-12439
▁rückgang	-12440
▁schlicht	-12441
▁supernov	-12442
▁trennung	-12443
▁verklein	-12444
▁vollzeit	-12445
▁zeichnet	-12446
▁zustande	-12447
▁ästhetik	-12448
▁abschnitt	-12449
▁annähernd	-12450
▁antreiben	-12451
▁aufregung	-12452
▁batterien	-12453
▁bemerkten	-12454
▁dokumente	-12455
▁erheblich	-12456
▁errichtet	-12457
▁erwartete	-12458
▁geleistet	-12459
▁messungen	-12460
▁umbringen	-12461
▁umsetzung	-12462
▁verbrauch	-12463
▁verpassen	-12464
▁verwunder	-12465
▁widerspie	-12466
perspektive	-12467
sgeschichte	-12468
▁anzupassen	-12469
▁aufzugeben	-12470
▁bevorzugen	-12471
▁enttäuscht	-12472
▁frustriert	-12473
▁geschossen	-12474
▁informiert	-12475
▁künstlerin	-12476
▁ordentlich	-12477
▁tageslicht	-12478
▁ultimative	-12479
▁verhandeln	-12480
▁videospiel	-12481
▁weitgehend	-12482
verbindungen	-12483
▁aufgefallen	-12484
▁befriedigen	-12485
▁betrachtung	-12486
▁filmemacher	-12487
▁informieren	-12488
▁meeresboden	-12489
▁prozentsatz	-12490
▁präsentiert	-12491
▁realisieren	-12492
▁relativität	-12493
▁sehvermögen	-12494
▁abschließend	-12495
▁freundschaft	-12496
▁kindergarten	-12497
▁kriminalität	-12498
▁teilzunehmen	-12499
▁unterbrochen	-12500
▁zusätzlichen	-12501
▁ökologischen	-12502
▁intelligenter	-12503
▁organisierten	-12504
▁ungewöhnliche	-12505
▁zeitschriften	-12506
▁entscheidenden	-12507
▁psychologische	-12508
▁herzkrankheiten	-12509
ai	-12510
ye	-12511
äk	-12512
ano	-12513
anw	-12514
arb	-12515
arg	-12516
bal	-12517
bun	-12518
imp	-12519
lor	-12520
säu	-12521
wel	-12522
zed	-12523
ädt	-12524
▁ss	-12525
ades	-12526
anor	-12527
dian	-12528
enix	-12529
fass	-12530
ffel	-12531
heil	-12532
höhe	-12533
iver	-12534
korn	-12535
mart	-12536
onym	-12537
phia	-12538
ppel	-12539
rebs	-12540
team	-12541
will	-12542
▁bam	-12543
▁caf	-12544
▁gur	-12545
▁lex	-12546
▁müh	-12547
▁pie	-12548
▁seg	-12549
▁tit	-12550
apfen	-12551
freie	-12552
gemäß	-12553
idmet	-12554
level	-12555
teren	-12556
virus	-12557
örter	-12558
▁1994	-12559
▁60er	-12560
▁70er	-12561
▁afro	-12562
▁audi	-12563
▁baue	-12564
▁beer	-12565
▁bio-	-12566
▁blue	-12567
▁clip	-12568
▁enge	-12569
▁finn	-12570
▁glän	-12571
▁graf	-12572
▁grön	-12573
▁holl	-12574
▁jagd	-12575
▁reiz	-12576
▁ruin	-12577
▁sant	-12578
▁sied	-12579
▁sier	-12580
▁zorn	-12581
▁züge	-12582
bertät	-12583
burger	-12584
effekt	-12585
eisten	-12586
fehler	-12587
größte	-12588
kommst	-12589
regend	-12590
reuung	-12591
spuren	-12592
tliche	-12593
üttert	-12594
▁apoll	-12595
▁billi	-12596
▁blüte	-12597
▁brett	-12598
▁bruno	-12599
▁damal	-12600
▁erder	-12601
▁hasse	-12602
▁hebel	-12603
▁himal	-12604
▁hülle	-12605
▁impul	-12606
▁joshu	-12607
▁kunde	-12608
▁louis	-12609
▁maler	-12610
▁minim	-12611
▁mount	-12612
▁nackt	-12613
▁netze	-12614
▁patri	-12615
▁route	-12616
▁sagst	-12617
▁sauer	-12618
▁spitz	-12619
▁stört	-12620
▁vorbe	-12621
▁übern	-12622
altungs	-12623
brieren	-12624
dienste	-12625
gesetze	-12626
lichung	-12627
orgungs	-12628
schritt	-12629
trische	-12630
zurufen	-12631
▁anrufe	-12632
▁briten	-12633
▁brutto	-12634
▁deines	-12635
▁disney	-12636
▁drohne	-12637
▁förder	-12638
▁genial	-12639
▁lagern	-12640
▁macher	-12641
▁mauern	-12642
▁misser	-12643
▁paaren	-12644
▁panzer	-12645
▁passiv	-12646
▁raster	-12647
▁saison	-12648
▁soldat	-12649
▁südpol	-12650
▁tippen	-12651
▁urteil	-12652
▁wilder	-12653
altungen	-12654
flaschen	-12655
formance	-12656
ianische	-12657
ssysteme	-12658
stattung	-12659
▁abgeben	-12660
▁afrikan	-12661
▁beraten	-12662
▁berkele	-12663
▁bestech	-12664
▁eingebe	-12665
▁elefant	-12666
▁folgten	-12667
▁gefilmt	-12668
▁geliebt	-12669
▁gemerkt	-12670
▁idealen	-12671
▁kopiert	-12672
▁krieger	-12673
▁libanon	-12674
▁melodie	-12675
▁merkmal	-12676
▁neigung	-12677
▁ozeanen	-12678
▁pflicht	-12679
▁phoenix	-12680
▁schickt	-12681
▁schwimm	-12682
▁seattle	-12683
▁springt	-12684
▁stimmte	-12685
▁tödlich	-12686
▁verdamm	-12687
▁wählten	-12688
stellungs	-12689
sterreich	-12690
▁abhängen	-12691
▁angenehm	-12692
▁angriffe	-12693
▁bedecken	-12694
▁berichte	-12695
▁besucher	-12696
▁eingriff	-12697
▁einkaufs	-12698
▁hässlich	-12699
▁kreation	-12700
▁pandemie	-12701
▁partikel	-12702
▁pubertät	-12703
▁rechnung	-12704
▁schleimp	-12705
▁verknüpf	-12706
▁ökonomie	-12707
▁überholt	-12708
revolution	-12709
änderungen	-12710
▁abspielen	-12711
▁aufgehört	-12712
▁ausgehend	-12713
▁bestanden	-12714
▁dauerhaft	-12715
▁haushalts	-12716
▁platziert	-12717
▁schönsten	-12718
▁stattfand	-12719
▁vornehmen	-12720
▁übernimmt	-12721
▁beunruhigt	-12722
▁erreichten	-12723
▁ineinander	-12724
▁mitgefühls	-12725
▁schockiert	-12726
▁verfassung	-12727
▁zahlreiche	-12728
katastrophen	-12729
unterschiede	-12730
▁bundesstaat	-12731
▁genauigkeit	-12732
▁grundschule	-12733
▁infektionen	-12734
▁produktions	-12735
▁romantische	-12736
▁schnellsten	-12737
▁stundenlang	-12738
▁unternommen	-12739
▁untersuchte	-12740
▁vorbereiten	-12741
▁weitergeben	-12742
▁angesprochen	-12743
▁gefährlichen	-12744
▁geschlechter	-12745
▁gewohnheiten	-12746
▁installation	-12747
▁konversation	-12748
▁körperlichen	-12749
▁nachhaltigen	-12750
▁perspektiven	-12751
▁traditionell	-12752
▁unterdrücken	-12753
▁wiederaufbau	-12754
▁behinderungen	-12755
▁existierenden	-12756
▁partnerschaft	-12757
▁schwierigsten	-12758
▁vorgeschlagen	-12759
▁weitergegeben	-12760
▁funktionsweise	-12761
▁nebenwirkungen	-12762
▁zusammensetzen	-12763
hä	-12764
uk	-12765
-mo	-12766
esa	-12767
ips	-12768
pop	-12769
öte	-12770
▁aß	-12771
▁äh	-12772
-fre	-12773
ckta	-12774
etro	-12775
lere	-12776
uver	-12777
weit	-12778
öpft	-12779
▁10.	-12780
▁bee	-12781
▁edi	-12782
▁hot	-12783
▁höf	-12784
▁int	-12785
▁jet	-12786
▁koh	-12787
▁lak	-12788
▁psy	-12789
▁tyr	-12790
▁wag	-12791
▁wit	-12792
arium	-12793
ebene	-12794
eiert	-12795
eitig	-12796
hetti	-12797
iefel	-12798
klass	-12799
korea	-12800
osten	-12801
quote	-12802
reden	-12803
ärzte	-12804
äufen	-12805
▁alas	-12806
▁anbe	-12807
▁bach	-12808
▁bade	-12809
▁boom	-12810
▁coll	-12811
▁hefe	-12812
▁koso	-12813
▁kran	-12814
▁lade	-12815
▁logo	-12816
▁pack	-12817
▁sour	-12818
bahnen	-12819
emonie	-12820
fachen	-12821
gründe	-12822
gängig	-12823
inchen	-12824
liefer	-12825
medien	-12826
museum	-12827
sprung	-12828
trägen	-12829
uverne	-12830
zessen	-12831
üllten	-12832
▁abkür	-12833
▁alber	-12834
▁anbau	-12835
▁audio	-12836
▁bälle	-12837
▁coca-	-12838
▁erläu	-12839
▁faust	-12840
▁frakt	-12841
▁kälte	-12842
▁namib	-12843
▁regal	-12844
▁stren	-12845
▁these	-12846
▁trock	-12847
▁tunes	-12848
▁white	-12849
▁witze	-12850
auschen	-12851
brecher	-12852
händler	-12853
okratie	-12854
stecken	-12855
stätten	-12856
uminium	-12857
verletz	-12858
▁asthma	-12859
▁donner	-12860
▁ernste	-12861
▁gesten	-12862
▁gucken	-12863
▁hacken	-12864
▁hierzu	-12865
▁kasten	-12866
▁kommst	-12867
▁künste	-12868
▁massiv	-12869
▁mosche	-12870
▁mäusen	-12871
▁normen	-12872
▁schatz	-12873
▁social	-12874
▁stören	-12875
▁unvoll	-12876
▁wachte	-12877
▁wright	-12878
▁wunden	-12879
-syndrom	-12880
chnungen	-12881
mitglied	-12882
sprojekt	-12883
▁anlegen	-12884
▁aufhört	-12885
▁aufwand	-12886
▁befreit	-12887
▁dschung	-12888
▁filtern	-12889
▁füttern	-12890
▁klische	-12891
▁prüfung	-12892
▁redeten	-12893
▁richtet	-12894
▁schiffe	-12895
▁schlamm	-12896
▁schützt	-12897
▁stewart	-12898
▁stützen	-12899
▁talente	-12900
▁verscha	-12901
▁vorüber	-12902
istischer	-12903
kilometer	-12904
ähnlichen	-12905
▁anfällig	-12906
▁aussicht	-12907
▁berkeley	-12908
▁besiegen	-12909
▁einbauen	-12910
▁einsicht	-12911
▁eintritt	-12912
▁erforder	-12913
▁grönland	-12914
▁infrarot	-12915
▁kritisch	-12916
▁magazine	-12917
▁monterey	-12918
▁nachvoll	-12919
▁schlimme	-12920
▁schrittw	-12921
▁schwimmt	-12922
▁telefone	-12923
▁traurige	-12924
▁üblichen	-12925
haftigkeit	-12926
▁ausdrucks	-12927
▁bedingung	-12928
▁behauptet	-12929
▁betrunken	-12930
▁bewundern	-12931
▁entnehmen	-12932
▁gesteuert	-12933
▁herkommen	-12934
▁jerusalem	-12935
▁loswerden	-12936
▁paradigma	-12937
▁parkplatz	-12938
▁spaghetti	-12939
▁varianten	-12940
▁verbergen	-12941
▁verlaufen	-12942
▁verließen	-12943
▁allmählich	-12944
▁aneinander	-12945
▁aufgegeben	-12946
▁beschädigt	-12947
▁entschloss	-12948
▁fortpflanz	-12949
▁fotografen	-12950
▁freundlich	-12951
▁gefangenen	-12952
▁helikopter	-12953
▁herausfand	-12954
▁innovative	-12955
▁politikern	-12956
▁proportion	-12957
▁subvention	-12958
▁verknüpfen	-12959
▁verrichten	-12960
▁vorherigen	-12961
▁wiederverw	-12962
▁österreich	-12963
▁anschließen	-12964
▁bahnbrechen	-12965
▁bedrohungen	-12966
▁dreieinhalb	-12967
▁einbeziehen	-12968
▁geschwister	-12969
▁hervorrufen	-12970
▁herzinfarkt	-12971
▁hinzugefügt	-12972
▁krebszellen	-12973
▁psychischen	-12974
▁shakespeare	-12975
▁versteckten	-12976
▁verteidigen	-12977
▁weihnachten	-12978
▁älterwerden	-12979
issenschaften	-12980
▁erderwärmung	-12981
▁gleichberech	-12982
▁herauskommen	-12983
▁hervorragend	-12984
▁interessiere	-12985
▁lautsprecher	-12986
▁mammographie	-12987
▁verschwanden	-12988
▁vollständige	-12989
▁ausgezeichnet	-12990
▁herausfordern	-12991
▁stattgefunden	-12992
▁währenddessen	-12993
▁professionelle	-12994
▁visualisierung	-12995
▁zurückzukehren	-12996
▁bewerkstelligen	-12997
▁quantenmechanik	-12998
aby	-12999
aya	-13000
ela	-13001
iva	-13002
mut	-13003
nik	-13004
rip	-13005
ves	-13006
ynt	-13007
▁47	-13008
▁96	-13009
▁dj	-13010
▁hm	-13011
▁kh	-13012
auce	-13013
bart	-13014
besp	-13015
cola	-13016
ctus	-13017
eife	-13018
eiht	-13019
frem	-13020
haie	-13021
irus	-13022
kund	-13023
lief	-13024
ocht	-13025
opol	-13026
prei	-13027
sign	-13028
ölfe	-13029
▁450	-13030
▁cli	-13031
▁fan	-13032
▁hit	-13033
▁jup	-13034
▁kug	-13035
▁mrt	-13036
▁sad	-13037
▁vok	-13038
▁wuß	-13039
agern	-13040
ampus	-13041
bauer	-13042
bombe	-13043
diges	-13044
eider	-13045
feuer	-13046
insel	-13047
ittes	-13048
okoll	-13049
pläne	-13050
still	-13051
üchen	-13052
üstet	-13053
▁1997	-13054
▁5000	-13055
▁coch	-13056
▁erbl	-13057
▁laun	-13058
▁mrd.	-13059
▁nike	-13060
▁norm	-13061
▁puzz	-13062
▁rout	-13063
▁t-sh	-13064
▁wack	-13065
▁wuer	-13066
banken	-13067
bienen	-13068
hieren	-13069
häuser	-13070
ington	-13071
kriege	-13072
laster	-13073
lebens	-13074
legten	-13075
lingen	-13076
listen	-13077
locken	-13078
nummer	-13079
opädie	-13080
packen	-13081
setzte	-13082
sslich	-13083
stream	-13084
ummeln	-13085
umpfen	-13086
▁ahnen	-13087
▁ermor	-13088
▁feier	-13089
▁freud	-13090
▁fäden	-13091
▁führe	-13092
▁ginge	-13093
▁knall	-13094
▁lewis	-13095
▁lobby	-13096
▁model	-13097
▁myzel	-13098
▁pille	-13099
▁publi	-13100
▁spass	-13101
▁weist	-13102
-effekt	-13103
bericht	-13104
bildern	-13105
findung	-13106
steiger	-13107
tausend	-13108
wandeln	-13109
ündeten	-13110
▁ablauf	-13111
▁absatz	-13112
▁altmod	-13113
▁auszut	-13114
▁bezirk	-13115
▁eintau	-13116
▁ganzer	-13117
▁hübsch	-13118
▁kehrte	-13119
▁kleben	-13120
▁ladung	-13121
▁lampen	-13122
▁linear	-13123
▁maßstä	-13124
▁mücken	-13125
▁netten	-13126
▁nötige	-13127
▁perman	-13128
▁platte	-13129
▁rebell	-13130
▁schale	-13131
▁schwul	-13132
▁server	-13133
▁sierra	-13134
▁stoffe	-13135
▁zeugen	-13136
▁ängste	-13137
▁üblich	-13138
assungen	-13139
gerungen	-13140
ordneten	-13141
schätzen	-13142
spartner	-13143
▁abfolge	-13144
▁abläuft	-13145
▁anbauen	-13146
▁bedient	-13147
▁berater	-13148
▁bezogen	-13149
▁dauernd	-13150
▁ehefrau	-13151
▁inhalts	-13152
▁jupiter	-13153
▁kommand	-13154
▁liebten	-13155
▁nummern	-13156
▁seither	-13157
▁sexuell	-13158
▁stachel	-13159
▁verfein	-13160
▁verfügt	-13161
▁walmart	-13162
▁älteste	-13163
▁äußeren	-13164
gebrochen	-13165
schichten	-13166
▁aufnimmt	-13167
▁auslöser	-13168
▁barmherz	-13169
▁begangen	-13170
▁beiseite	-13171
▁benennen	-13172
▁bewertet	-13173
▁chemiker	-13174
▁deutsche	-13175
▁dienstag	-13176
▁doppelte	-13177
▁flexibel	-13178
▁gedauert	-13179
▁gewidmet	-13180
▁gänzlich	-13181
▁hungersn	-13182
▁illegale	-13183
▁momenten	-13184
▁optionen	-13185
▁religiös	-13186
▁superhel	-13187
▁verluste	-13188
▁verpasst	-13189
▁zurückge	-13190
▁zustände	-13191
▁zutrifft	-13192
zusprechen	-13193
▁absoluten	-13194
▁aluminium	-13195
▁angreifen	-13196
▁ansteigen	-13197
▁attraktiv	-13198
▁ausbilden	-13199
▁eigentums	-13200
▁endeffekt	-13201
▁förderung	-13202
▁generiert	-13203
▁glühbirne	-13204
▁hindernis	-13205
▁phänomene	-13206
▁schultern	-13207
▁südlichen	-13208
▁teilhaben	-13209
▁thunfisch	-13210
▁unbegrenz	-13211
▁webseiten	-13212
▁zuständig	-13213
▁antikörper	-13214
▁anzubieten	-13215
▁astronomen	-13216
▁benötigten	-13217
▁connectome	-13218
▁glühbirnen	-13219
▁hauptstadt	-13220
▁herzschlag	-13221
▁historisch	-13222
▁hoffnungen	-13223
▁häufigsten	-13224
▁optimieren	-13225
▁organische	-13226
▁positionen	-13227
▁programmen	-13228
▁staatliche	-13229
▁behinderung	-13230
▁flüchtlings	-13231
▁ingenieuren	-13232
▁korrigieren	-13233
▁nervenzelle	-13234
▁unerwartete	-13235
▁zeitschrift	-13236
▁musikalische	-13237
▁organisierte	-13238
▁rechenschaft	-13239
▁schaltkreise	-13240
▁wortwörtlich	-13241
▁einverstanden	-13242
▁erdoberfläche	-13243
▁fantastisches	-13244
▁komplizierten	-13245
▁verschwendung	-13246
▁vertrauenswür	-13247
▁zusammenspiel	-13248
▁überschreiten	-13249
▁zusammenbringen	-13250
ly	-13251
lö	-13252
ua	-13253
vö	-13254
-sp	-13255
bod	-13256
cla	-13257
ors	-13258
rey	-13259
val	-13260
wal	-13261
üre	-13262
▁8.	-13263
▁wk	-13264
▁wu	-13265
-pos	-13266
-tal	-13267
ader	-13268
alth	-13269
belt	-13270
dere	-13271
hang	-13272
ical	-13273
illt	-13274
ites	-13275
mien	-13276
muck	-13277
näck	-13278
ollt	-13279
sstu	-13280
stem	-13281
ters	-13282
utan	-13283
vest	-13284
▁1,3	-13285
▁140	-13286
▁160	-13287
▁900	-13288
▁bre	-13289
▁küh	-13290
▁lyn	-13291
▁mes	-13292
▁nom	-13293
▁nsa	-13294
▁sha	-13295
▁vib	-13296
▁zet	-13297
▁zuw	-13298
augen	-13299
dsten	-13300
geist	-13301
ierst	-13302
igmen	-13303
kläss	-13304
labor	-13305
neter	-13306
suche	-13307
zepte	-13308
öpfen	-13309
▁bart	-13310
▁beij	-13311
▁dood	-13312
▁food	-13313
▁häus	-13314
▁jane	-13315
▁jord	-13316
▁kürz	-13317
▁mech	-13318
▁myst	-13319
▁naiv	-13320
▁quar	-13321
▁sexy	-13322
▁tags	-13323
▁turm	-13324
▁unnö	-13325
▁zone	-13326
-achse	-13327
amilie	-13328
besten	-13329
chtert	-13330
gesagt	-13331
iftung	-13332
ildete	-13333
jahren	-13334
kamera	-13335
lenden	-13336
ochten	-13337
ologin	-13338
ressen	-13339
risiko	-13340
tasche	-13341
ynamik	-13342
ängern	-13343
▁6.000	-13344
▁anbie	-13345
▁appar	-13346
▁ausbe	-13347
▁befäh	-13348
▁elend	-13349
▁haken	-13350
▁hüfte	-13351
▁input	-13352
▁quell	-13353
▁simul	-13354
▁spart	-13355
▁stunt	-13356
▁venus	-13357
▁zahlt	-13358
▁ziehe	-13359
▁zweif	-13360
▁zweig	-13361
▁überd	-13362
einheit	-13363
ichtung	-13364
ivalent	-13365
stücken	-13366
verbrau	-13367
verlust	-13368
ächtigt	-13369
▁akteur	-13370
▁banker	-13371
▁barbar	-13372
▁bemüht	-13373
▁bewohn	-13374
▁dünger	-13375
▁einzur	-13376
▁essent	-13377
▁fehlte	-13378
▁gemalt	-13379
▁genies	-13380
▁kollab	-13381
▁krisen	-13382
▁kurven	-13383
▁lecker	-13384
▁mikrob	-13385
▁netter	-13386
▁photos	-13387
▁source	-13388
▁spinne	-13389
▁tugend	-13390
▁tumore	-13391
▁tötete	-13392
▁veranl	-13393
▁ziegen	-13394
algorith	-13395
biologie	-13396
▁akteure	-13397
▁anfühlt	-13398
▁ansteck	-13399
▁belegen	-13400
▁besaßen	-13401
▁delphin	-13402
▁eigener	-13403
▁erreich	-13404
▁erwarte	-13405
▁gehörte	-13406
▁hochwer	-13407
▁längere	-13408
▁patente	-13409
▁pfeifen	-13410
▁schlich	-13411
▁selbst-	-13412
▁sichern	-13413
▁sterber	-13414
▁süchtig	-13415
▁zehntel	-13416
▁übliche	-13417
betrieben	-13418
fizierten	-13419
gerechnet	-13420
krankheit	-13421
reibungen	-13422
▁ablaufen	-13423
▁begriffe	-13424
▁detektor	-13425
▁folglich	-13426
▁gesetzes	-13427
▁goldenen	-13428
▁gouverne	-13429
▁hartnäck	-13430
▁jüngsten	-13431
▁moderner	-13432
▁resonanz	-13433
▁rhyth-ma	-13434
▁schlauer	-13435
▁schmeckt	-13436
▁schwache	-13437
▁variante	-13438
▁visionen	-13439
▁vorhaben	-13440
▁wirkungs	-13441
▁zylinder	-13442
▁angerufen	-13443
▁erschreck	-13444
▁ideologie	-13445
▁kriterien	-13446
▁landkarte	-13447
▁nachahmen	-13448
▁positives	-13449
▁projektes	-13450
▁raumfahrt	-13451
▁sammelten	-13452
▁schaffung	-13453
▁schwächen	-13454
▁skeptisch	-13455
▁verbringe	-13456
▁vertreter	-13457
▁verwalten	-13458
mechanismus	-13459
▁akademiker	-13460
▁ansammlung	-13461
▁diplomatie	-13462
▁geringsten	-13463
▁higgs-feld	-13464
▁highschool	-13465
▁hinterkopf	-13466
▁intensität	-13467
▁mahlzeiten	-13468
▁nördlichen	-13469
▁skelettmus	-13470
▁städtische	-13471
erkrankungen	-13472
▁ausgestellt	-13473
▁bangladesch	-13474
▁bergsteiger	-13475
▁betrachtete	-13476
▁cyberkrimin	-13477
▁erschrecken	-13478
▁frustration	-13479
▁hochgeladen	-13480
▁mechanismen	-13481
▁performance	-13482
▁regulierung	-13483
▁schätzungen	-13484
▁statistisch	-13485
▁tätigkeiten	-13486
▁verfügbaren	-13487
▁verursachte	-13488
▁ausgerichtet	-13489
▁bereitschaft	-13490
▁beängstigend	-13491
▁installieren	-13492
▁umweltfreund	-13493
▁zwangsläufig	-13494
▁erfolgreichen	-13495
▁gemeinnützige	-13496
▁lateinamerika	-13497
▁unterschieden	-13498
▁vorzubereiten	-13499
▁wissenschafts	-13500
▁beeindruckende	-13501
kk	-13502
üt	-13503
bos	-13504
hah	-13505
ico	-13506
ios	-13507
it-	-13508
ols	-13509
tas	-13510
▁5.	-13511
▁86	-13512
-bom	-13513
agon	-13514
ahar	-13515
aiss	-13516
diag	-13517
effe	-13518
eith	-13519
elos	-13520
freu	-13521
glas	-13522
hall	-13523
igan	-13524
ikon	-13525
neur	-13526
orig	-13527
pert	-13528
rain	-13529
view	-13530
▁15.	-13531
▁16.	-13532
▁180	-13533
▁187	-13534
▁bad	-13535
▁zoo	-13536
▁zus	-13537
-team	-13538
-vide	-13539
-über	-13540
asten	-13541
atter	-13542
autos	-13543
earch	-13544
kanal	-13545
otter	-13546
uhren	-13547
ziele	-13548
▁able	-13549
▁aktu	-13550
▁bohr	-13551
▁carl	-13552
▁fügt	-13553
▁hin-	-13554
▁ikon	-13555
▁klau	-13556
▁obst	-13557
▁pier	-13558
▁ruck	-13559
▁tedx	-13560
▁unfa	-13561
behand	-13562
ichere	-13563
ienten	-13564
ischte	-13565
pagnen	-13566
papier	-13567
raffer	-13568
schaut	-13569
sebene	-13570
skrank	-13571
spielt	-13572
splant	-13573
ströme	-13574
träger	-13575
ützten	-13576
▁ankün	-13577
▁beher	-13578
▁delhi	-13579
▁empor	-13580
▁fülle	-13581
▁geste	-13582
▁herde	-13583
▁inten	-13584
▁invas	-13585
▁kling	-13586
▁plötz	-13587
▁polen	-13588
▁remix	-13589
▁schir	-13590
▁setze	-13591
▁sound	-13592
▁space	-13593
▁steck	-13594
▁sumpf	-13595
▁trost	-13596
▁ungem	-13597
▁unsch	-13598
▁verhe	-13599
▁wille	-13600
▁zeile	-13601
▁ängst	-13602
fferson	-13603
gericht	-13604
pansion	-13605
studien	-13606
weichen	-13607
xperten	-13608
▁60.000	-13609
▁aufruf	-13610
▁befehl	-13611
▁betrag	-13612
▁comedy	-13613
▁deuten	-13614
▁entwir	-13615
▁entwür	-13616
▁erober	-13617
▁fakult	-13618
▁festen	-13619
▁feucht	-13620
▁feuern	-13621
▁fluktu	-13622
▁gelder	-13623
▁globus	-13624
▁hammer	-13625
▁health	-13626
▁heranz	-13627
▁horror	-13628
▁kambod	-13629
▁kansas	-13630
▁koffer	-13631
▁kürzer	-13632
▁listen	-13633
▁mobile	-13634
▁nadeln	-13635
▁oberfl	-13636
▁passag	-13637
▁propag	-13638
▁psyche	-13639
▁puppen	-13640
▁quadra	-13641
▁quanti	-13642
▁rannte	-13643
▁regnet	-13644
▁scherz	-13645
▁umsatz	-13646
▁verges	-13647
▁verspr	-13648
▁verzei	-13649
▁volkes	-13650
▁äußere	-13651
aissance	-13652
ifiziert	-13653
rechnung	-13654
werkzeug	-13655
▁anblick	-13656
▁billige	-13657
▁dichten	-13658
▁dirigen	-13659
▁dreieck	-13660
▁drängen	-13661
▁einzelt	-13662
▁fehlern	-13663
▁fordert	-13664
▁interag	-13665
▁kennedy	-13666
▁kostete	-13667
▁lautete	-13668
▁lernens	-13669
▁mancher	-13670
▁mentale	-13671
▁mochten	-13672
▁piloten	-13673
▁samstag	-13674
▁schätzt	-13675
▁skizzen	-13676
▁vitamin	-13677
▁wandeln	-13678
▁wäldern	-13679
▁überaus	-13680
schrauber	-13681
schrecken	-13682
stationen	-13683
▁autonome	-13684
▁begegnet	-13685
▁bildeten	-13686
▁erachten	-13687
▁erwecken	-13688
▁fehlende	-13689
▁football	-13690
▁ganzheit	-13691
▁geistige	-13692
▁geschick	-13693
▁herausge	-13694
▁lehrplan	-13695
▁meetings	-13696
▁mikrofon	-13697
▁moskitos	-13698
▁mädchens	-13699
▁phantom-	-13700
▁research	-13701
▁sammelte	-13702
▁schildkr	-13703
▁umdrehen	-13704
▁unvorher	-13705
▁warteten	-13706
▁örtliche	-13707
▁übertrag	-13708
▁außenwelt	-13709
▁beliebige	-13710
▁besuchten	-13711
▁bruchteil	-13712
▁coca-cola	-13713
▁depressiv	-13714
▁derjenige	-13715
▁designern	-13716
▁einkaufen	-13717
▁fehlenden	-13718
▁geistigen	-13719
▁geldgeber	-13720
▁imitieren	-13721
▁jefferson	-13722
▁luftfahrt	-13723
▁migration	-13724
▁neugierde	-13725
▁positiver	-13726
▁riskieren	-13727
▁spazieren	-13728
▁universal	-13729
▁verbrannt	-13730
▁werkstatt	-13731
geschnitten	-13732
möglichkeit	-13733
▁anerkennen	-13734
▁begeistern	-13735
▁beobachter	-13736
▁effiziente	-13737
▁impfstoffe	-13738
▁kollektive	-13739
▁mutationen	-13740
▁nordamerik	-13741
▁steigerung	-13742
▁südamerika	-13743
▁umgebracht	-13744
▁umstritten	-13745
▁untergrund	-13746
▁vernünftig	-13747
▁vorurteile	-13748
▁zufälligen	-13749
versicherung	-13750
▁abschneiden	-13751
▁ausgelöscht	-13752
▁ausschalten	-13753
▁empfindlich	-13754
▁geschnitten	-13755
▁molekularen	-13756
▁notaufnahme	-13757
▁notwendigen	-13758
▁plattformen	-13759
▁reflektiert	-13760
▁renaissance	-13761
▁schleimpilz	-13762
▁verletzlich	-13763
▁weitergehen	-13764
▁widerstehen	-13765
▁wunderbarer	-13766
▁übermitteln	-13767
▁bemerkenswer	-13768
▁inspirierend	-13769
▁verlangsamen	-13770
▁verschlüssel	-13771
▁wahrzunehmen	-13772
▁zwischenzeit	-13773
▁abgeschnitten	-13774
▁arbeitskräfte	-13775
▁einschränkung	-13776
▁entscheidungs	-13777
▁geschäftswelt	-13778
▁herausstellte	-13779
▁herunterladen	-13780
▁schnittstelle	-13781
▁verpflichtung	-13782
▁allgegenwärtig	-13783
▁typischerweise	-13784
▁schwangerschaft	-13785
▁technologischen	-13786
▁vielversprechen	-13787
mi	-13788
äs	-13789
-zu	-13790
com	-13791
idi	-13792
ily	-13793
kod	-13794
lub	-13795
nor	-13796
tie	-13797
twe	-13798
ußt	-13799
▁52	-13800
▁6.	-13801
▁74	-13802
▁id	-13803
▁v.	-13804
▁zö	-13805
atür	-13806
gant	-13807
irur	-13808
itis	-13809
kose	-13810
lvia	-13811
osse	-13812
rott	-13813
uppe	-13814
üler	-13815
▁bow	-13816
▁deh	-13817
▁dvd	-13818
▁hur	-13819
▁jac	-13820
▁led	-13821
▁lhc	-13822
▁mix	-13823
▁pur	-13824
▁sho	-13825
▁shr	-13826
▁tai	-13827
▁öko	-13828
-vort	-13829
alore	-13830
atrie	-13831
babwe	-13832
chern	-13833
cover	-13834
flüge	-13835
lecht	-13836
serie	-13837
siver	-13838
unsch	-13839
ückte	-13840
▁anek	-13841
▁arte	-13842
▁ausn	-13843
▁einw	-13844
▁emer	-13845
▁faul	-13846
▁happ	-13847
▁hosp	-13848
▁intr	-13849
▁künf	-13850
▁leug	-13851
▁milo	-13852
▁orth	-13853
▁punk	-13854
▁ruhm	-13855
▁saat	-13856
▁sehn	-13857
▁slum	-13858
▁stoß	-13859
▁subs	-13860
▁teig	-13861
▁tust	-13862
▁ultr	-13863
▁utop	-13864
▁vulk	-13865
finanz	-13866
händer	-13867
idemie	-13868
künfte	-13869
legung	-13870
länder	-13871
marsch	-13872
massen	-13873
minist	-13874
moment	-13875
rechts	-13876
stunde	-13877
swerte	-13878
teilte	-13879
westen	-13880
▁album	-13881
▁archä	-13882
▁athle	-13883
▁bauer	-13884
▁beach	-13885
▁biene	-13886
▁entmu	-13887
▁fahre	-13888
▁flüch	-13889
▁gebir	-13890
▁gewer	-13891
▁impor	-13892
▁lasen	-13893
▁makro	-13894
▁mitzu	-13895
▁pädag	-13896
▁reist	-13897
▁schaf	-13898
▁tesla	-13899
aktoren	-13900
fähiger	-13901
liessen	-13902
mittler	-13903
sammeln	-13904
sendung	-13905
thimmel	-13906
tzeitig	-13907
zulegen	-13908
▁alaska	-13909
▁arrang	-13910
▁belegt	-13911
▁beläst	-13912
▁bewahr	-13913
▁bewege	-13914
▁brille	-13915
▁buddha	-13916
▁fossil	-13917
▁fünfte	-13918
▁gelehr	-13919
▁kerzen	-13920
▁kosmos	-13921
▁kriegt	-13922
▁lauten	-13923
▁lehrte	-13924
▁leihen	-13925
▁letzen	-13926
▁museen	-13927
▁mörder	-13928
▁röhren	-13929
▁schoss	-13930
▁schwär	-13931
▁sexual	-13932
▁sylvia	-13933
▁träger	-13934
▁umgibt	-13935
▁umkehr	-13936
▁vorant	-13937
▁wilden	-13938
▁zeilen	-13939
-positiv	-13940
-problem	-13941
allappen	-13942
bereiche	-13943
digungen	-13944
fizierte	-13945
ineering	-13946
lösungen	-13947
schieben	-13948
stellige	-13949
verstand	-13950
▁alltags	-13951
▁ausführ	-13952
▁bedenkt	-13953
▁beweist	-13954
▁dreißig	-13955
▁externe	-13956
▁flecken	-13957
▁fünftel	-13958
▁fünften	-13959
▁galerie	-13960
▁gattung	-13961
▁hormone	-13962
▁händler	-13963
▁indigen	-13964
▁infolge	-13965
▁journal	-13966
▁kräften	-13967
▁leitete	-13968
▁nötigen	-13969
▁reaktor	-13970
▁schläft	-13971
▁trommel	-13972
▁wassers	-13973
▁wundern	-13974
▁älterer	-13975
schritten	-13976
sprobleme	-13977
störungen	-13978
sätzliche	-13979
▁abschied	-13980
▁al-qaida	-13981
▁anforder	-13982
▁ausdrück	-13983
▁besorgen	-13984
▁betrügen	-13985
▁betrüger	-13986
▁gerissen	-13987
▁gesamtes	-13988
▁handvoll	-13989
▁indianer	-13990
▁klarheit	-13991
▁libellen	-13992
▁mahlzeit	-13993
▁massiven	-13994
▁mountain	-13995
▁plankton	-13996
▁polizist	-13997
▁rohstoff	-13998
▁schalten	-13999
▁schließe	-14000
▁senioren	-14001
▁spanisch	-14002
▁südafrik	-14003
▁thailand	-14004
▁toleranz	-14005
▁wiederzu	-14006
▁zulassen	-14007
▁überschw	-14008
▁überwach	-14009
generation	-14010
strukturen	-14011
verteilung	-14012
▁abholzung	-14013
▁bangalore	-14014
▁brillante	-14015
▁bräuchten	-14016
▁dominiert	-14017
▁dschungel	-14018
▁ehemalige	-14019
▁eindrucks	-14020
▁entwarfen	-14021
▁grammatik	-14022
▁haushalte	-14023
▁molekülen	-14024
▁prothesen	-14025
▁schmetter	-14026
▁steuerung	-14027
▁unbekannt	-14028
▁vermehren	-14029
▁vermischt	-14030
▁veteranen	-14031
▁visueller	-14032
▁zufällige	-14033
▁überblick	-14034
▁überflüss	-14035
▁assoziiert	-14036
▁aufsteigen	-14037
▁ausgedacht	-14038
▁ausrichten	-14039
▁bedeutungs	-14040
▁einsamkeit	-14041
▁einzugehen	-14042
▁ernährungs	-14043
▁flugzeugen	-14044
▁fokussiert	-14045
▁lebenszeit	-14046
▁mitbringen	-14047
▁molekulare	-14048
▁musikstück	-14049
▁nachdachte	-14050
▁psychiater	-14051
▁schüchtern	-14052
▁sichtbaren	-14053
▁spielzeuge	-14054
▁symmetrien	-14055
▁todesfälle	-14056
▁verabschie	-14057
▁vernetzung	-14058
▁versammeln	-14059
▁verspreche	-14060
▁vertrieben	-14061
▁wendepunkt	-14062
▁zeitraffer	-14063
▁zweifellos	-14064
▁dergleichen	-14065
▁eingebettet	-14066
▁gemeinsames	-14067
▁herauskommt	-14068
▁hinausgehen	-14069
▁kontinenten	-14070
▁multination	-14071
▁nachthimmel	-14072
▁praktischen	-14073
▁rechtzeitig	-14074
▁universelle	-14075
▁verlangsamt	-14076
▁vordergrund	-14077
▁windenergie	-14078
▁ökologische	-14079
▁überwältigt	-14080
informationen	-14081
▁akademischen	-14082
▁aussergewöhn	-14083
▁vorbereitung	-14084
▁erfolgreicher	-14085
▁fundamentalen	-14086
▁schreckliches	-14087
▁transformieren	-14088
▁psychologischen	-14089
▁selbstvertrauen	-14090
-3	-14091
-o	-14092
gst	-14093
ink	-14094
pla	-14095
red	-14096
tre	-14097
▁53	-14098
▁59	-14099
▁bü	-14100
▁gü	-14101
▁sn	-14102
-gen	-14103
alai	-14104
auff	-14105
entz	-14106
fred	-14107
fuhr	-14108
gige	-14109
hoch	-14110
infe	-14111
mess	-14112
ockt	-14113
oden	-14114
okon	-14115
oton	-14116
quis	-14117
ript	-14118
räne	-14119
trat	-14120
umer	-14121
wale	-14122
yota	-14123
äres	-14124
ärkt	-14125
▁---	-14126
▁abb	-14127
▁adi	-14128
▁cre	-14129
▁dol	-14130
▁isa	-14131
▁neh	-14132
▁sap	-14133
ction	-14134
essim	-14135
esung	-14136
glied	-14137
haler	-14138
iktor	-14139
point	-14140
trägt	-14141
urcht	-14142
utnik	-14143
vögel	-14144
üsten	-14145
▁1970	-14146
▁1991	-14147
▁alan	-14148
▁cham	-14149
▁chop	-14150
▁cris	-14151
▁crow	-14152
▁east	-14153
▁ebay	-14154
▁ehrf	-14155
▁grus	-14156
▁helm	-14157
▁huhn	-14158
▁love	-14159
▁mons	-14160
▁palä	-14161
▁pent	-14162
▁repl	-14163
▁rufe	-14164
▁süße	-14165
▁terr	-14166
▁urin	-14167
▁zoll	-14168
fahrts	-14169
fähige	-14170
iedeln	-14171
iegend	-14172
kehrte	-14173
luster	-14174
macher	-14175
rächen	-14176
schuss	-14177
üsselt	-14178
▁auslö	-14179
▁basen	-14180
▁blutz	-14181
▁boote	-14182
▁broad	-14183
▁chips	-14184
▁dalai	-14185
▁dosis	-14186
▁enger	-14187
▁faden	-14188
▁flick	-14189
▁gepar	-14190
▁irren	-14191
▁kolum	-14192
▁kyros	-14193
▁lagos	-14194
▁lampe	-14195
▁massa	-14196
▁oktop	-14197
▁orang	-14198
▁refle	-14199
▁rocke	-14200
▁table	-14201
▁tibet	-14202
▁wählt	-14203
archite	-14204
artiger	-14205
aschall	-14206
drucker	-14207
konflik	-14208
kräften	-14209
ollegen	-14210
schirme	-14211
smodell	-14212
straßen	-14213
studium	-14214
tierter	-14215
usionen	-14216
wichtig	-14217
▁absurd	-14218
▁berufe	-14219
▁blüten	-14220
▁canyon	-14221
▁columb	-14222
▁edward	-14223
▁elimin	-14224
▁erspar	-14225
▁ertrag	-14226
▁frisst	-14227
▁heroin	-14228
▁johnny	-14229
▁joshua	-14230
▁konver	-14231
▁konzip	-14232
▁kämpft	-14233
▁nathan	-14234
▁pessim	-14235
▁rassen	-14236
▁schrau	-14237
▁simpel	-14238
▁sprang	-14239
▁stetig	-14240
▁supral	-14241
▁teuren	-14242
▁tyrann	-14243
▁unwohl	-14244
▁viktor	-14245
▁wandte	-14246
▁wänden	-14247
▁zusamm	-14248
▁ärztin	-14249
-theorie	-14250
kampagne	-14251
klässler	-14252
schlüsse	-14253
schützer	-14254
sekunden	-14255
ssystems	-14256
▁aktiver	-14257
▁apparat	-14258
▁auslöst	-14259
▁befasst	-14260
▁besuche	-14261
▁durchdr	-14262
▁erträge	-14263
▁erzogen	-14264
▁ethanol	-14265
▁frösche	-14266
▁früchte	-14267
▁genauen	-14268
▁grosser	-14269
▁jüngere	-14270
▁komfort	-14271
▁kreisen	-14272
▁landung	-14273
▁leichen	-14274
▁lustige	-14275
▁offener	-14276
▁rehabil	-14277
▁reichte	-14278
▁sammler	-14279
▁scannen	-14280
▁schaffe	-14281
▁schnurr	-14282
▁spezial	-14283
▁sputnik	-14284
▁stadium	-14285
▁stiegen	-14286
▁taucher	-14287
▁töteten	-14288
▁verviel	-14289
▁zentren	-14290
▁ägypter	-14291
▁äquator	-14292
-maschine	-14293
erkennung	-14294
gespräche	-14295
kreislauf	-14296
tigkeiten	-14297
wettbewer	-14298
ändischen	-14299
▁authenti	-14300
▁bewegten	-14301
[...]
