<pad>	0
<s>	0
</s>	0
<unk>	0
▁,	-2.83471
▁.	-2.99296
▁the	-3.19635
▁and	-3.53614
▁to	-3.72302
▁of	-3.79154
▁a	-3.88058
▁that	-3.99331
▁i	-4.13157
▁in	-4.18246
▁it	-4.20462
▁you	-4.2446
▁we	-4.33849
▁is	-4.35891
▁'s	-4.49325
▁this	-4.61255
▁so	-4.91263
▁"	-4.9978
▁they	-5.03307
▁was	-5.13175
▁for	-5.16068
▁are	-5.20732
▁have	-5.23675
▁what	-5.24966
▁but	-5.26918
▁on	-5.28759
▁--	-5.29206
▁with	-5.33451
▁can	-5.37733
▁?	-5.41492
▁'t	-5.4492
▁there	-5.46919
▁about	-5.48152
▁be	-5.54793
▁as	-5.57254
▁at	-5.58697
▁all	-5.5894
▁not	-5.62631
▁do	-5.63841
▁one	-5.68528
▁'re	-5.70153
▁my	-5.70996
▁people	-5.74073
▁if	-5.76725
▁like	-5.76891
▁from	-5.80382
▁now	-5.83768
▁these	-5.88282
▁he	-5.89142
▁an	-5.90332
▁just	-5.90942
▁or	-5.92454
▁:	-5.94484
▁our	-5.94523
▁because	-5.98166
▁when	-5.98207
▁very	-5.99074
▁out	-6.06387
▁me	-6.07104
▁by	-6.07656
▁know	-6.07701
▁going	-6.08393
▁how	-6.08872
▁them	-6.09193
▁up	-6.12092
▁more	-6.1661
▁think	-6.18292
▁here	-6.18961
▁had	-6.19328
▁which	-6.19646
▁see	-6.19787
▁your	-6.22607
▁who	-6.23067
▁really	-6.24474
▁were	-6.25442
▁their	-6.25563
▁would	-6.27874
▁get	-6.28735
▁then	-6.30679
▁'ve	-6.30807
▁some	-6.37568
▁'m	-6.3769
▁world	-6.38364
▁time	-6.40021
▁us	-6.40365
▁actually	-6.41659
▁has	-6.41929
▁don	-6.43566
▁into	-6.45477
▁way	-6.48253
▁things	-6.49225
▁where	-6.50102
▁will	-6.51511
▁years	-6.51598
▁other	-6.55569
▁go	-6.55806
▁want	-6.57021
▁no	-6.57187
▁well	-6.58231
▁could	-6.58513
▁been	-6.62363
▁make	-6.63423
▁said	-6.66469
▁right	-6.66958
▁something	-6.68628
▁first	-6.72377
▁those	-6.73944
▁she	-6.74317
▁much	-6.7661
▁two	-6.767
▁look	-6.76925
▁than	-6.78359
▁little	-6.79187
▁also	-6.79953
▁thing	-6.80865
▁got	-6.82404
▁new	-6.83894
▁back	-6.85925
▁say	-6.86172
▁over	-6.87319
▁most	-6.8891
▁only	-6.89703
▁his	-6.91411
▁work	-6.92752
▁even	-6.93415
▁life	-6.93602
▁many	-6.96115
▁kind	-6.96554
▁take	-6.96857
▁need	-6.98106
▁did	-6.9971
▁lot	-7.00765
▁good	-7.02938
▁why	-7.0394
▁around	-7.05071
▁different	-7.06974
▁'ll	-7.0848
▁every	-7.10609
▁down	-7.11403
▁let	-7.1185
▁through	-7.13562
▁same	-7.15338
▁come	-7.15437
▁;	-7.17721
▁doing	-7.20406
▁use	-7.20581
▁being	-7.21212
▁her	-7.21493
▁put	-7.2245
▁three	-7.28468
▁any	-7.29916
▁day	-7.30108
▁called	-7.31346
▁'d	-7.31932
▁percent	-7.33351
▁today	-7.34872
▁made	-7.36048
▁great	-7.37032
▁tell	-7.37735
▁after	-7.3786
▁thank	-7.40341
▁find	-7.4206
▁fact	-7.4328
▁talk	-7.44161
▁human	-7.4505
▁another	-7.45184
▁didn	-7.45229
▁idea	-7.45857
▁year	-7.46263
▁change	-7.46943
▁big	-7.47079
▁its	-7.47673
▁last	-7.48179
▁own	-7.49197
▁started	-7.49197
▁should	-7.49524
▁before	-7.5032
▁went	-7.51886
▁thought	-7.51981
▁give	-7.52509
▁course	-7.53621
▁important	-7.56333
▁never	-7.56333
▁again	-7.56884
▁better	-7.56985
▁might	-7.5754
▁problem	-7.57996
▁start	-7.60622
▁part	-7.61197
▁next	-7.61249
▁able	-7.61512
▁does	-7.61512
▁show	-7.61512
▁story	-7.6257
▁still	-7.62997
▁system	-7.6305
▁ago	-7.63104
▁each	-7.63157
▁off	-7.63264
▁him	-7.63586
▁together	-7.64341
▁brain	-7.64721
▁bit	-7.6543
▁came	-7.66919
▁technology	-7.67644
▁few	-7.68713
▁place	-7.68939
▁mean	-7.69622
▁water	-7.70367
▁used	-7.7077
▁between	-7.72694
▁maybe	-7.73878
▁looking	-7.74057
▁women	-7.74835
▁done	-7.75016
▁long	-7.7556
▁example	-7.7562
▁too	-7.75924
▁question	-7.76717
▁sort	-7.77332
▁doesn	-7.77455
▁end	-7.77826
▁data	-7.7795
▁found	-7.78385
▁point	-7.7901
▁love	-7.79324
▁'	-7.79702
▁wanted	-7.81872
▁whole	-7.8278
▁school	-7.82845
▁understand	-7.83302
▁call	-7.83695
▁children	-7.84619
▁working	-7.85351
▁live	-7.85619
▁real	-7.85619
▁trying	-7.85753
▁always	-7.8582
▁may	-7.86291
▁try	-7.86696
▁million	-7.8758
▁ever	-7.87854
▁believe	-7.88403
▁four	-7.89233
▁everything	-7.89512
▁away	-7.9007
▁person	-7.91268
▁feel	-7.92337
▁10	-7.9248
▁using	-7.92552
▁kids	-7.93417
▁country	-7.93562
▁information	-7.9517
▁second	-7.9517
▁help	-7.95539
▁number	-7.9591
▁means	-7.95984
▁took	-7.97105
▁five	-7.9733
▁thinking	-7.97406
▁design	-7.97934
▁times	-7.98238
▁money	-7.99001
▁space	-7.99461
▁create	-8.00079
▁quite	-8.00466
▁man	-8.01403
▁become	-8.02507
▁power	-8.02905
▁small	-8.03704
▁enough	-8.03945
▁getting	-8.04672
▁food	-8.05078
▁sense	-8.05404
▁probably	-8.05813
▁light	-8.06306
▁old	-8.06388
▁comes	-8.0647
▁best	-8.06801
▁left	-8.07133
▁interesting	-8.07799
▁happened	-8.08134
▁home	-8.08471
▁building	-8.09146
▁future	-8.09571
▁without	-8.09826
▁talking	-8.09997
▁making	-8.10083
▁energy	-8.10426
▁stuff	-8.11028
▁ask	-8.11808
▁less	-8.12157
▁told	-8.13123
▁pretty	-8.13211
▁social	-8.13831
▁anything	-8.14454
▁science	-8.14454
▁play	-8.14812
▁coming	-8.15172
▁africa	-8.15352
▁dollars	-8.15985
▁am	-8.16258
▁such	-8.16714
▁body	-8.17448
▁countries	-8.19213
▁imagine	-8.19213
▁city	-8.19871
▁lives	-8.20154
▁happen	-8.20344
▁makes	-8.20344
▁once	-8.20344
▁goes	-8.20628
▁across	-8.20723
▁okay	-8.20723
▁moment	-8.20819
▁else	-8.21105
▁simple	-8.21105
▁hard	-8.212
▁half	-8.21488
▁earth	-8.21872
▁says	-8.21968
▁basically	-8.22451
▁room	-8.22451
▁build	-8.22645
▁saw	-8.23228
▁later	-8.23619
▁happens	-8.23816
▁bad	-8.23914
▁having	-8.23914
▁seen	-8.23914
▁side	-8.24012
▁experience	-8.2411
▁living	-8.24209
▁yet	-8.24209
▁asked	-8.24505
▁move	-8.25099
▁picture	-8.264
▁high	-8.26703
▁while	-8.27108
▁learn	-8.27616
▁ways	-8.28024
▁project	-8.28127
▁reason	-8.28435
▁men	-8.28538
▁health	-8.2895
▁business	-8.29676
▁days	-8.29884
▁process	-8.29988
▁problems	-8.30093
▁family	-8.30197
▁almost	-8.30302
▁case	-8.30827
▁computer	-8.30827
▁whether	-8.31673
▁nothing	-8.31779
▁young	-8.31779
▁20	-8.31885
▁inside	-8.31992
▁states	-8.32526
▁both	-8.3274
▁care	-8.3274
▁within	-8.32847
▁book	-8.32955
▁car	-8.33278
▁everybody	-8.33278
▁ideas	-8.34036
▁remember	-8.34036
▁single	-8.34145
▁guy	-8.34472
▁hand	-8.34581
▁saying	-8.35239
▁far	-8.35459
▁six	-8.3568
▁planet	-8.3579
▁possible	-8.3579
▁top	-8.36234
▁history	-8.36345
▁set	-8.36456
▁already	-8.36791
▁global	-8.37239
▁looks	-8.37351
▁child	-8.38823
▁true	-8.38823
▁someone	-8.39165
▁answer	-8.3928
▁looked	-8.3928
▁wrong	-8.39394
▁mind	-8.39509
▁war	-8.39624
▁keep	-8.39739
▁sure	-8.40085
▁bring	-8.40548
▁video	-8.4078
▁billion	-8.40896
▁open	-8.41013
▁matter	-8.41129
▁often	-8.41363
▁music	-8.41597
▁heard	-8.4195
▁hope	-8.42303
▁yes	-8.4254
▁myself	-8.43371
▁amazing	-8.4373
▁cancer	-8.4409
▁form	-8.44451
▁oh	-8.44693
▁sometimes	-8.44814
▁language	-8.45056
▁since	-8.45056
▁beautiful	-8.45299
▁isn	-8.45299
▁instead	-8.45543
▁united	-8.45665
▁words	-8.45665
▁cells	-8.46032
▁age	-8.46154
▁piece	-8.464
▁until	-8.46646
▁nature	-8.4677
▁couple	-8.47017
▁ok	-8.47017
▁public	-8.47017
▁months	-8.47265
▁control	-8.47513
▁species	-8.48137
▁built	-8.48262
▁community	-8.48262
▁woman	-8.48388
▁read	-8.48639
▁education	-8.4965
▁government	-8.49778
▁universe	-8.49778
▁turn	-8.50032
▁works	-8.50416
▁exactly	-8.50544
▁face	-8.50544
▁job	-8.50544
▁word	-8.50929
▁order	-8.51058
▁group	-8.51445
▁wasn	-8.51445
▁completely	-8.51575
▁under	-8.51575
▁research	-8.51964
▁stories	-8.52486
▁line	-8.52747
▁places	-8.52747
▁internet	-8.53669
▁friends	-8.53934
▁decided	-8.542
▁students	-8.542
▁god	-8.54333
▁stop	-8.54333
▁india	-8.54599
▁somebody	-8.54733
▁taking	-8.54867
▁though	-8.54867
▁animals	-8.55538
▁model	-8.55943
▁middle	-8.56079
▁became	-8.56622
▁happening	-8.56622
▁society	-8.56622
▁kinds	-8.57032
▁itself	-8.57306
▁yeah	-8.57443
▁america	-8.57856
▁everyone	-8.57856
▁art	-8.58132
▁rather	-8.58132
▁turns	-8.58132
▁run	-8.58548
▁learned	-8.58687
▁company	-8.59105
▁huge	-8.59245
▁ourselves	-8.59245
▁study	-8.59385
▁gets	-8.59525
▁large	-8.59525
▁30	-8.59665
▁game	-8.59947
▁share	-8.59947
▁hear	-8.60088
▁knew	-8.60653
▁state	-8.60653
▁minutes	-8.60795
▁questions	-8.60938
▁against	-8.61222
▁mother	-8.61222
▁environment	-8.61365
▁themselves	-8.61365
▁must	-8.61508
▁guys	-8.61651
▁heart	-8.61938
▁ones	-8.62659
▁...	-8.62804
▁level	-8.62804
▁head	-8.63531
▁name	-8.63531
▁front	-8.63824
▁hours	-8.63824
▁perhaps	-8.63824
▁created	-8.6397
▁couldn	-8.64558
▁house	-8.64558
▁worked	-8.64706
▁50	-8.64854
▁along	-8.6515
▁night	-8.65299
▁news	-8.65447
▁others	-8.65447
▁sound	-8.65745
▁particular	-8.66194
▁lots	-8.66344
▁100	-8.66947
▁won	-8.66947
▁finally	-8.67098
▁third	-8.67249
▁thousands	-8.67553
▁learning	-8.67857
▁happy	-8.6801
▁least	-8.68622
▁natural	-8.6893
▁systems	-8.6893
▁figure	-8.69084
▁early	-8.69393
▁gave	-8.69859
▁disease	-8.70014
▁american	-8.70326
▁per	-8.70796
▁machine	-8.70953
▁ted	-8.71111
▁past	-8.71584
▁outside	-8.71743
▁air	-8.72538
▁audience	-8.7334
▁entire	-8.73986
▁area	-8.748
▁cell	-8.74964
▁seven	-8.74964
▁china	-8.75127
▁difference	-8.75291
▁close	-8.75456
▁whatever	-8.75456
▁taken	-8.7562
▁century	-8.75785
▁oil	-8.7595
▁moving	-8.76116
▁changed	-8.76282
▁during	-8.76447
▁wonderful	-8.76447
▁given	-8.77449
▁market	-8.79312
▁turned	-8.79312
▁leave	-8.79998
▁takes	-8.79998
▁terms	-8.8017
▁behind	-8.80516
▁seeing	-8.80516
▁easy	-8.80689
▁culture	-8.80862
▁beginning	-8.8121
▁difficult	-8.8121
▁eyes	-8.8121
▁local	-8.81559
▁yourself	-8.81559
▁population	-8.8191
▁needs	-8.82085
▁began	-8.82261
▁ocean	-8.82614
▁image	-8.82791
▁black	-8.83145
▁hands	-8.84396
▁needed	-8.84396
▁certain	-8.84576
▁parts	-8.84576
▁cannot	-8.84937
▁view	-8.84937
▁paper	-8.853
▁walk	-8.853
▁interested	-8.85481
▁media	-8.85481
▁free	-8.86028
▁realized	-8.86028
▁common	-8.86211
▁deal	-8.86762
▁simply	-8.86762
▁companies	-8.86947
▁powerful	-8.87502
▁parents	-8.87687
▁green	-8.87873
▁york	-8.87873
▁full	-8.88247
▁death	-8.88434
▁longer	-8.88621
▁size	-8.88621
▁amount	-8.88809
▁eight	-8.89374
▁land	-8.89374
▁tried	-8.89374
▁humans	-8.89564
▁15	-8.89753
▁gone	-8.90324
▁center	-8.90515
▁buy	-8.90706
▁behavior	-8.90898
▁cities	-8.91476
▁economic	-8.91476
▁grow	-8.91669
▁poor	-8.92251
▁team	-8.92251
▁week	-8.92251
▁scale	-8.92446
▁father	-8.92641
▁red	-8.92641
▁either	-8.92836
▁national	-8.92836
▁quickly	-8.92836
▁blue	-8.93228
▁felt	-8.93228
▁spend	-8.93228
▁cost	-8.93425
▁value	-8.93425
▁rest	-8.94216
▁weeks	-8.94216
▁spent	-8.94414
▁complex	-8.94613
▁feet	-8.94613
▁reality	-8.95012
▁ability	-8.9622
▁opportunity	-8.9622
▁wouldn	-8.9622
▁shows	-8.96422
▁friend	-8.96625
▁incredible	-8.96625
▁known	-8.96625
▁sitting	-8.96625
▁dna	-8.96829
▁program	-8.96829
▁south	-8.96829
▁white	-8.96829
▁based	-8.97033
▁pay	-8.97033
▁phone	-8.97442
▁force	-8.97647
▁growth	-8.97647
▁animal	-8.97852
▁girl	-8.97852
▁street	-8.97852
▁u.s.	-8.98265
▁field	-8.98679
▁lost	-8.98679
▁areas	-8.99095
▁books	-8.99303
▁changes	-8.99512
▁fish	-8.99512
▁watch	-8.99512
▁anyone	-8.99722
▁economy	-8.99722
▁step	-8.99722
▁test	-8.99722
▁write	-8.99722
▁attention	-9.00564
▁eat	-9.00564
▁political	-9.00775
▁surface	-9.00987
▁brought	-9.012
▁challenge	-9.02269
▁speak	-9.02269
▁met	-9.02485
▁stage	-9.02485
▁technologies	-9.02485
▁nice	-9.027
▁structure	-9.027
▁average	-9.02917
▁born	-9.02917
▁realize	-9.02917
▁numbers	-9.03351
▁voice	-9.03568
▁growing	-9.04224
▁developed	-9.04663
▁physical	-9.04663
▁ground	-9.04884
▁scientists	-9.04884
▁theory	-9.04884
▁giving	-9.05105
▁knowledge	-9.05548
▁absolutely	-9.05771
▁english	-9.05771
▁feeling	-9.05994
▁individual	-9.05994
▁map	-9.05994
▁patients	-9.06217
▁act	-9.06441
▁images	-9.06441
▁morning	-9.06666
▁hundreds	-9.07342
▁literally	-9.07342
▁wrote	-9.07342
▁miles	-9.07569
▁running	-9.07569
▁bottom	-9.07796
▁forward	-9.07796
▁seems	-9.07796
▁starting	-9.08023
▁fun	-9.08251
▁climate	-9.0848
▁die	-9.09169
▁fly	-9.09169
▁result	-9.09399
▁short	-9.09399
▁movement	-9.09631
▁sea	-9.09862
▁understanding	-9.09862
▁gives	-9.10328
▁nobody	-9.10328
▁tools	-9.10328
▁discovered	-9.11264
▁personal	-9.11264
▁kid	-9.115
▁40	-9.11736
▁cut	-9.11736
▁playing	-9.11736
▁s	-9.11736
▁hold	-9.11973
▁key	-9.1221
▁telling	-9.12448
▁millions	-9.12686
▁north	-9.12686
▁recently	-9.12925
▁access	-9.13165
▁europe	-9.13165
▁law	-9.13165
▁creating	-9.13405
▁dark	-9.13405
▁sun	-9.13645
▁cool	-9.14128
▁film	-9.14371
▁material	-9.14614
▁obviously	-9.14614
▁ice	-9.14857
▁issue	-9.15102
▁cars	-9.15347
▁deep	-9.16084
▁innovation	-9.16332
▁showed	-9.1658
▁university	-9.1658
▁support	-9.16828
▁focus	-9.17077
▁incredibly	-9.17077
▁allow	-9.17327
▁begin	-9.17327
▁seem	-9.17327
▁shape	-9.17327
▁talked	-9.17327
▁alone	-9.17828
▁especially	-9.17828
▁relationship	-9.17828
▁available	-9.1808
▁ca	-9.1808
▁fast	-9.1808
▁solution	-9.1808
▁normal	-9.18332
▁situation	-9.18332
▁wall	-9.18332
▁clear	-9.18585
▁asking	-9.19092
▁developing	-9.19092
▁product	-9.19092
▁development	-9.19347
▁online	-9.19347
▁computers	-9.19602
▁designed	-9.19602
▁lab	-9.19602
▁soon	-9.19602
▁produce	-9.20115
▁aren	-9.20373
▁fear	-9.20373
▁haven	-9.20373
▁industry	-9.20373
▁knows	-9.20373
▁patient	-9.20373
▁pictures	-9.20373
▁stand	-9.20373
▁anybody	-9.20631
▁rate	-9.20631
▁experiment	-9.20889
▁please	-9.20889
▁resources	-9.20889
▁network	-9.21149
▁perfect	-9.21149
▁save	-9.21149
▁general	-9.21409
▁major	-9.21409
▁generation	-9.2167
▁tiny	-9.2167
▁bigger	-9.21931
▁office	-9.21931
▁type	-9.21931
▁guess	-9.22193
▁solve	-9.22193
▁becomes	-9.22456
▁blood	-9.22456
▁changing	-9.2272
▁revolution	-9.2272
▁several	-9.23249
▁writing	-9.23249
▁issues	-9.23514
▁putting	-9.23781
▁baby	-9.24048
▁beyond	-9.24048
▁chance	-9.24048
▁chinese	-9.24048
▁effect	-9.24048
▁medical	-9.24048
▁meet	-9.24048
▁modern	-9.24048
▁explain	-9.24315
▁impact	-9.24315
▁indeed	-9.24315
▁box	-9.24584
▁groups	-9.24853
▁reasons	-9.24853
▁rules	-9.24853
▁truth	-9.24853
▁web	-9.25123
▁drive	-9.25393
▁evidence	-9.25393
▁message	-9.25393
▁teach	-9.25393
▁dead	-9.25665
▁risk	-9.25937
▁certainly	-9.2621
▁evolution	-9.2621
▁involved	-9.2621
▁robot	-9.2621
▁color	-9.26483
▁choice	-9.26758
▁sounds	-9.26758
▁software	-9.27033
▁died	-9.27309
▁suddenly	-9.27309
▁digital	-9.27585
▁girls	-9.27585
▁notice	-9.27585
▁towards	-9.27585
▁similar	-9.27863
▁games	-9.28141
▁device	-9.287
▁special	-9.287
▁action	-9.2898
▁lived	-9.2898
▁security	-9.2898
▁solar	-9.2898
▁compassion	-9.29261
▁particularly	-9.29543
▁present	-9.29543
▁hundred	-9.29826
▁likely	-9.29826
▁international	-9.30395
▁schools	-9.30395
▁teachers	-9.30966
▁scientific	-9.31253
▁basic	-9.31541
▁moved	-9.31541
▁worth	-9.31541
▁approach	-9.31829
▁google	-9.31829
▁materials	-9.31829
▁12	-9.32119
▁totally	-9.32119
▁walking	-9.32119
▁jobs	-9.32409
▁sit	-9.32409
▁led	-9.327
▁east	-9.33285
▁nine	-9.33285
▁among	-9.33579
▁anyway	-9.33579
▁everywhere	-9.33579
▁boy	-9.33873
▁potential	-9.33873
▁carbon	-9.34465
▁object	-9.34465
▁quality	-9.34762
▁west	-9.34762
▁further	-9.3506
▁onto	-9.3506
▁showing	-9.3506
▁stay	-9.3506
▁wants	-9.3506
▁examples	-9.35359
▁eye	-9.35359
▁starts	-9.35359
▁listen	-9.35659
▁period	-9.35659
▁projects	-9.35659
▁mass	-9.3596
▁reach	-9.3596
▁send	-9.3596
▁biggest	-9.36261
▁eventually	-9.36261
▁break	-9.36564
▁trees	-9.36564
▁village	-9.36564
▁hit	-9.36867
▁student	-9.36867
▁success	-9.36867
▁month	-9.37172
▁violence	-9.37477
▁develop	-9.37783
▁memory	-9.37783
▁vision	-9.37783
▁follow	-9.38399
▁meaning	-9.38399
▁measure	-9.38399
▁strong	-9.38399
▁add	-9.38708
▁extremely	-9.38708
▁largest	-9.38708
▁camera	-9.39329
▁plants	-9.39329
▁cause	-9.39641
▁creative	-9.39641
▁exciting	-9.39641
▁activity	-9.39954
▁leaders	-9.39954
▁low	-9.39954
▁journey	-9.40268
▁pick	-9.40268
▁nuclear	-9.40583
▁25	-9.40899
▁essentially	-9.40899
▁favorite	-9.40899
▁results	-9.40899
▁finding	-9.41216
▁models	-9.41216
▁crazy	-9.41853
▁democracy	-9.41853
▁fall	-9.41853
▁hospital	-9.41853
▁somewhere	-9.41853
▁class	-9.42173
▁pattern	-9.42173
▁teacher	-9.42173
▁lead	-9.42494
▁ready	-9.42494
▁road	-9.42494
▁table	-9.42494
▁happiness	-9.42816
▁son	-9.42816
▁impossible	-9.43139
▁individuals	-9.43139
▁grew	-9.43463
▁hour	-9.43463
▁positive	-9.43463
▁skin	-9.43463
▁wish	-9.43463
▁smart	-9.43788
▁speed	-9.43788
▁watching	-9.43788
▁expect	-9.44115
▁medicine	-9.44115
▁movie	-9.44115
▁organization	-9.44115
▁named	-9.44442
▁buildings	-9.4477
▁college	-9.4477
▁continue	-9.4477
▁plan	-9.4477
▁wait	-9.4477
▁brains	-9.451
▁safe	-9.451
▁usually	-9.451
▁wind	-9.451
▁connected	-9.45762
▁response	-9.45762
▁faster	-9.46095
▁thousand	-9.46429
▁worse	-9.46429
▁drugs	-9.46764
▁higher	-9.46764
▁lose	-9.46764
▁poverty	-9.46764
▁allowed	-9.471
▁doctor	-9.471
▁sorts	-9.471
▁square	-9.471
▁trust	-9.471
▁sex	-9.47437
▁mine	-9.47776
▁traditional	-9.47776
▁larger	-9.48115
▁role	-9.48115
▁drug	-9.48456
▁ended	-9.48456
▁minute	-9.48456
▁objects	-9.48456
▁supposed	-9.48456
▁wife	-9.48456
▁door	-9.48798
▁electricity	-9.48798
▁forms	-9.48798
▁gas	-9.48798
▁products	-9.48798
▁chris	-9.49141
▁communities	-9.49141
▁context	-9.49141
▁meant	-9.49141
▁source	-9.49141
▁taught	-9.49141
▁visual	-9.49141
▁main	-9.49485
▁peace	-9.49485
▁rich	-9.49485
▁screen	-9.49485
▁series	-9.49485
▁shown	-9.49485
▁spread	-9.49485
▁tells	-9.49485
▁hiv	-9.49831
▁cases	-9.50177
▁choose	-9.50177
▁goal	-9.50177
▁60	-9.50525
▁architecture	-9.50525
▁tree	-9.50525
▁bacteria	-9.50874
▁extraordinary	-9.50874
▁killed	-9.50874
▁moral	-9.50874
▁points	-9.50874
▁rights	-9.50874
▁sent	-9.50874
▁except	-9.51224
▁families	-9.51224
▁protect	-9.51224
▁somehow	-9.51224
▁thanks	-9.51224
▁bunch	-9.51576
▁clearly	-9.51576
▁conditions	-9.51576
▁crisis	-9.51576
▁fire	-9.51576
▁late	-9.51576
▁site	-9.51576
▁dream	-9.51929
▁interest	-9.51929
▁reading	-9.51929
▁studies	-9.51929
▁allows	-9.52283
▁complicated	-9.52283
▁however	-9.52283
▁successful	-9.52638
▁upon	-9.52638
▁above	-9.52994
▁fantastic	-9.52994
▁mom	-9.52994
▁neurons	-9.52994
▁perspective	-9.52994
▁pieces	-9.52994
▁serious	-9.52994
▁training	-9.52994
▁11	-9.53352
▁kept	-9.53352
▁kill	-9.53352
▁list	-9.53352
▁therefore	-9.53352
▁although	-9.53711
▁treatment	-9.53711
▁page	-9.54071
▁african	-9.54433
▁increase	-9.54433
▁smaller	-9.54433
▁tool	-9.54433
▁version	-9.54433
▁central	-9.54796
▁throughout	-9.54796
▁military	-9.5516
▁older	-9.5516
▁excited	-9.55526
▁physics	-9.55526
▁alive	-9.55893
▁content	-9.55893
▁fight	-9.55893
▁fundamental	-9.55893
▁provide	-9.55893
▁slow	-9.55893
▁truly	-9.55893
▁critical	-9.56261
▁greater	-9.56261
▁machines	-9.56261
▁region	-9.56261
▁seconds	-9.56261
▁200	-9.56631
▁code	-9.56631
▁fine	-9.56631
▁himself	-9.56631
▁including	-9.56631
▁patterns	-9.56631
▁standing	-9.56631
▁stars	-9.56631
▁beings	-9.57002
▁service	-9.57002
▁actual	-9.57374
▁consider	-9.57374
▁lines	-9.57374
▁position	-9.57374
▁waste	-9.57374
▁police	-9.57748
▁robots	-9.57748
▁written	-9.57748
▁biology	-9.58124
▁conversation	-9.58124
▁record	-9.58124
▁anymore	-9.585
▁plant	-9.58878
▁americans	-9.59258
▁cold	-9.59258
▁unfortunately	-9.59258
▁beauty	-9.59639
▁earlier	-9.59639
▁expensive	-9.59639
▁anywhere	-9.60021
▁concept	-9.60021
▁skills	-9.60021
▁freedom	-9.60405
▁decisions	-9.6079
▁forest	-9.6079
▁hey	-9.6079
▁hot	-9.6079
▁production	-9.6079
▁legs	-9.61177
▁recognize	-9.61177
▁tend	-9.61177
▁touch	-9.61177
▁price	-9.61566
▁doctors	-9.61955
▁exist	-9.61955
▁intelligence	-9.61955
▁80	-9.62347
▁current	-9.62347
▁famous	-9.62347
▁listening	-9.62347
▁loved	-9.62347
▁none	-9.62347
▁president	-9.62347
▁tv	-9.62347
▁costs	-9.6274
▁practice	-9.6274
▁solutions	-9.6274
▁wonder	-9.6274
▁becoming	-9.63134
▁strange	-9.63134
▁waiting	-9.63134
▁babies	-9.6353
▁town	-9.6353
▁dangerous	-9.63928
▁governments	-9.63928
▁lower	-9.63928
▁rise	-9.63928
▁weren	-9.63928
▁western	-9.63928
▁arm	-9.64327
▁genes	-9.64327
▁driving	-9.64728
▁greatest	-9.64728
▁policy	-9.64728
▁services	-9.64728
▁teaching	-9.64728
▁travel	-9.64728
▁healthy	-9.6513
▁search	-9.65534
▁walked	-9.65534
▁bank	-9.6594
▁invented	-9.6594
▁performance	-9.6594
▁sell	-9.6594
▁humanity	-9.66347
▁pain	-9.66347
▁private	-9.66347
▁song	-9.66347
▁bodies	-9.66756
▁connect	-9.66756
▁institutions	-9.66756
▁park	-9.66756
▁range	-9.66756
▁train	-9.66756
▁18	-9.67167
▁draw	-9.67167
▁immediately	-9.67167
▁museum	-9.67167
▁pull	-9.67167
▁raise	-9.67167
▁income	-9.67579
▁store	-9.67579
▁website	-9.67579
▁zero	-9.67579
▁effective	-9.67994
▁magic	-9.67994
▁subject	-9.67994
▁direction	-9.68409
▁environmental	-9.68409
▁massive	-9.68409
▁treat	-9.68409
▁various	-9.68409
▁floor	-9.68827
▁progress	-9.68827
▁specific	-9.68827
▁flying	-9.69246
▁forth	-9.69246
▁instance	-9.69246
▁meeting	-9.69246
▁sorry	-9.69246
▁uses	-9.69246
▁board	-9.69667
▁familiar	-9.69667
▁following	-9.69667
▁levels	-9.7009
▁math	-9.7009
▁path	-9.7009
▁shot	-9.7009
▁cultural	-9.70515
▁final	-9.70515
▁financial	-9.70515
▁flow	-9.70515
▁remarkable	-9.70515
▁decide	-9.70941
▁obvious	-9.70941
▁types	-9.70941
▁values	-9.70941
▁mostly	-9.71369
▁weight	-9.71369
▁ahead	-9.71799
▁decision	-9.71799
▁forget	-9.71799
▁near	-9.71799
▁plastic	-9.71799
▁sky	-9.71799
▁career	-9.72231
▁dad	-9.72231
▁mental	-9.72231
▁minds	-9.72231
▁useful	-9.72231
▁decade	-9.73101
▁function	-9.73101
▁rule	-9.73539
▁engineering	-9.73978
▁mountain	-9.73978
▁politics	-9.73978
▁aware	-9.7442
▁dog	-9.7442
▁event	-9.7442
▁london	-9.7442
▁possibly	-9.7442
▁sat	-9.7442
▁slide	-9.7442
▁urban	-9.7442
▁virus	-9.7442
▁connection	-9.74863
▁speaking	-9.74863
▁television	-9.74863
▁creativity	-9.75309
▁press	-9.75309
▁slightly	-9.75309
▁forces	-9.75756
▁feed	-9.76205
▁genetic	-9.76205
▁self	-9.76205
▁surgery	-9.76205
▁decades	-9.76657
▁directly	-9.76657
▁survive	-9.76657
▁aid	-9.7711
▁t	-9.7711
▁terrible	-9.7711
▁understood	-9.7711
▁capacity	-9.77566
▁complete	-9.77566
▁diseases	-9.77566
▁foot	-9.77566
▁supply	-9.77566
▁temperature	-9.77566
▁bed	-9.78024
▁enormous	-9.78024
▁hole	-9.78483
▁paid	-9.78483
▁societies	-9.78483
▁summer	-9.78483
▁conference	-9.78945
▁conflict	-9.78945
▁glass	-9.78945
▁popular	-9.78945
▁artist	-9.79409
▁boys	-9.79409
▁challenges	-9.79409
▁clean	-9.79409
▁colleagues	-9.79409
▁helped	-9.79409
▁infrastructure	-9.79409
▁mars	-9.79409
▁networks	-9.79409
▁whose	-9.79409
▁below	-9.79876
▁effects	-9.79876
▁shared	-9.79876
▁birds	-9.80344
▁dr.	-9.80344
▁laws	-9.80344
▁quick	-9.80344
▁twice	-9.80344
▁worst	-9.80344
▁active	-9.80815
▁mobile	-9.80815
▁organizations	-9.80815
▁unique	-9.80815
▁carry	-9.81287
▁citizens	-9.81287
▁closer	-9.81287
▁noticed	-9.81287
▁programs	-9.81287
▁published	-9.81287
▁trade	-9.81287
▁90	-9.81763
▁character	-9.81763
▁explore	-9.81763
▁industrial	-9.81763
▁push	-9.81763
▁workers	-9.81763
▁bill	-9.8224
▁california	-9.8224
▁dance	-9.8224
▁markets	-9.8224
▁produced	-9.8224
▁river	-9.8224
▁willing	-9.8224
▁apart	-9.82719
▁capital	-9.82719
▁causes	-9.82719
▁genome	-9.82719
▁island	-9.82719
▁john	-9.82719
▁photograph	-9.82719
▁played	-9.82719
▁radio	-9.82719
▁atmosphere	-9.83201
▁experiments	-9.83201
▁highly	-9.83201
▁term	-9.83201
▁communication	-9.83686
▁eating	-9.83686
▁funny	-9.83686
▁recent	-9.83686
▁relationships	-9.83686
▁sign	-9.83686
▁straight	-9.83686
▁afraid	-9.84172
▁bees	-9.84172
▁bought	-9.84172
▁degrees	-9.84172
▁evolved	-9.84172
▁fuel	-9.84172
▁heat	-9.84172
▁oxygen	-9.84172
▁pressure	-9.84172
▁answers	-9.84661
▁consciousness	-9.84661
▁david	-9.84661
▁fit	-9.84661
▁original	-9.84661
▁standard	-9.84661
▁task	-9.84661
▁chemical	-9.85153
▁complexity	-9.85153
▁differences	-9.85153
▁dying	-9.85153
▁purpose	-9.85153
▁sleep	-9.85153
▁total	-9.85153
▁choices	-9.85646
▁communicate	-9.85646
▁differently	-9.85646
▁lights	-9.85646
▁secret	-9.85646
▁speech	-9.85646
▁star	-9.85646
▁studying	-9.85646
▁text	-9.85646
▁win	-9.85646
▁500	-9.86143
▁afghanistan	-9.86143
▁drop	-9.86143
▁molecules	-9.86143
▁reduce	-9.86143
▁trouble	-9.86143
▁blind	-9.86642
▁devices	-9.86642
▁gene	-9.86642
▁landscape	-9.86642
▁stick	-9.86642
▁sustainable	-9.86642
▁achieve	-9.87143
▁emotional	-9.87143
▁etc	-9.87143
▁indian	-9.87143
▁king	-9.87143
▁legal	-9.87143
▁nations	-9.87143
▁address	-9.87646
▁ancient	-9.87646
▁creates	-9.87646
▁designers	-9.87646
▁discover	-9.87646
▁diversity	-9.87646
▁experiences	-9.87646
▁improve	-9.87646
▁scientist	-9.87646
▁stopped	-9.87646
▁track	-9.87646
▁bringing	-9.88153
▁despite	-9.88153
▁easily	-9.88153
▁foundation	-9.88153
▁knowing	-9.88153
▁ran	-9.88153
▁artists	-9.88662
▁biological	-9.88662
▁cover	-9.88662
▁extra	-9.88662
▁seemed	-9.88662
▁streets	-9.88662
▁broken	-9.89173
▁corner	-9.89173
▁female	-9.89173
▁missing	-9.89173
▁prison	-9.89173
▁race	-9.89173
▁significant	-9.89687
▁passion	-9.90204
▁10,000	-9.90724
▁attack	-9.90724
▁daughter	-9.90724
▁hearing	-9.90724
▁opportunities	-9.90724
▁pass	-9.90724
▁rock	-9.90724
▁spending	-9.90724
▁basis	-9.91246
▁farmers	-9.91246
▁male	-9.91246
▁nation	-9.91246
▁party	-9.91246
▁passed	-9.91246
▁tremendous	-9.91246
▁yellow	-9.91246
▁16	-9.91771
▁gotten	-9.91771
▁helping	-9.91771
▁trial	-9.91771
▁aids	-9.92299
▁worry	-9.92299
▁engage	-9.92829
▁identity	-9.92829
▁responsibility	-9.92829
▁window	-9.92829
▁civil	-9.93362
▁focused	-9.93362
▁professor	-9.93362
▁birth	-9.93899
▁bridge	-9.93899
▁religion	-9.93899
▁1,000	-9.94438
▁imagination	-9.94438
▁leadership	-9.94438
▁nearly	-9.94438
▁painting	-9.94438
▁hair	-9.9498
▁mission	-9.9498
▁moments	-9.9498
▁shift	-9.9498
▁agree	-9.95525
▁coffee	-9.95525
▁fairly	-9.95525
▁feels	-9.95525
▁fully	-9.95525
▁inspired	-9.95525
▁moon	-9.95525
▁300	-9.96073
▁apply	-9.96073
▁failure	-9.96073
▁join	-9.96073
▁lucky	-9.96073
▁opposite	-9.96073
▁particles	-9.96073
▁ultimately	-9.96073
▁virtual	-9.96073
▁competition	-9.96624
▁condition	-9.96624
▁fix	-9.96624
▁members	-9.97178
▁phenomenon	-9.97178
▁sharing	-9.97178
▁14	-9.97735
▁afford	-9.97735
▁check	-9.97735
▁creatures	-9.97735
▁facebook	-9.97735
▁forever	-9.97735
▁leads	-9.97735
▁possibility	-9.97735
▁sold	-9.97735
▁core	-9.98295
▁describe	-9.98295
▁engine	-9.98295
▁interact	-9.98295
▁notion	-9.98295
▁argument	-9.98858
▁asia	-9.98858
▁depression	-9.98858
▁discovery	-9.98858
▁iraq	-9.98858
▁noise	-9.98858
▁otherwise	-9.98858
▁giant	-9.99425
▁planets	-9.99425
▁ball	-9.99995
▁charge	-9.99995
▁effort	-9.99995
▁elements	-9.99995
▁mr.	-9.99995
▁turning	-9.99995
▁calls	-10.0057
▁return	-10.0057
▁balance	-10.0114
▁events	-10.0114
▁flight	-10.0114
▁meters	-10.0114
▁negative	-10.0114
▁religious	-10.0114
▁respect	-10.0114
▁typical	-10.0114
▁benefits	-10.0172
▁brilliant	-10.0172
▁dollar	-10.0172
▁importantly	-10.0172
▁necessarily	-10.0172
▁report	-10.0172
▁san	-10.0172
▁sand	-10.0172
▁stem	-10.0172
▁billions	-10.0231
▁campaign	-10.0231
▁distance	-10.0231
▁foreign	-10.0231
▁japan	-10.0231
▁photo	-10.0231
▁suffering	-10.0231
▁tissue	-10.0231
▁background	-10.0289
▁easier	-10.0289
▁enjoy	-10.0289
▁entirely	-10.0289
▁french	-10.0289
▁husband	-10.0289
▁insects	-10.0289
▁mouse	-10.0289
▁related	-10.0289
▁throw	-10.0289
▁wealth	-10.0289
▁brother	-10.0348
▁email	-10.0348
▁european	-10.0348
▁shouldn	-10.0348
▁sick	-10.0348
▁ants	-10.0408
▁helps	-10.0408
▁mathematics	-10.0408
▁opened	-10.0408
▁responsible	-10.0408
▁sequence	-10.0408
▁structures	-10.0408
▁sudden	-10.0408
▁edge	-10.0467
▁figured	-10.0467
▁held	-10.0467
▁hopefully	-10.0467
▁sector	-10.0467
▁stress	-10.0467
▁stuck	-10.0467
▁catch	-10.0527
▁leading	-10.0527
▁leaving	-10.0527
▁raised	-10.0527
▁talks	-10.0527
▁according	-10.0588
▁breast	-10.0588
▁dreams	-10.0588
▁efficient	-10.0588
▁holding	-10.0588
▁labor	-10.0588
▁lack	-10.0588
▁necessary	-10.0588
▁operating	-10.0588
▁spaces	-10.0588
▁24	-10.0649
▁base	-10.0649
▁brings	-10.0649
▁loss	-10.0649
▁quote	-10.0649
▁trained	-10.0649
▁electric	-10.071
▁influence	-10.071
▁justice	-10.071
▁matters	-10.071
▁oceans	-10.071
▁organisms	-10.071
▁predict	-10.071
▁prize	-10.071
▁definition	-10.0771
▁engineers	-10.0771
▁galaxies	-10.0771
▁investment	-10.0771
▁invisible	-10.0771
▁slowly	-10.0771
▁strategy	-10.0771
▁studied	-10.0771
▁weapons	-10.0771
▁weird	-10.0771
▁believed	-10.0833
▁boat	-10.0833
▁british	-10.0833
▁degree	-10.0833
▁lesson	-10.0833
▁magazine	-10.0833
▁normally	-10.0833
▁surprise	-10.0833
▁circle	-10.0896
▁compared	-10.0896
▁failed	-10.0896
▁fighting	-10.0896
▁hell	-10.0896
▁pounds	-10.0896
▁random	-10.0896
▁seriously	-10.0896
▁traffic	-10.0896
▁unless	-10.0896
▁visit	-10.0896
▁walls	-10.0896
▁adults	-10.0958
▁caught	-10.0958
▁childhood	-10.0958
▁coast	-10.0958
▁constantly	-10.0958
▁deliver	-10.0958
▁factory	-10.0958
▁invest	-10.0958
▁moves	-10.0958
▁names	-10.0958
▁respond	-10.0958
▁bird	-10.1021
▁brand	-10.1021
▁collective	-10.1021
▁finished	-10.1021
▁galaxy	-10.1021
▁offer	-10.1021
▁signal	-10.1021
▁colors	-10.1085
▁coral	-10.1085
▁deeply	-10.1085
▁desert	-10.1085
▁fascinating	-10.1085
▁leader	-10.1085
▁vast	-10.1085
▁wow	-10.1085
▁argue	-10.1149
▁graph	-10.1149
▁soil	-10.1149
▁transform	-10.1149
▁whenever	-10.1149
▁wild	-10.1149
▁begins	-10.1213
▁compare	-10.1213
▁concerned	-10.1213
▁fashion	-10.1213
▁fields	-10.1213
▁gold	-10.1213
▁invited	-10.1213
▁managed	-10.1213
▁mothers	-10.1213
▁phones	-10.1213
▁benefit	-10.1278
▁bone	-10.1278
▁capable	-10.1278
▁cheap	-10.1278
▁count	-10.1278
▁extreme	-10.1278
▁languages	-10.1278
▁lunch	-10.1278
▁sexual	-10.1278
▁vehicle	-10.1278
▁block	-10.1343
▁businesses	-10.1343
▁commercial	-10.1343
▁consumption	-10.1343
▁equivalent	-10.1343
▁followed	-10.1343
▁increasingly	-10.1343
▁interaction	-10.1343
▁paying	-10.1343
▁perfectly	-10.1343
▁represent	-10.1343
▁ship	-10.1343
▁sister	-10.1343
▁surprised	-10.1343
▁whom	-10.1343
▁apple	-10.1409
▁bread	-10.1409
▁due	-10.1409
▁emotions	-10.1409
▁era	-10.1409
▁fair	-10.1409
▁majority	-10.1409
▁meat	-10.1409
▁neighborhood	-10.1409
▁protein	-10.1409
▁washington	-10.1409
▁card	-10.1475
▁civilization	-10.1475
▁described	-10.1475
▁economics	-10.1475
▁flu	-10.1475
▁wisdom	-10.1475
▁yesterday	-10.1475
▁advantage	-10.1541
▁closed	-10.1541
▁designer	-10.1541
▁everyday	-10.1541
▁fourth	-10.1541
▁launched	-10.1541
▁mexico	-10.1541
▁molecule	-10.1541
▁principles	-10.1541
▁profound	-10.1541
▁station	-10.1541
▁valley	-10.1541
▁affect	-10.1608
▁exists	-10.1608
▁honest	-10.1608
▁married	-10.1608
▁note	-10.1608
▁richard	-10.1608
▁saving	-10.1608
▁tomorrow	-10.1608
▁13	-10.1675
▁b	-10.1675
▁faces	-10.1675
▁hasn	-10.1675
▁hate	-10.1675
▁institute	-10.1675
▁jump	-10.1675
▁lady	-10.1675
▁mentioned	-10.1675
▁paint	-10.1675
▁planning	-10.1675
▁proud	-10.1675
▁rural	-10.1675
▁versus	-10.1675
▁wearing	-10.1675
▁church	-10.1743
▁collect	-10.1743
▁currently	-10.1743
▁d	-10.1743
▁department	-10.1743
▁drawing	-10.1743
▁photos	-10.1743
▁prevent	-10.1743
▁shapes	-10.1743
▁survival	-10.1743
▁airplane	-10.1811
▁classroom	-10.1811
▁cycle	-10.1811
▁detail	-10.1811
▁england	-10.1811
▁metaphor	-10.1811
▁organic	-10.1811
▁principle	-10.1811
▁statistics	-10.1811
▁tough	-10.1811
▁universal	-10.1811
▁wave	-10.1811
▁agriculture	-10.188
▁article	-10.188
▁chair	-10.188
▁cognitive	-10.188
▁distribution	-10.188
▁equipment	-10.188
▁letter	-10.188
▁limited	-10.188
▁ordinary	-10.188
▁professional	-10.188
▁received	-10.188
▁steps	-10.188
▁brazil	-10.1949
▁debate	-10.1949
▁leaves	-10.1949
▁letters	-10.1949
▁pages	-10.1949
▁researchers	-10.1949
▁sentence	-10.1949
▁soldiers	-10.1949
▁tens	-10.1949
▁theater	-10.1949
▁threat	-10.1949
▁treated	-10.1949
▁voices	-10.1949
▁account	-10.2019
▁daily	-10.2019
▁dinner	-10.2019
▁property	-10.2019
▁rain	-10.2019
▁separate	-10.2019
▁spirit	-10.2019
▁target	-10.2019
▁technical	-10.2019
▁twitter	-10.2019
▁warming	-10.2019
▁400	-10.2089
▁avoid	-10.2089
▁creation	-10.2089
▁demand	-10.2089
▁finger	-10.2089
▁generations	-10.2089
▁germany	-10.2089
▁independent	-10.2089
▁nervous	-10.2089
▁net	-10.2089
▁weather	-10.2089
▁2	-10.216
▁contact	-10.216
▁continent	-10.216
▁damage	-10.216
▁grand	-10.216
▁harder	-10.216
▁hidden	-10.216
▁intelligent	-10.216
▁kenya	-10.216
▁management	-10.216
▁plane	-10.216
▁re	-10.216
▁spot	-10.216
▁thinks	-10.216
▁toward	-10.216
▁arms	-10.2231
▁awful	-10.2231
▁belief	-10.2231
▁chain	-10.2231
▁co2	-10.2231
▁dimensions	-10.2231
▁electrical	-10.2231
▁grade	-10.2231
▁heads	-10.2231
▁multiple	-10.2231
▁smell	-10.2231
▁users	-10.2231
▁2,000	-10.2303
▁bear	-10.2303
▁beat	-10.2303
▁covered	-10.2303
▁crime	-10.2303
▁killing	-10.2303
▁remote	-10.2303
▁rid	-10.2303
▁seat	-10.2303
▁shoes	-10.2303
▁surprising	-10.2303
▁accident	-10.2375
▁associated	-10.2375
▁caused	-10.2375
▁einstein	-10.2375
▁equal	-10.2375
▁experienced	-10.2375
▁fell	-10.2375
▁folks	-10.2375
▁grandmother	-10.2375
▁interface	-10.2375
▁iran	-10.2375
▁leg	-10.2375
▁link	-10.2375
▁losing	-10.2375
▁signals	-10.2375
▁specifically	-10.2375
▁adult	-10.2448
▁artificial	-10.2448
▁maps	-10.2448
▁mouth	-10.2448
▁players	-10.2448
▁testing	-10.2448
▁20th	-10.2521
▁al	-10.2521
▁consequences	-10.2521
▁faith	-10.2521
▁highest	-10.2521
▁homes	-10.2521
▁joy	-10.2521
▁liked	-10.2521
▁mit	-10.2521
▁motion	-10.2521
▁player	-10.2521
▁suppose	-10.2521
▁switch	-10.2521
▁tumor	-10.2521
▁whereas	-10.2521
▁arrived	-10.2595
▁camp	-10.2595
▁empty	-10.2595
▁engineer	-10.2595
▁filled	-10.2595
▁keeping	-10.2595
▁layer	-10.2595
▁method	-10.2595
▁sharks	-10.2595
▁spoke	-10.2595
▁vote	-10.2595
▁watched	-10.2595
▁australia	-10.2669
▁bits	-10.2669
▁date	-10.2669
▁designing	-10.2669
▁driver	-10.2669
▁holes	-10.2669
▁kilometers	-10.2669
▁movies	-10.2669
▁poetry	-10.2669
▁scene	-10.2669
▁stood	-10.2669
▁appear	-10.2744
▁cloud	-10.2744
▁curious	-10.2744
▁deeper	-10.2744
▁evil	-10.2744
▁feedback	-10.2744
▁member	-10.2744
▁mountains	-10.2744
▁picked	-10.2744
▁puts	-10.2744
▁safety	-10.2744
▁signs	-10.2744
▁suggest	-10.2744
▁ten	-10.2744
▁wide	-10.2744
▁advanced	-10.2819
▁arts	-10.2819
▁britain	-10.2819
▁comfortable	-10.2819
▁convinced	-10.2819
▁dealing	-10.2819
▁direct	-10.2819
▁experts	-10.2819
▁facts	-10.2819
▁farm	-10.2819
▁gap	-10.2819
▁identify	-10.2819
▁importance	-10.2819
▁japanese	-10.2819
▁minister	-10.2819
▁processes	-10.2819
▁satellite	-10.2819
▁videos	-10.2819
▁wear	-10.2819
▁100,000	-10.2895
▁considered	-10.2895
▁dots	-10.2895
▁emotion	-10.2895
▁malaria	-10.2895
▁muscle	-10.2895
▁teeth	-10.2895
▁alternative	-10.2972
▁army	-10.2972
▁connections	-10.2972
▁cultures	-10.2972
▁drink	-10.2972
▁dry	-10.2972
▁fill	-10.2972
▁manage	-10.2972
▁opening	-10.2972
▁roughly	-10.2972
▁sites	-10.2972
▁sources	-10.2972
▁struggle	-10.2972
▁wondering	-10.2972
▁worried	-10.2972
▁battery	-10.3049
▁essential	-10.3049
▁feelings	-10.3049
▁hadn	-10.3049
▁israel	-10.3049
▁long-term	-10.3049
▁marriage	-10.3049
▁northern	-10.3049
▁sad	-10.3049
▁trials	-10.3049
▁trip	-10.3049
▁wars	-10.3049
▁absolute	-10.3127
▁accept	-10.3127
▁calling	-10.3127
▁copy	-10.3127
▁double	-10.3127
▁ends	-10.3127
▁exchange	-10.3127
▁flies	-10.3127
▁gift	-10.3127
▁lie	-10.3127
▁organized	-10.3127
▁platform	-10.3127
▁saved	-10.3127
▁typically	-10.3127
▁underneath	-10.3127
▁variety	-10.3127
▁viruses	-10.3127
▁construction	-10.3205
▁corruption	-10.3205
▁define	-10.3205
▁definitely	-10.3205
▁dynamic	-10.3205
▁exercise	-10.3205
▁expected	-10.3205
▁george	-10.3205
▁graduate	-10.3205
▁grown	-10.3205
▁prime	-10.3205
▁properties	-10.3205
▁requires	-10.3205
▁status	-10.3205
▁transformation	-10.3205
▁valuable	-10.3205
▁waves	-10.3205
▁canada	-10.3285
▁capture	-10.3285
▁carrying	-10.3285
▁collection	-10.3285
▁effectively	-10.3285
▁facing	-10.3285
▁gay	-10.3285
▁heavy	-10.3285
▁increasing	-10.3285
▁intellectual	-10.3285
▁match	-10.3285
▁mortality	-10.3285
▁prove	-10.3285
▁row	-10.3285
▁strength	-10.3285
▁addition	-10.3364
▁breath	-10.3364
▁broke	-10.3364
▁budget	-10.3364
▁bus	-10.3364
▁cross	-10.3364
▁fewer	-10.3364
▁gain	-10.3364
▁nigeria	-10.3364
▁possibilities	-10.3364
▁spring	-10.3364
▁studio	-10.3364
▁vulnerable	-10.3364
▁amp	-10.3444
▁beach	-10.3444
▁cards	-10.3444
▁chemicals	-10.3444
▁convince	-10.3444
▁democratic	-10.3444
▁enter	-10.3444
▁existence	-10.3444
▁forced	-10.3444
▁houses	-10.3444
▁mathematical	-10.3444
▁producing	-10.3444
▁reaction	-10.3444
▁roof	-10.3444
▁analysis	-10.3525
▁behaviors	-10.3525
▁characters	-10.3525
▁chemistry	-10.3525
▁diet	-10.3525
▁ecosystem	-10.3525
▁emerging	-10.3525
▁finish	-10.3525
▁generally	-10.3525
▁mark	-10.3525
▁politicians	-10.3525
▁protection	-10.3525
▁rare	-10.3525
▁represents	-10.3525
▁shark	-10.3525
▁situations	-10.3525
▁stupid	-10.3525
▁sugar	-10.3525
▁35	-10.3607
▁aging	-10.3607
▁ah	-10.3607
▁bubble	-10.3607
▁chicken	-10.3607
▁exact	-10.3607
▁express	-10.3607
▁expression	-10.3607
▁fail	-10.3607
▁fund	-10.3607
▁garden	-10.3607
▁relatively	-10.3607
▁resource	-10.3607
▁roll	-10.3607
▁tons	-10.3607
▁worldwide	-10.3607
▁bright	-10.3689
▁cameras	-10.3689
▁click	-10.3689
▁dinosaurs	-10.3689
▁employees	-10.3689
▁ladies	-10.3689
▁location	-10.3689
▁psychology	-10.3689
▁round	-10.3689
▁selling	-10.3689
▁sending	-10.3689
▁thoughts	-10.3689
▁carefully	-10.3772
▁flat	-10.3772
▁fresh	-10.3772
▁gender	-10.3772
▁goals	-10.3772
▁gravity	-10.3772
▁healthcare	-10.3772
▁library	-10.3772
▁pleasure	-10.3772
▁rates	-10.3772
▁restaurant	-10.3772
▁trick	-10.3772
▁victims	-10.3772
▁buying	-10.3856
▁credit	-10.3856
▁generate	-10.3856
▁harvard	-10.3856
▁lifetime	-10.3856
▁messages	-10.3856
▁regular	-10.3856
▁ride	-10.3856
▁risks	-10.3856
▁transition	-10.3856
▁clinical	-10.394
▁desire	-10.394
▁epidemic	-10.394
▁fat	-10.394
▁hotel	-10.394
▁inner	-10.394
▁james	-10.394
▁mirror	-10.394
▁movements	-10.394
▁newspaper	-10.394
▁plus	-10.394
▁previous	-10.394
▁promise	-10.394
▁rapidly	-10.394
▁remain	-10.394
▁require	-10.394
▁steel	-10.394
▁unit	-10.394
▁youtube	-10.394
▁anderson	-10.4026
▁bang	-10.4026
▁bar	-10.4026
▁bomb	-10.4026
▁brothers	-10.4026
▁depends	-10.4026
▁hall	-10.4026
▁introduce	-10.4026
▁introduced	-10.4026
▁miss	-10.4026
▁motor	-10.4026
▁partner	-10.4026
▁recorded	-10.4026
▁u.k.	-10.4026
▁union	-10.4026
▁unlike	-10.4026
▁150	-10.4111
▁3d	-10.4111
▁added	-10.4111
▁atoms	-10.4111
▁goods	-10.4111
▁honor	-10.4111
▁hydrogen	-10.4111
▁instrument	-10.4111
▁kitchen	-10.4111
▁laptop	-10.4111
▁lies	-10.4111
▁molecular	-10.4111
▁naturally	-10.4111
▁release	-10.4111
▁replace	-10.4111
▁southern	-10.4111
▁wood	-10.4111
▁2000	-10.4198
▁affected	-10.4198
▁conscious	-10.4198
▁fellow	-10.4198
▁hide	-10.4198
▁hurt	-10.4198
▁lessons	-10.4198
▁personally	-10.4198
▁pole	-10.4198
▁primary	-10.4198
▁runs	-10.4198
▁serve	-10.4198
▁techniques	-10.4198
▁wake	-10.4198
▁winter	-10.4198
▁applied	-10.4285
▁arab	-10.4285
▁charles	-10.4285
▁crash	-10.4285
▁cure	-10.4285
▁environments	-10.4285
▁evolutionary	-10.4285
▁francisco	-10.4285
▁illegal	-10.4285
▁invention	-10.4285
▁notes	-10.4285
▁organs	-10.4285
▁quantum	-10.4285
▁radiation	-10.4285
▁records	-10.4285
▁reward	-10.4285
▁sides	-10.4285
▁silence	-10.4285
▁trillion	-10.4285
▁vehicles	-10.4285
▁21st	-10.4373
▁algorithms	-10.4373
▁battle	-10.4373
▁bush	-10.4373
▁discussion	-10.4373
▁emissions	-10.4373
▁fossil	-10.4373
▁horse	-10.4373
▁interests	-10.4373
▁marketing	-10.4373
▁metal	-10.4373
▁practical	-10.4373
▁prepared	-10.4373
▁sample	-10.4373
▁spectrum	-10.4373
▁technological	-10.4373
▁terrorism	-10.4373
▁acting	-10.4462
▁combination	-10.4462
▁consumer	-10.4462
▁dogs	-10.4462
▁dropped	-10.4462
▁factor	-10.4462
▁gdp	-10.4462
▁mistake	-10.4462
▁nasa	-10.4462
▁print	-10.4462
▁senses	-10.4462
▁setting	-10.4462
▁sustainability	-10.4462
▁topic	-10.4462
▁tradition	-10.4462
▁worlds	-10.4462
▁bottle	-10.4552
▁collaboration	-10.4552
▁darwin	-10.4552
▁details	-10.4552
▁disaster	-10.4552
▁efficiency	-10.4552
▁hoping	-10.4552
▁include	-10.4552
▁laboratory	-10.4552
▁mention	-10.4552
▁monkey	-10.4552
▁ought	-10.4552
▁perception	-10.4552
▁theme	-10.4552
▁windows	-10.4552
▁2008	-10.4643
▁cooking	-10.4643
▁keeps	-10.4643
▁memories	-10.4643
▁peak	-10.4643
▁reached	-10.4643
▁stone	-10.4643
▁unusual	-10.4643
▁blocks	-10.4734
▁brown	-10.4734
▁burning	-10.4734
▁centers	-10.4734
▁conservation	-10.4734
▁eggs	-10.4734
▁engaged	-10.4734
▁features	-10.4734
▁manufacturing	-10.4734
▁mistakes	-10.4734
▁neighbors	-10.4734
▁occur	-10.4734
▁occurred	-10.4734
▁photographs	-10.4734
▁radical	-10.4734
▁russia	-10.4734
▁tail	-10.4734
▁user	-10.4734
▁whales	-10.4734
▁activities	-10.4826
▁components	-10.4826
▁eastern	-10.4826
▁encourage	-10.4826
▁laugh	-10.4826
▁lay	-10.4826
▁literature	-10.4826
▁opinion	-10.4826
▁pollution	-10.4826
▁pulled	-10.4826
▁shop	-10.4826
▁silk	-10.4826
▁steve	-10.4826
▁survey	-10.4826
▁ultimate	-10.4826
▁warm	-10.4826
▁1	-10.4919
▁driven	-10.4919
▁forests	-10.4919
▁hits	-10.4919
▁interview	-10.4919
▁largely	-10.4919
▁relevant	-10.4919
▁rocket	-10.4919
▁shoot	-10.4919
▁sophisticated	-10.4919
▁traveling	-10.4919
▁9	-10.5013
▁ancestors	-10.5013
▁clip	-10.5013
▁correct	-10.5013
▁cortex	-10.5013
▁destruction	-10.5013
▁element	-10.5013
▁figures	-10.5013
▁grid	-10.5013
▁joke	-10.5013
▁m	-10.5013
▁musical	-10.5013
▁operate	-10.5013
▁paul	-10.5013
▁physically	-10.5013
▁proteins	-10.5013
▁quiet	-10.5013
▁relative	-10.5013
▁shame	-10.5013
▁singing	-10.5013
▁smile	-10.5013
▁taste	-10.5013
▁transportation	-10.5013
▁wine	-10.5013
▁2010	-10.5108
▁3,000	-10.5108
▁actions	-10.5108
▁birthday	-10.5108
▁clouds	-10.5108
▁creature	-10.5108
▁crowd	-10.5108
▁cutting	-10.5108
▁dramatic	-10.5108
▁drives	-10.5108
▁factors	-10.5108
▁false	-10.5108
▁increased	-10.5108
▁iphone	-10.5108
▁los	-10.5108
▁nowhere	-10.5108
▁operation	-10.5108
▁organ	-10.5108
▁partners	-10.5108
▁processing	-10.5108
▁scared	-10.5108
▁sunlight	-10.5108
▁tonight	-10.5108
▁99	-10.5203
▁afternoon	-10.5203
▁ant	-10.5203
▁applications	-10.5203
▁authority	-10.5203
▁chicago	-10.5203
▁congress	-10.5203
▁curve	-10.5203
▁de	-10.5203
▁detect	-10.5203
▁electronic	-10.5203
▁empathy	-10.5203
▁falling	-10.5203
▁films	-10.5203
▁launch	-10.5203
▁liquid	-10.5203
▁meaningful	-10.5203
▁nor	-10.5203
▁participate	-10.5203
▁presentation	-10.5203
▁remind	-10.5203
▁required	-10.5203
▁staff	-10.5203
▁toy	-10.5203
▁visible	-10.5203
▁aspect	-10.53
▁awareness	-10.53
▁collected	-10.53
▁court	-10.53
▁economists	-10.53
▁entrepreneurs	-10.53
▁existing	-10.53
▁falls	-10.53
▁hospitals	-10.53
▁ii	-10.53
▁medium	-10.53
▁milk	-10.53
▁novel	-10.53
▁option	-10.53
▁pacific	-10.53
▁parent	-10.53
▁pop	-10.53
▁psychological	-10.53
▁skill	-10.53
▁solved	-10.53
▁tape	-10.53
▁tests	-10.53
▁45	-10.5398
▁amazon	-10.5398
▁amounts	-10.5398
▁cat	-10.5398
▁concrete	-10.5398
▁display	-10.5398
▁exploration	-10.5398
▁fake	-10.5398
▁fishing	-10.5398
▁formed	-10.5398
▁former	-10.5398
▁fundamentally	-10.5398
▁infected	-10.5398
▁lying	-10.5398
▁marine	-10.5398
▁mechanism	-10.5398
▁outcome	-10.5398
▁percentage	-10.5398
▁pollen	-10.5398
▁potentially	-10.5398
▁protected	-10.5398
▁released	-10.5398
▁roads	-10.5398
▁shall	-10.5398
▁sing	-10.5398
▁stream	-10.5398
▁therapy	-10.5398
▁tracking	-10.5398
▁accurate	-10.5496
▁advice	-10.5496
▁appropriate	-10.5496
▁boston	-10.5496
▁closely	-10.5496
▁coal	-10.5496
▁computing	-10.5496
▁flew	-10.5496
▁horrible	-10.5496
▁institution	-10.5496
▁master	-10.5496
▁narrative	-10.5496
▁perform	-10.5496
▁presence	-10.5496
▁providing	-10.5496
▁sees	-10.5496
▁stayed	-10.5496
▁abstract	-10.5596
▁allowing	-10.5596
▁bike	-10.5596
▁boring	-10.5596
▁c	-10.5596
▁chose	-10.5596
▁combined	-10.5596
▁defined	-10.5596
▁elephant	-10.5596
▁explanation	-10.5596
▁gentlemen	-10.5596
▁gulf	-10.5596
▁humor	-10.5596
▁illness	-10.5596
▁inspiration	-10.5596
▁lake	-10.5596
▁pakistan	-10.5596
▁string	-10.5596
▁three-dimensional	-10.5596
▁u.n.	-10.5596
▁villages	-10.5596
▁cave	-10.5696
▁challenging	-10.5696
▁circumstances	-10.5696
▁clothes	-10.5696
▁decline	-10.5696
▁director	-10.5696
▁expand	-10.5696
▁fingers	-10.5696
▁france	-10.5696
▁functions	-10.5696
▁mechanical	-10.5696
▁michael	-10.5696
▁neither	-10.5696
▁queen	-10.5696
▁solid	-10.5696
▁somewhat	-10.5696
▁surrounded	-10.5696
▁5,000	-10.5798
▁architect	-10.5798
▁bones	-10.5798
▁button	-10.5798
▁constant	-10.5798
▁controlled	-10.5798
▁danger	-10.5798
▁ears	-10.5798
▁error	-10.5798
▁explained	-10.5798
▁frame	-10.5798
▁innovative	-10.5798
▁pair	-10.5798
▁piano	-10.5798
▁productive	-10.5798
▁recording	-10.5798
▁sir	-10.5798
▁songs	-10.5798
▁stronger	-10.5798
▁subjects	-10.5798
▁volume	-10.5798
▁attempt	-10.59
▁christmas	-10.59
▁combine	-10.59
▁conclusion	-10.59
▁defense	-10.59
▁doubt	-10.59
▁election	-10.59
▁evening	-10.59
▁flowers	-10.59
▁infinite	-10.59
▁logic	-10.59
▁penguins	-10.59
▁remove	-10.59
▁score	-10.59
▁sensitive	-10.59
▁swimming	-10.59
▁telephone	-10.59
▁wherever	-10.59
▁admit	-10.6004
▁burn	-10.6004
▁collapse	-10.6004
▁continued	-10.6004
▁framework	-10.6004
▁frankly	-10.6004
▁hero	-10.6004
▁hi	-10.6004
▁higgs	-10.6004
▁length	-10.6004
▁linked	-10.6004
▁mix	-10.6004
▁regions	-10.6004
▁remains	-10.6004
▁sets	-10.6004
▁soul	-10.6004
▁unknown	-10.6004
▁upper	-10.6004
▁vaccine	-10.6004
▁wikipedia	-10.6004
▁zone	-10.6004
▁zoom	-10.6004
▁adam	-10.6109
▁autism	-10.6109
▁careful	-10.6109
▁channel	-10.6109
▁climb	-10.6109
▁consumers	-10.6109
▁contrast	-10.6109
▁deaths	-10.6109
▁e	-10.6109
▁educational	-10.6109
▁enable	-10.6109
▁german	-10.6109
▁gps	-10.6109
▁implications	-10.6109
▁insight	-10.6109
▁instruments	-10.6109
▁islands	-10.6109
▁monkeys	-10.6109
▁robert	-10.6109
▁telescope	-10.6109
▁transformed	-10.6109
▁treating	-10.6109
▁underwater	-10.6109
▁wondered	-10.6109
▁x	-10.6109
▁acts	-10.6214
▁anger	-10.6214
▁bag	-10.6214
▁behavioral	-10.6214
▁boxes	-10.6214
▁chart	-10.6214
▁classes	-10.6214
▁confidence	-10.6214
▁embrace	-10.6214
▁equally	-10.6214
▁gun	-10.6214
▁islam	-10.6214
▁joined	-10.6214
▁judge	-10.6214
▁measured	-10.6214
▁overall	-10.6214
▁reference	-10.6214
▁relate	-10.6214
▁rooms	-10.6214
▁samples	-10.6214
▁technique	-10.6214
▁thin	-10.6214
▁wire	-10.6214
▁bet	-10.6321
▁busy	-10.6321
▁colony	-10.6321
▁conventional	-10.6321
▁corporate	-10.6321
▁drinking	-10.6321
▁grain	-10.6321
▁identical	-10.6321
▁interestingly	-10.6321
▁nose	-10.6321
▁offered	-10.6321
▁post	-10.6321
▁provided	-10.6321
▁reverse	-10.6321
▁september	-10.6321
▁shake	-10.6321
▁split	-10.6321
▁surely	-10.6321
▁transport	-10.6321
▁trend	-10.6321
▁tube	-10.6321
▁welcome	-10.6321
▁appreciate	-10.6429
▁architects	-10.6429
▁automatically	-10.6429
▁borders	-10.6429
▁celebrate	-10.6429
▁comfort	-10.6429
▁cup	-10.6429
▁desk	-10.6429
▁entertainment	-10.6429
▁feeding	-10.6429
▁golden	-10.6429
▁greenhouse	-10.6429
▁heroes	-10.6429
▁internal	-10.6429
▁options	-10.6429
▁organism	-10.6429
▁papers	-10.6429
▁paradigm	-10.6429
▁phase	-10.6429
▁plate	-10.6429
▁robotic	-10.6429
▁snow	-10.6429
▁stands	-10.6429
▁statement	-10.6429
▁style	-10.6429
▁tea	-10.6429
▁unclear	-10.6429
▁angry	-10.6539
▁application	-10.6539
▁arguments	-10.6539
▁attacks	-10.6539
▁awesome	-10.6539
▁blog	-10.6539
▁centuries	-10.6539
▁clock	-10.6539
▁conversations	-10.6539
▁equation	-10.6539
▁feature	-10.6539
▁fold	-10.6539
▁gang	-10.6539
▁grab	-10.6539
▁hello	-10.6539
▁housing	-10.6539
▁ideal	-10.6539
▁laughing	-10.6539
▁microbes	-10.6539
▁mile	-10.6539
▁muslim	-10.6539
▁obama	-10.6539
▁obsessed	-10.6539
▁passionate	-10.6539
▁polio	-10.6539
▁selection	-10.6539
▁sensors	-10.6539
▁sphere	-10.6539
▁spider	-10.6539
▁spreading	-10.6539
▁standards	-10.6539
▁swim	-10.6539
▁tall	-10.6539
▁toilet	-10.6539
▁assume	-10.6649
▁axis	-10.6649
▁band	-10.6649
▁carried	-10.6649
▁cooperation	-10.6649
▁cow	-10.6649
▁funding	-10.6649
▁handle	-10.6649
▁harm	-10.6649
▁paris	-10.6649
▁prices	-10.6649
▁pure	-10.6649
▁puzzle	-10.6649
▁represented	-10.6649
▁symptoms	-10.6649
▁title	-10.6649
▁violent	-10.6649
▁21	-10.6761
▁agreed	-10.6761
▁claim	-10.6761
▁congo	-10.6761
▁determine	-10.6761
▁egypt	-10.6761
▁exploring	-10.6761
▁faced	-10.6761
▁globe	-10.6761
▁interactive	-10.6761
▁korea	-10.6761
▁latest	-10.6761
▁lifestyle	-10.6761
▁mainly	-10.6761
▁march	-10.6761
▁mess	-10.6761
▁orange	-10.6761
▁overcome	-10.6761
▁placed	-10.6761
▁plans	-10.6761
▁raw	-10.6761
▁resistance	-10.6761
▁root	-10.6761
▁shut	-10.6761
▁sight	-10.6761
▁suffer	-10.6761
▁surgeon	-10.6761
▁sweden	-10.6761
▁sweet	-10.6761
▁weak	-10.6761
▁well-being	-10.6761
▁whale	-10.6761
▁19th	-10.6874
▁agency	-10.6874
▁app	-10.6874
▁causing	-10.6874
▁cents	-10.6874
▁controlling	-10.6874
▁curiosity	-10.6874
▁dancing	-10.6874
▁enemy	-10.6874
▁input	-10.6874
▁june	-10.6874
▁o	-10.6874
▁outcomes	-10.6874
▁painful	-10.6874
▁parking	-10.6874
▁poem	-10.6874
▁policies	-10.6874
▁presented	-10.6874
▁privacy	-10.6874
▁profit	-10.6874
▁recognition	-10.6874
▁season	-10.6874
▁struck	-10.6874
▁tasks	-10.6874
▁wireless	-10.6874
▁younger	-10.6874
▁2005	-10.6988
▁2009	-10.6988
▁ages	-10.6988
▁border	-10.6988
▁breathing	-10.6988
▁component	-10.6988
▁depend	-10.6988
▁directions	-10.6988
▁distributed	-10.6988
▁divided	-10.6988
▁dozen	-10.6988
▁dramatically	-10.6988
▁exhibition	-10.6988
▁fiction	-10.6988
▁finance	-10.6988
▁latin	-10.6988
▁license	-10.6988
▁measuring	-10.6988
▁ours	-10.6988
▁philosophy	-10.6988
▁poorest	-10.6988
▁prototype	-10.6988
▁ring	-10.6988
▁scary	-10.6988
▁simplicity	-10.6988
▁suggests	-10.6988
▁till	-10.6988
▁translate	-10.6988
▁worker	-10.6988
▁breaking	-10.7104
▁classic	-10.7104
▁concepts	-10.7104
▁connecting	-10.7104
▁courage	-10.7104
▁depending	-10.7104
▁disappear	-10.7104
▁extinct	-10.7104
▁fixed	-10.7104
▁fortunately	-10.7104
▁hang	-10.7104
▁increases	-10.7104
▁insurance	-10.7104
▁legacy	-10.7104
▁paintings	-10.7104
▁particle	-10.7104
▁precisely	-10.7104
▁pushing	-10.7104
▁scan	-10.7104
▁severe	-10.7104
▁symbol	-10.7104
▁transparency	-10.7104
▁tries	-10.7104
▁unexpected	-10.7104
▁vessels	-10.7104
▁apparently	-10.7221
▁cash	-10.7221
▁clever	-10.7221
▁clinic	-10.7221
▁cook	-10.7221
▁disorders	-10.7221
▁divide	-10.7221
▁dolphins	-10.7221
▁economies	-10.7221
▁expert	-10.7221
▁grows	-10.7221
▁interacting	-10.7221
▁interactions	-10.7221
▁meetings	-10.7221
▁performing	-10.7221
▁quarter	-10.7221
▁rational	-10.7221
▁savings	-10.7221
▁sculpture	-10.7221
▁spoken	-10.7221
▁tested	-10.7221
▁achieved	-10.7339
▁africans	-10.7339
▁angeles	-10.7339
▁breathe	-10.7339
▁cartoon	-10.7339
▁chapter	-10.7339
▁density	-10.7339
▁destroyed	-10.7339
▁existed	-10.7339
▁extent	-10.7339
▁fascinated	-10.7339
▁floating	-10.7339
▁ghana	-10.7339
▁grateful	-10.7339
▁haiti	-10.7339
▁hearts	-10.7339
▁ignore	-10.7339
▁intense	-10.7339
▁invent	-10.7339
▁involves	-10.7339
▁jail	-10.7339
▁lovely	-10.7339
▁maintain	-10.7339
▁nobel	-10.7339
▁parallel	-10.7339
▁phrase	-10.7339
▁practices	-10.7339
▁printing	-10.7339
▁reaching	-10.7339
▁recovery	-10.7339
▁signed	-10.7339
▁succeed	-10.7339
▁thomas	-10.7339
▁wired	-10.7339
▁appeared	-10.7459
▁aside	-10.7459
▁bg	-10.7459
▁chocolate	-10.7459
▁disorder	-10.7459
▁emergency	-10.7459
▁engaging	-10.7459
▁gray	-10.7459
▁habitat	-10.7459
▁illusion	-10.7459
▁immune	-10.7459
▁limits	-10.7459
▁magnetic	-10.7459
▁patent	-10.7459
▁pilot	-10.7459
▁properly	-10.7459
▁super	-10.7459
▁teams	-10.7459
▁tip	-10.7459
▁toxic	-10.7459
▁traveled	-10.7459
▁u.s	-10.7459
▁80s	-10.758
▁agenda	-10.758
▁behave	-10.758
▁dot	-10.758
▁fifth	-10.758
▁furniture	-10.758
▁height	-10.758
▁islamic	-10.758
▁lets	-10.758
▁liver	-10.758
▁lung	-10.758
▁microsoft	-10.758
▁mystery	-10.758
▁obesity	-10.758
▁opposed	-10.758
▁plenty	-10.758
▁populations	-10.758
▁productivity	-10.758
▁romantic	-10.758
▁seed	-10.758
▁soft	-10.758
▁solving	-10.758
▁strategies	-10.758
▁thrown	-10.758
▁walks	-10.758
▁wheel	-10.758
▁60s	-10.7703
▁advertising	-10.7703
▁commitment	-10.7703
▁crying	-10.7703
▁entered	-10.7703
▁flower	-10.7703
▁hardly	-10.7703
▁hunger	-10.7703
▁kingdom	-10.7703
▁likes	-10.7703
▁monitor	-10.7703
▁nest	-10.7703
▁personality	-10.7703
▁pocket	-10.7703
▁receive	-10.7703
▁rising	-10.7703
▁secondly	-10.7703
▁secure	-10.7703
▁shooting	-10.7703
▁smoke	-10.7703
▁sports	-10.7703
▁suit	-10.7703
▁symmetry	-10.7703
▁ugly	-10.7703
▁usual	-10.7703
▁600	-10.7827
▁animation	-10.7827
▁appears	-10.7827
▁attached	-10.7827
▁backwards	-10.7827
▁captured	-10.7827
▁ceiling	-10.7827
▁chimpanzees	-10.7827
▁chosen	-10.7827
▁communications	-10.7827
▁conflicts	-10.7827
▁council	-10.7827
▁cute	-10.7827
▁dense	-10.7827
▁destroy	-10.7827
▁dh	-10.7827
▁dignity	-10.7827
▁dioxide	-10.7827
▁disappeared	-10.7827
▁distant	-10.7827
▁document	-10.7827
▁estimate	-10.7827
▁expectations	-10.7827
▁federal	-10.7827
▁frozen	-10.7827
▁permanent	-10.7827
▁recognized	-10.7827
▁scales	-10.7827
▁script	-10.7827
▁slides	-10.7827
▁stations	-10.7827
▁texas	-10.7827
▁truck	-10.7827
▁wanting	-10.7827
▁writer	-10.7827
▁50,000	-10.7953
▁actor	-10.7953
▁circuit	-10.7953
▁dedicated	-10.7953
▁embedded	-10.7953
▁fortune	-10.7953
▁imagined	-10.7953
▁incentives	-10.7953
▁laughter	-10.7953
▁muscles	-10.7953
▁native	-10.7953
▁organize	-10.7953
▁pack	-10.7953
▁photography	-10.7953
▁prefer	-10.7953
▁seeds	-10.7953
▁silicon	-10.7953
▁suicide	-10.7953
▁talent	-10.7953
▁tower	-10.7953
▁trends	-10.7953
▁uganda	-10.7953
▁units	-10.7953
▁virtually	-10.7953
▁abuse	-10.808
▁afterwards	-10.808
▁amongst	-10.808
▁beer	-10.808
▁charity	-10.808
▁club	-10.808
▁continues	-10.808
▁domestic	-10.808
▁granted	-10.808
▁inequality	-10.808
▁iron	-10.808
▁january	-10.808
▁males	-10.808
▁microscope	-10.808
▁motivation	-10.808
▁narrator	-10.808
▁orbit	-10.808
▁sheep	-10.808
▁spiritual	-10.808
▁academic	-10.8209
▁adapt	-10.8209
▁angle	-10.8209
▁balloon	-10.8209
▁bee	-10.8209
▁bell	-10.8209
▁capitalism	-10.8209
▁colleague	-10.8209
▁collecting	-10.8209
▁committed	-10.8209
▁customers	-10.8209
▁designs	-10.8209
▁dirty	-10.8209
▁dynamics	-10.8209
▁escape	-10.8209
▁facial	-10.8209
▁farmer	-10.8209
▁generated	-10.8209
▁genius	-10.8209
▁governance	-10.8209
▁heaven	-10.8209
▁hire	-10.8209
▁journalist	-10.8209
▁mammals	-10.8209
▁mice	-10.8209
▁muslims	-10.8209
▁neuroscience	-10.8209
▁origin	-10.8209
▁pink	-10.8209
▁pool	-10.8209
▁produces	-10.8209
▁raising	-10.8209
▁roots	-10.8209
▁route	-10.8209
▁searching	-10.8209
▁section	-10.8209
▁so-called	-10.8209
▁tap	-10.8209
▁touched	-10.8209
▁toys	-10.8209
▁underground	-10.8209
▁90s	-10.834
▁adding	-10.834
▁aspects	-10.834
▁ate	-10.834
▁bible	-10.834
▁blow	-10.834
▁boundaries	-10.834
▁dan	-10.834
▁diabetes	-10.834
▁ear	-10.834
▁elsewhere	-10.834
▁filter	-10.834
▁finds	-10.834
▁historical	-10.834
▁innovations	-10.834
▁knee	-10.834
▁lighting	-10.834
▁links	-10.834
▁methods	-10.834
▁neuron	-10.834
▁origami	-10.834
▁repeat	-10.834
▁rice	-10.834
▁shock	-10.834
▁stanford	-10.834
▁yours	-10.834
▁20,000	-10.8472
▁actors	-10.8472
▁aircraft	-10.8472
▁bf	-10.8472
▁chest	-10.8472
▁contribute	-10.8472
▁crops	-10.8472
▁darkness	-10.8472
▁dictionary	-10.8472
▁diverse	-10.8472
▁earthquake	-10.8472
▁efforts	-10.8472
▁engagement	-10.8472
▁excellent	-10.8472
▁grass	-10.8472
▁loud	-10.8472
▁mate	-10.8472
▁missed	-10.8472
▁odd	-10.8472
▁oldest	-10.8472
▁participants	-10.8472
▁privilege	-10.8472
▁provides	-10.8472
▁reef	-10.8472
▁rely	-10.8472
▁repair	-10.8472
▁review	-10.8472
▁shoulder	-10.8472
▁surfaces	-10.8472
▁tag	-10.8472
▁accepted	-10.8607
▁affordable	-10.8607
▁bay	-10.8607
▁bicycle	-10.8607
▁chaos	-10.8607
▁cheaper	-10.8607
▁chip	-10.8607
▁circles	-10.8607
▁concern	-10.8607
▁drill	-10.8607
▁drove	-10.8607
▁electronics	-10.8607
▁exposed	-10.8607
▁extract	-10.8607
▁flip	-10.8607
▁frank	-10.8607
▁functional	-10.8607
▁gates	-10.8607
▁gather	-10.8607
▁herself	-10.8607
▁hollywood	-10.8607
▁initial	-10.8607
▁inspire	-10.8607
▁invite	-10.8607
▁lift	-10.8607
▁limit	-10.8607
▁load	-10.8607
▁mad	-10.8607
▁meter	-10.8607
▁musicians	-10.8607
▁nets	-10.8607
▁official	-10.8607
▁operations	-10.8607
▁optimistic	-10.8607
▁pointed	-10.8607
▁powers	-10.8607
▁reduction	-10.8607
▁reflect	-10.8607
▁sales	-10.8607
▁speaker	-10.8607
▁stock	-10.8607
▁tears	-10.8607
▁terrorists	-10.8607
▁universities	-10.8607
▁2004	-10.8743
▁accidents	-10.8743
▁apartment	-10.8743
▁arabic	-10.8743
▁banks	-10.8743
▁barely	-10.8743
▁calculate	-10.8743
▁dependent	-10.8743
▁diagram	-10.8743
▁encounter	-10.8743
▁equality	-10.8743
▁golf	-10.8743
▁hardware	-10.8743
▁hungry	-10.8743
▁loop	-10.8743
▁opens	-10.8743
▁pig	-10.8743
▁plays	-10.8743
▁pregnant	-10.8743
▁resolution	-10.8743
▁rocks	-10.8743
▁separated	-10.8743
▁silent	-10.8743
▁stable	-10.8743
▁tank	-10.8743
▁tragedy	-10.8743
▁variation	-10.8743
▁vertical	-10.8743
▁19	-10.8881
▁accessible	-10.8881
▁airport	-10.8881
▁bars	-10.8881
▁beliefs	-10.8881
▁brief	-10.8881
▁bubbles	-10.8881
▁cry	-10.8881
▁depressed	-10.8881
▁evolve	-10.8881
▁football	-10.8881
▁globalization	-10.8881
▁harvest	-10.8881
▁honey	-10.8881
▁laser	-10.8881
▁lens	-10.8881
▁neighbor	-10.8881
▁pen	-10.8881
▁pile	-10.8881
▁removed	-10.8881
▁reputation	-10.8881
▁rescue	-10.8881
▁smallpox	-10.8881
▁speakers	-10.8881
▁tax	-10.8881
▁theories	-10.8881
▁transparent	-10.8881
▁tribes	-10.8881
▁van	-10.8881
▁volunteers	-10.8881
▁2006	-10.9021
▁advance	-10.9021
▁audio	-10.9021
▁autonomous	-10.9021
▁balls	-10.9021
▁blame	-10.9021
▁briefly	-10.9021
▁consequence	-10.9021
▁da	-10.9021
▁dig	-10.9021
▁dominant	-10.9021
▁drawn	-10.9021
▁ecosystems	-10.9021
▁essence	-10.9021
▁fruit	-10.9021
▁globally	-10.9021
▁includes	-10.9021
▁integrated	-10.9021
▁letting	-10.9021
▁pitch	-10.9021
▁proper	-10.9021
▁protecting	-10.9021
▁pyramid	-10.9021
▁realm	-10.9021
▁reefs	-10.9021
▁returned	-10.9021
▁ridiculous	-10.9021
▁soviet	-10.9021
▁spots	-10.9021
▁stops	-10.9021
▁tom	-10.9021
▁22	-10.9162
▁23	-10.9162
▁agricultural	-10.9162
▁announced	-10.9162
▁arctic	-10.9162
▁atlantic	-10.9162
▁bias	-10.9162
▁clients	-10.9162
▁contract	-10.9162
▁copyright	-10.9162
▁demonstrate	-10.9162
▁emerge	-10.9162
▁fed	-10.9162
▁footprint	-10.9162
▁guide	-10.9162
▁laid	-10.9162
▁layers	-10.9162
▁locked	-10.9162
▁oxytocin	-10.9162
▁pace	-10.9162
▁probability	-10.9162
▁pulling	-10.9162
▁rarely	-10.9162
▁seats	-10.9162
▁soap	-10.9162
▁stages	-10.9162
▁sticks	-10.9162
▁views	-10.9162
▁biologists	-10.9306
▁consume	-10.9306
▁corals	-10.9306
▁crossing	-10.9306
▁delivered	-10.9306
▁discoveries	-10.9306
▁earn	-10.9306
▁elections	-10.9306
▁ethical	-10.9306
▁facility	-10.9306
▁geographic	-10.9306
▁ha	-10.9306
▁hanging	-10.9306
▁jewish	-10.9306
▁naked	-10.9306
▁neighborhoods	-10.9306
▁partly	-10.9306
▁photographer	-10.9306
▁picking	-10.9306
▁plot	-10.9306
▁precise	-10.9306
▁reduced	-10.9306
▁rwanda	-10.9306
▁seek	-10.9306
▁suggesting	-10.9306
▁sum	-10.9306
▁surveillance	-10.9306
▁symbols	-10.9306
▁tired	-10.9306
▁tour	-10.9306
▁tricks	-10.9306
▁uncomfortable	-10.9306
▁unlikely	-10.9306
▁visited	-10.9306
▁3	-10.9452
▁95	-10.9452
▁agencies	-10.9452
▁artistic	-10.9452
▁capability	-10.9452
▁capita	-10.9452
▁chief	-10.9452
▁clay	-10.9452
▁conclude	-10.9452
▁controls	-10.9452
▁criminal	-10.9452
▁ethiopia	-10.9452
▁excuse	-10.9452
▁external	-10.9452
▁florida	-10.9452
▁foods	-10.9452
▁frequency	-10.9452
▁genocide	-10.9452
▁happier	-10.9452
▁hill	-10.9452
▁ignorance	-10.9452
▁improvement	-10.9452
▁industries	-10.9452
▁isolated	-10.9452
▁landed	-10.9452
▁lecture	-10.9452
▁manhattan	-10.9452
▁mechanisms	-10.9452
▁myth	-10.9452
▁nurses	-10.9452
▁observation	-10.9452
▁originally	-10.9452
▁oxford	-10.9452
▁panels	-10.9452
▁physicist	-10.9452
▁predicted	-10.9452
▁programming	-10.9452
▁pump	-10.9452
▁react	-10.9452
▁reminded	-10.9452
▁resilience	-10.9452
▁rush	-10.9452
▁satellites	-10.9452
▁spinal	-10.9452
▁synthetic	-10.9452
▁thick	-10.9452
▁trucks	-10.9452
▁writers	-10.9452
▁x-ray	-10.9452
▁ab	-10.96
▁abilities	-10.96
▁algorithm	-10.96
▁attitude	-10.96
▁biodiversity	-10.96
▁characteristics	-10.96
▁contains	-10.96
▁crucial	-10.96
▁dozens	-10.96
▁experimental	-10.96
▁fiber	-10.96
▁flag	-10.96
▁focusing	-10.96
▁impacts	-10.96
▁inspiring	-10.96
▁intervention	-10.96
▁italy	-10.96
▁jack	-10.96
▁la	-10.96
▁objective	-10.96
▁ooh	-10.96
▁painted	-10.96
▁passing	-10.96
▁peter	-10.96
▁reports	-10.96
▁scratch	-10.96
▁senior	-10.96
▁session	-10.96
▁shadow	-10.96
▁sheet	-10.96
▁silly	-10.96
▁skull	-10.96
▁stores	-10.96
▁tied	-10.96
▁tribe	-10.96
▁vulnerability	-10.96
▁year-old	-10.96
▁2001	-10.9751
▁250	-10.9751
▁ad	-10.9751
▁attract	-10.9751
▁besides	-10.9751
▁caring	-10.9751
▁colonies	-10.9751
▁constructed	-10.9751
▁derek	-10.9751
▁determined	-10.9751
▁devil	-10.9751
▁dress	-10.9751
▁elephants	-10.9751
▁expanding	-10.9751
▁figuring	-10.9751
▁forgotten	-10.9751
▁fuels	-10.9751
▁glad	-10.9751
▁grandchildren	-10.9751
▁identified	-10.9751
▁immediate	-10.9751
▁ingredients	-10.9751
▁limb	-10.9751
▁martin	-10.9751
▁occasionally	-10.9751
▁openness	-10.9751
▁palm	-10.9751
▁proposed	-10.9751
▁quit	-10.9751
▁relations	-10.9751
▁reported	-10.9751
▁robust	-10.9751
▁sentences	-10.9751
▁strangers	-10.9751
▁teenagers	-10.9751
▁translated	-10.9751
▁unbelievable	-10.9751
▁underlying	-10.9751
▁weapon	-10.9751
▁bears	-10.9903
▁belong	-10.9903
▁cambridge	-10.9903
▁chairs	-10.9903
▁climbing	-10.9903
▁completed	-10.9903
▁contemporary	-10.9903
▁database	-10.9903
▁daughters	-10.9903
▁debt	-10.9903
▁depth	-10.9903
▁dinosaur	-10.9903
▁domain	-10.9903
▁dust	-10.9903
▁emerged	-10.9903
▁expansion	-10.9903
▁expectancy	-10.9903
▁extend	-10.9903
▁extended	-10.9903
▁fan	-10.9903
▁flows	-10.9903
▁gathering	-10.9903
▁imagery	-10.9903
▁inches	-10.9903
▁injury	-10.9903
▁instructions	-10.9903
▁panel	-10.9903
▁poet	-10.9903
▁positions	-10.9903
▁predictions	-10.9903
▁rat	-10.9903
▁revenue	-10.9903
▁robotics	-10.9903
▁rose	-10.9903
▁russian	-10.9903
▁sensory	-10.9903
▁served	-10.9903
▁struggling	-10.9903
▁suggested	-10.9903
▁surprisingly	-10.9903
▁threw	-10.9903
▁translation	-10.9903
▁vital	-10.9903
▁washing	-10.9903
▁2003	-11.0058
▁administration	-11.0058
▁alien	-11.0058
▁answered	-11.0058
▁attractive	-11.0058
▁boom	-11.0058
▁buried	-11.0058
▁cartoons	-11.0058
▁cats	-11.0058
▁ceo	-11.0058
▁cheese	-11.0058
▁dialogue	-11.0058
▁economist	-11.0058
▁fabric	-11.0058
▁fabulous	-11.0058
▁february	-11.0058
▁flexible	-11.0058
▁gradually	-11.0058
▁grandfather	-11.0058
▁gut	-11.0058
▁holds	-11.0058
▁jesus	-11.0058
▁mode	-11.0058
▁neural	-11.0058
▁october	-11.0058
▁opera	-11.0058
▁parties	-11.0058
▁photographed	-11.0058
▁r	-11.0058
▁rapid	-11.0058
▁richer	-11.0058
▁shell	-11.0058
▁shrimp	-11.0058
▁sisters	-11.0058
▁smoking	-11.0058
▁soldier	-11.0058
▁soup	-11.0058
▁suspect	-11.0058
▁tumors	-11.0058
▁upset	-11.0058
▁4	-11.0216
▁architectural	-11.0216
▁author	-11.0216
▁bob	-11.0216
▁cable	-11.0216
▁county	-11.0216
▁dear	-11.0216
▁difficulty	-11.0216
▁discuss	-11.0216
▁dish	-11.0216
▁documents	-11.0216
▁dolphin	-11.0216
▁drivers	-11.0216
▁explaining	-11.0216
▁failing	-11.0216
▁fortunate	-11.0216
▁fought	-11.0216
▁garage	-11.0216
▁graphic	-11.0216
▁inevitable	-11.0216
▁keyboard	-11.0216
▁measures	-11.0216
▁narrow	-11.0216
▁ray	-11.0216
▁reform	-11.0216
▁shaped	-11.0216
▁shelter	-11.0216
▁ships	-11.0216
▁similarly	-11.0216
▁sits	-11.0216
▁skeleton	-11.0216
▁sleeping	-11.0216
▁smarter	-11.0216
▁subtle	-11.0216
▁supported	-11.0216
▁wildlife	-11.0216
▁wing	-11.0216
▁youth	-11.0216
▁agent	-11.0376
▁alzheimer	-11.0376
▁analyze	-11.0376
▁articles	-11.0376
▁begun	-11.0376
▁bizarre	-11.0376
▁broad	-11.0376
▁category	-11.0376
▁choosing	-11.0376
▁contain	-11.0376
▁dimension	-11.0376
▁dive	-11.0376
▁edges	-11.0376
▁educated	-11.0376
▁elderly	-11.0376
▁frog	-11.0376
▁homework	-11.0376
▁homo	-11.0376
▁host	-11.0376
▁informed	-11.0376
▁journal	-11.0376
▁killer	-11.0376
▁leverage	-11.0376
▁merely	-11.0376
▁nerve	-11.0376
▁nurse	-11.0376
▁output	-11.0376
▁pm	-11.0376
▁poster	-11.0376
▁primarily	-11.0376
▁pushed	-11.0376
▁rainforest	-11.0376
▁rats	-11.0376
▁representation	-11.0376
▁salt	-11.0376
▁shopping	-11.0376
▁successfully	-11.0376
▁targets	-11.0376
▁trajectory	-11.0376
▁turkey	-11.0376
▁uncertainty	-11.0376
▁uncle	-11.0376
▁vagina	-11.0376
▁whatsoever	-11.0376
▁wings	-11.0376
▁wise	-11.0376
▁120	-11.0539
▁breaks	-11.0539
▁charges	-11.0539
▁convert	-11.0539
▁cord	-11.0539
▁description	-11.0539
▁district	-11.0539
▁favor	-11.0539
▁founded	-11.0539
▁garbage	-11.0539
▁helpful	-11.0539
▁initially	-11.0539
▁instant	-11.0539
▁intuition	-11.0539
▁jim	-11.0539
▁kick	-11.0539
▁luck	-11.0539
▁mall	-11.0539
▁mary	-11.0539
▁matrix	-11.0539
▁mining	-11.0539
▁odds	-11.0539
▁open-source	-11.0539
▁perceive	-11.0539
▁permission	-11.0539
▁pigs	-11.0539
▁pretend	-11.0539
▁proof	-11.0539
▁pursue	-11.0539
▁radically	-11.0539
▁realizing	-11.0539
▁rebuild	-11.0539
▁regime	-11.0539
▁reveal	-11.0539
▁sacred	-11.0539
▁sciences	-11.0539
▁scores	-11.0539
▁simulation	-11.0539
▁spectacular	-11.0539
▁storm	-11.0539
▁tech	-11.0539
▁terror	-11.0539
▁treatments	-11.0539
▁vacuum	-11.0539
▁1990s	-11.0704
▁30,000	-11.0704
▁4,000	-11.0704
▁5	-11.0704
▁65	-11.0704
▁anxiety	-11.0704
▁arrive	-11.0704
▁bats	-11.0704
▁capabilities	-11.0704
▁collaborative	-11.0704
▁crack	-11.0704
▁curriculum	-11.0704
▁ending	-11.0704
▁ensure	-11.0704
▁entering	-11.0704
▁forming	-11.0704
▁fragile	-11.0704
▁glamorous	-11.0704
▁gods	-11.0704
▁hitting	-11.0704
▁holy	-11.0704
▁kb	-11.0704
▁lawyer	-11.0704
▁lawyers	-11.0704
▁magnitude	-11.0704
▁miracle	-11.0704
▁needle	-11.0704
▁optimism	-11.0704
▁owner	-11.0704
▁promote	-11.0704
▁someday	-11.0704
▁stranger	-11.0704
▁threats	-11.0704
▁throwing	-11.0704
▁wider	-11.0704
▁witness	-11.0704
▁1960	-11.0872
▁ain	-11.0872
▁boss	-11.0872
▁bottles	-11.0872
▁channels	-11.0872
▁clothing	-11.0872
▁command	-11.0872
▁conducted	-11.0872
▁confused	-11.0872
▁corn	-11.0872
▁demonstration	-11.0872
▁enables	-11.0872
▁expecting	-11.0872
▁extension	-11.0872
▁fluid	-11.0872
▁gotta	-11.0872
▁highway	-11.0872
▁hypothesis	-11.0872
▁insect	-11.0872
▁luckily	-11.0872
▁meal	-11.0872
▁methane	-11.0872
▁mixed	-11.0872
▁mold	-11.0872
▁observe	-11.0872
▁orchestra	-11.0872
▁owned	-11.0872
▁participation	-11.0872
▁plug	-11.0872
▁primitive	-11.0872
▁replicate	-11.0872
▁rio	-11.0872
▁rolling	-11.0872
▁shipping	-11.0872
▁slavery	-11.0872
▁smooth	-11.0872
▁staying	-11.0872
▁strategic	-11.0872
▁subway	-11.0872
▁traditions	-11.0872
▁transfer	-11.0872
▁tuna	-11.0872
▁wash	-11.0872
▁array	-11.1043
▁baseball	-11.1043
▁ben	-11.1043
▁bronx	-11.1043
▁canopy	-11.1043
▁citizen	-11.1043
▁comparison	-11.1043
▁continuing	-11.1043
▁demographic	-11.1043
▁dopamine	-11.1043
▁drones	-11.1043
▁dutch	-11.1043
▁empire	-11.1043
▁experiencing	-11.1043
▁factories	-11.1043
▁funded	-11.1043
▁gaps	-11.1043
▁genetics	-11.1043
▁gore	-11.1043
▁guns	-11.1043
▁imaging	-11.1043
▁included	-11.1043
▁invested	-11.1043
▁joe	-11.1043
▁labs	-11.1043
▁liberal	-11.1043
▁magical	-11.1043
▁neat	-11.1043
▁nowadays	-11.1043
▁outer	-11.1043
▁paralyzed	-11.1043
▁portion	-11.1043
▁profoundly	-11.1043
▁refer	-11.1043
▁restore	-11.1043
▁rituals	-11.1043
▁rivers	-11.1043
▁saturn	-11.1043
▁spin	-11.1043
▁terrorist	-11.1043
▁transplant	-11.1043
▁32	-11.1217
▁airplanes	-11.1217
▁assumptions	-11.1217
▁blogs	-11.1217
▁closing	-11.1217
▁comment	-11.1217
▁concert	-11.1217
▁december	-11.1217
▁demands	-11.1217
▁detailed	-11.1217
▁doors	-11.1217
▁drawings	-11.1217
▁drone	-11.1217
▁egg	-11.1217
▁em	-11.1217
▁exception	-11.1217
▁explains	-11.1217
▁explosion	-11.1217
▁exponential	-11.1217
▁facilities	-11.1217
▁firm	-11.1217
▁friendly	-11.1217
▁glamour	-11.1217
▁indians	-11.1217
▁influenced	-11.1217
▁innocent	-11.1217
▁intuitive	-11.1217
▁investors	-11.1217
▁linear	-11.1217
▁lions	-11.1217
▁mayor	-11.1217
▁nutrients	-11.1217
▁occurs	-11.1217
▁prepare	-11.1217
▁pride	-11.1217
▁qualities	-11.1217
▁remained	-11.1217
▁remaining	-11.1217
▁saudi	-11.1217
▁shocked	-11.1217
▁simultaneously	-11.1217
▁slime	-11.1217
▁spain	-11.1217
▁suffered	-11.1217
▁tendency	-11.1217
▁trash	-11.1217
▁urge	-11.1217
▁warning	-11.1217
▁1980s	-11.1394
▁analogy	-11.1394
▁astonishing	-11.1394
▁authorities	-11.1394
▁bend	-11.1394
▁beneath	-11.1394
▁bin	-11.1394
▁categories	-11.1394
▁chances	-11.1394
▁civic	-11.1394
▁compelling	-11.1394
▁computation	-11.1394
▁counting	-11.1394
▁covering	-11.1394
▁damn	-11.1394
▁dung	-11.1394
▁earliest	-11.1394
▁ecological	-11.1394
▁engines	-11.1394
▁flowing	-11.1394
▁graphics	-11.1394
▁headed	-11.1394
▁howard	-11.1394
▁hunting	-11.1394
▁initiative	-11.1394
▁ink	-11.1394
▁kills	-11.1394
▁mathematicians	-11.1394
▁mood	-11.1394
▁mysterious	-11.1394
▁obstacles	-11.1394
▁pandemic	-11.1394
▁peoples	-11.1394
▁phantom	-11.1394
▁pointing	-11.1394
▁preserve	-11.1394
▁remembered	-11.1394
▁sauce	-11.1394
▁scenario	-11.1394
▁supporting	-11.1394
▁threshold	-11.1394
▁tie	-11.1394
▁unable	-11.1394
▁wealthy	-11.1394
▁widely	-11.1394
▁26	-11.1574
▁addiction	-11.1574
▁additional	-11.1574
▁adopted	-11.1574
▁adventure	-11.1574
▁affects	-11.1574
▁cast	-11.1574
▁classical	-11.1574
▁comments	-11.1574
▁conservative	-11.1574
▁consistent	-11.1574
▁corporations	-11.1574
▁cosmic	-11.1574
▁cotton	-11.1574
▁detection	-11.1574
▁download	-11.1574
▁elected	-11.1574
▁farms	-11.1574
▁gallery	-11.1574
▁impressive	-11.1574
▁improving	-11.1574
▁infection	-11.1574
▁instantly	-11.1574
▁interpretation	-11.1574
▁investing	-11.1574
▁judgment	-11.1574
▁leap	-11.1574
▁located	-11.1574
▁makers	-11.1574
▁mechanics	-11.1574
▁morality	-11.1574
▁mt	-11.1574
▁musician	-11.1574
▁officer	-11.1574
▁passenger	-11.1574
▁pause	-11.1574
▁plain	-11.1574
▁printer	-11.1574
▁profile	-11.1574
▁profits	-11.1574
▁publish	-11.1574
▁ratio	-11.1574
▁rb	-11.1574
▁refugees	-11.1574
▁regret	-11.1574
▁restaurants	-11.1574
▁rubber	-11.1574
▁sandwich	-11.1574
▁sharp	-11.1574
▁shelf	-11.1574
▁significantly	-11.1574
▁stones	-11.1574
▁strike	-11.1574
▁sub-saharan	-11.1574
▁tackle	-11.1574
▁tends	-11.1574
▁tissues	-11.1574
▁tongue	-11.1574
▁woke	-11.1574
▁workforce	-11.1574
▁yield	-11.1574
▁approaches	-11.1757
▁armed	-11.1757
▁arrested	-11.1757
▁bombs	-11.1757
▁branch	-11.1757
▁classrooms	-11.1757
▁confident	-11.1757
▁connects	-11.1757
▁contrary	-11.1757
▁courses	-11.1757
▁currency	-11.1757
▁diagnosed	-11.1757
▁endangered	-11.1757
▁expertise	-11.1757
▁fbi	-11.1757
▁forgot	-11.1757
▁fraction	-11.1757
▁freely	-11.1757
▁frustrated	-11.1757
▁gathered	-11.1757
▁genetically	-11.1757
▁gentleman	-11.1757
▁gonna	-11.1757
▁greek	-11.1757
▁items	-11.1757
▁mri	-11.1757
▁nelson	-11.1757
▁norway	-11.1757
▁polar	-11.1757
▁prediction	-11.1757
▁quest	-11.1757
▁rape	-11.1757
▁reducing	-11.1757
▁reminds	-11.1757
▁rough	-11.1757
▁seas	-11.1757
▁secrets	-11.1757
▁shifting	-11.1757
▁sixth	-11.1757
▁spanish	-11.1757
▁speaks	-11.1757
▁steal	-11.1757
▁straightforward	-11.1757
▁strongly	-11.1757
▁taliban	-11.1757
▁terribly	-11.1757
▁tracks	-11.1757
▁trains	-11.1757
▁victim	-11.1757
▁wires	-11.1757
▁accounts	-11.1944
▁aggressive	-11.1944
▁antarctica	-11.1944
▁appearance	-11.1944
▁approaching	-11.1944
▁barrier	-11.1944
▁cake	-11.1944
▁camps	-11.1944
▁chimpanzee	-11.1944
▁coke	-11.1944
▁cooperate	-11.1944
▁customer	-11.1944
▁deserve	-11.1944
▁encouraged	-11.1944
▁entropy	-11.1944
▁established	-11.1944
▁extinction	-11.1944
▁fancy	-11.1944
▁file	-11.1944
▁fits	-11.1944
▁footage	-11.1944
▁gained	-11.1944
▁gear	-11.1944
▁glasses	-11.1944
▁healthier	-11.1944
▁high-tech	-11.1944
▁hip	-11.1944
▁impression	-11.1944
▁improved	-11.1944
▁incentive	-11.1944
▁jazz	-11.1944
▁lamp	-11.1944
▁lincoln	-11.1944
▁loves	-11.1944
▁meanwhile	-11.1944
▁memes	-11.1944
▁moore	-11.1944
▁motors	-11.1944
▁mushroom	-11.1944
▁ngos	-11.1944
▁ownership	-11.1944
▁passive	-11.1944
▁phenomena	-11.1944
▁phosphorus	-11.1944
▁plastics	-11.1944
▁prevention	-11.1944
▁previously	-11.1944
▁prisoners	-11.1944
▁procedure	-11.1944
▁professionals	-11.1944
▁purposes	-11.1944
▁recover	-11.1944
▁santa	-11.1944
▁selfish	-11.1944
▁sensor	-11.1944
▁serving	-11.1944
▁smith	-11.1944
▁socially	-11.1944
▁stability	-11.1944
▁storage	-11.1944
▁teenage	-11.1944
▁threatened	-11.1944
▁vegetables	-11.1944
▁waters	-11.1944
▁winning	-11.1944
▁200,000	-11.2135
▁2002	-11.2135
▁85	-11.2135
▁achievement	-11.2135
▁alcohol	-11.2135
▁anonymous	-11.2135
▁asks	-11.2135
▁audiences	-11.2135
▁believes	-11.2135
▁branches	-11.2135
▁bucks	-11.2135
▁burden	-11.2135
▁burned	-11.2135
▁cliff	-11.2135
▁closest	-11.2135
▁combat	-11.2135
▁compete	-11.2135
▁continents	-11.2135
▁cows	-11.2135
▁cycles	-11.2135
▁delhi	-11.2135
▁destiny	-11.2135
▁distances	-11.2135
▁distinct	-11.2135
▁entrepreneur	-11.2135
▁errors	-11.2135
▁fastest	-11.2135
▁females	-11.2135
▁ford	-11.2135
▁generous	-11.2135
▁glacier	-11.2135
▁habits	-11.2135
▁helicopter	-11.2135
▁henry	-11.2135
▁homeless	-11.2135
▁hook	-11.2135
▁independence	-11.2135
▁insights	-11.2135
▁interior	-11.2135
▁jumped	-11.2135
▁keys	-11.2135
▁landscapes	-11.2135
▁limitations	-11.2135
▁managers	-11.2135
▁mandela	-11.2135
▁miserable	-11.2135
▁package	-11.2135
▁pairs	-11.2135
▁performed	-11.2135
▁ph.d.	-11.2135
▁pizza	-11.2135
▁profession	-11.2135
▁proportion	-11.2135
▁reliable	-11.2135
▁religions	-11.2135
▁replaced	-11.2135
▁shanghai	-11.2135
▁shit	-11.2135
▁shots	-11.2135
▁silver	-11.2135
▁smallest	-11.2135
▁ss	-11.2135
▁static	-11.2135
▁substance	-11.2135
▁supermarket	-11.2135
▁survived	-11.2135
▁teenager	-11.2135
▁temporary	-11.2135
▁thumb	-11.2135
▁ticket	-11.2135
▁tone	-11.2135
▁tropical	-11.2135
▁tsunami	-11.2135
▁tubes	-11.2135
▁ubiquitous	-11.2135
▁versions	-11.2135
▁viral	-11.2135
▁winds	-11.2135
▁worms	-11.2135
▁'clock	-11.2329
▁2011	-11.2329
▁alexander	-11.2329
▁arguing	-11.2329
▁assumption	-11.2329
▁bat	-11.2329
▁beating	-11.2329
▁blank	-11.2329
▁circuits	-11.2329
▁consciously	-11.2329
▁deck	-11.2329
▁ecology	-11.2329
▁encouraging	-11.2329
▁estimates	-11.2329
▁excitement	-11.2329
▁fusion	-11.2329
▁gases	-11.2329
▁geometry	-11.2329
▁grandparents	-11.2329
▁grasp	-11.2329
▁habit	-11.2329
▁hardest	-11.2329
▁hat	-11.2329
▁headlines	-11.2329
▁hiding	-11.2329
▁hired	-11.2329
▁index	-11.2329
▁italian	-11.2329
▁leonardo	-11.2329
▁maker	-11.2329
▁medicines	-11.2329
▁mindset	-11.2329
▁nearby	-11.2329
▁offices	-11.2329
▁physician	-11.2329
▁planes	-11.2329
▁precious	-11.2329
▁predictable	-11.2329
▁prostate	-11.2329
▁psychologists	-11.2329
▁purple	-11.2329
▁puzzles	-11.2329
▁researcher	-11.2329
▁reserve	-11.2329
▁sensation	-11.2329
▁slums	-11.2329
▁stored	-11.2329
▁storytelling	-11.2329
▁stroke	-11.2329
▁succeeded	-11.2329
▁sunday	-11.2329
▁terrifying	-11.2329
▁tragic	-11.2329
▁transforming	-11.2329
▁unhappy	-11.2329
▁unprecedented	-11.2329
▁wheat	-11.2329
▁wheelchair	-11.2329
▁2050	-11.2527
▁33	-11.2527
▁amazed	-11.2527
▁applying	-11.2527
▁association	-11.2527
▁blindness	-11.2527
▁bored	-11.2527
▁brian	-11.2527
▁builds	-11.2527
▁christian	-11.2527
▁client	-11.2527
▁colored	-11.2527
▁comedy	-11.2527
▁competitive	-11.2527
▁crew	-11.2527
▁cricket	-11.2527
▁crop	-11.2527
▁discovering	-11.2527
▁eaten	-11.2527
▁elite	-11.2527
▁fathers	-11.2527
▁fears	-11.2527
▁fibers	-11.2527
▁fires	-11.2527
▁halfway	-11.2527
▁historically	-11.2527
▁honestly	-11.2527
▁horizon	-11.2527
▁inevitably	-11.2527
▁jellyfish	-11.2527
▁july	-11.2527
▁koran	-11.2527
▁mail	-11.2527
▁mines	-11.2527
▁nerves	-11.2527
▁nodes	-11.2527
▁nuts	-11.2527
▁offering	-11.2527
▁ongoing	-11.2527
▁physicists	-11.2527
▁prior	-11.2527
▁pursuit	-11.2527
▁relation	-11.2527
▁resolve	-11.2527
▁responses	-11.2527
▁rhythm	-11.2527
▁safer	-11.2527
▁seeking	-11.2527
▁shirt	-11.2527
▁signature	-11.2527
▁stepped	-11.2527
▁syndrome	-11.2527
▁tension	-11.2527
▁thus	-11.2527
▁traits	-11.2527
▁vietnam	-11.2527
▁y	-11.2527
▁yourselves	-11.2527
▁800	-11.2729
▁absence	-11.2729
▁academy	-11.2729
▁agents	-11.2729
▁annual	-11.2729
▁asteroid	-11.2729
▁bags	-11.2729
▁beijing	-11.2729
▁believing	-11.2729
▁breakfast	-11.2729
▁caves	-11.2729
▁chamber	-11.2729
▁cocaine	-11.2729
▁column	-11.2729
▁comic	-11.2729
▁compassionate	-11.2729
▁concentrated	-11.2729
▁confront	-11.2729
▁continuous	-11.2729
▁convey	-11.2729
▁decrease	-11.2729
▁demonstrated	-11.2729
▁despair	-11.2729
▁dies	-11.2729
▁drew	-11.2729
▁electron	-11.2729
▁elementary	-11.2729
▁estate	-11.2729
▁ethnic	-11.2729
▁farming	-11.2729
▁feynman	-11.2729
▁formula	-11.2729
▁gesture	-11.2729
▁guilty	-11.2729
▁hacking	-11.2729
▁harmony	-11.2729
▁hormone	-11.2729
▁household	-11.2729
▁interviewed	-11.2729
▁johnson	-11.2729
▁journalists	-11.2729
▁luxury	-11.2729
▁manipulate	-11.2729
▁marketplace	-11.2729
▁minimum	-11.2729
▁namely	-11.2729
▁navigate	-11.2729
▁neck	-11.2729
▁newspapers	-11.2729
▁nights	-11.2729
▁nonprofit	-11.2729
▁peers	-11.2729
▁pet	-11.2729
▁physicians	-11.2729
▁pockets	-11.2729
▁propose	-11.2729
▁raped	-11.2729
▁reactions	-11.2729
▁recycling	-11.2729
▁regardless	-11.2729
▁remarkably	-11.2729
▁reproduce	-11.2729
▁retirement	-11.2729
▁scenes	-11.2729
▁sheets	-11.2729
▁shortly	-11.2729
▁sink	-11.2729
▁stack	-11.2729
▁technically	-11.2729
▁tent	-11.2729
▁toes	-11.2729
▁trigger	-11.2729
▁tune	-11.2729
▁wedding	-11.2729
▁yorker	-11.2729
▁1950s	-11.2935
▁8	-11.2935
▁activist	-11.2935
▁affecting	-11.2935
▁antibiotics	-11.2935
▁attacked	-11.2935
▁badly	-11.2935
▁bowl	-11.2935
▁bug	-11.2935
▁calculations	-11.2935
▁cancers	-11.2935
▁carolina	-11.2935
▁challenged	-11.2935
▁clue	-11.2935
▁collapsed	-11.2935
▁contributed	-11.2935
▁covers	-11.2935
▁crimes	-11.2935
▁dating	-11.2935
▁delivery	-11.2935
▁disability	-11.2935
▁discipline	-11.2935
▁dumb	-11.2935
▁electrons	-11.2935
▁enemies	-11.2935
▁enjoying	-11.2935
▁eric	-11.2935
▁fate	-11.2935
▁foundations	-11.2935
▁friday	-11.2935
▁guarantee	-11.2935
▁ignored	-11.2935
▁interviews	-11.2935
▁jet	-11.2935
▁jh	-11.2935
▁jihad	-11.2935
▁leather	-11.2935
▁legislation	-11.2935
▁listened	-11.2935
▁locations	-11.2935
▁mapping	-11.2935
▁parliament	-11.2935
▁perceived	-11.2935
▁portrait	-11.2935
▁proposition	-11.2935
▁rating	-11.2935
▁recipe	-11.2935
▁sacrifice	-11.2935
▁shine	-11.2935
▁sport	-11.2935
▁st.	-11.2935
▁suck	-11.2935
▁surrounding	-11.2935
▁sw	-11.2935
▁toilets	-11.2935
▁viewer	-11.2935
▁wheels	-11.2935
▁wound	-11.2935
▁1990	-11.3146
▁28	-11.3146
▁adjust	-11.3146
▁assignment	-11.3146
▁beaten	-11.3146
▁beautifully	-11.3146
▁berlin	-11.3146
▁blah	-11.3146
▁bond	-11.3146
▁bow	-11.3146
▁brave	-11.3146
▁breeding	-11.3146
▁campus	-11.3146
▁captain	-11.3146
▁cellular	-11.3146
▁commit	-11.3146
▁competing	-11.3146
▁concentration	-11.3146
▁constraints	-11.3146
▁delicious	-11.3146
▁donor	-11.3146
▁dressed	-11.3146
▁enabled	-11.3146
▁equations	-11.3146
▁expedition	-11.3146
▁extraordinarily	-11.3146
▁failures	-11.3146
▁follows	-11.3146
▁generating	-11.3146
▁heritage	-11.3146
▁historic	-11.3146
▁infections	-11.3146
▁insane	-11.3146
▁installation	-11.3146
▁institutional	-11.3146
▁intensive	-11.3146
▁ireland	-11.3146
▁knife	-11.3146
▁label	-11.3146
▁lands	-11.3146
▁lanes	-11.3146
▁lowest	-11.3146
▁lungs	-11.3146
▁mainstream	-11.3146
▁mobility	-11.3146
▁monitoring	-11.3146
▁narratives	-11.3146
▁orders	-11.3146
▁packed	-11.3146
▁parks	-11.3146
▁penguin	-11.3146
▁personalized	-11.3146
▁philosopher	-11.3146
▁preparing	-11.3146
▁proved	-11.3146
▁psychologist	-11.3146
▁recession	-11.3146
▁reflection	-11.3146
▁refugee	-11.3146
▁republic	-11.3146
▁selected	-11.3146
▁stays	-11.3146
▁stopping	-11.3146
▁topics	-11.3146
▁transmission	-11.3146
▁troops	-11.3146
▁vessel	-11.3146
▁virgin	-11.3146
▁workplace	-11.3146
▁zealand	-11.3146
▁1960s	-11.3361
▁2012	-11.3361
▁50s	-11.3361
▁6	-11.3361
▁6,000	-11.3361
▁acid	-11.3361
▁aim	-11.3361
▁altitude	-11.3361
▁approached	-11.3361
▁atomic	-11.3361
▁august	-11.3361
▁automobile	-11.3361
▁bacterial	-11.3361
▁bills	-11.3361
▁biologist	-11.3361
▁calculated	-11.3361
▁chimps	-11.3361
▁chips	-11.3361
▁civilizations	-11.3361
▁coat	-11.3361
▁compromise	-11.3361
▁construct	-11.3361
▁dawn	-11.3361
▁describes	-11.3361
▁expressions	-11.3361
▁fallen	-11.3361
▁flash	-11.3361
▁glue	-11.3361
▁goodbye	-11.3361
▁graduated	-11.3361
▁harbor	-11.3361
▁healing	-11.3361
▁hills	-11.3361
▁hometown	-11.3361
▁hong	-11.3361
▁indigenous	-11.3361
▁insulin	-11.3361
▁intended	-11.3361
▁large-scale	-11.3361
▁lord	-11.3361
▁marry	-11.3361
▁mike	-11.3361
▁mosquito	-11.3361
▁offers	-11.3361
▁pills	-11.3361
▁predators	-11.3361
▁prosperity	-11.3361
▁publishing	-11.3361
▁punishment	-11.3361
▁reasonable	-11.3361
▁rings	-11.3361
▁rope	-11.3361
▁self-interest	-11.3361
▁skeletal	-11.3361
▁supplies	-11.3361
▁surgeons	-11.3361
▁swiss	-11.3361
▁tanzania	-11.3361
▁territory	-11.3361
▁tiles	-11.3361
▁tunnel	-11.3361
▁visualization	-11.3361
▁wooden	-11.3361
▁wrap	-11.3361
▁ads	-11.3581
▁april	-11.3581
▁asian	-11.3581
▁assets	-11.3581
▁assistance	-11.3581
▁awkward	-11.3581
▁backyard	-11.3581
▁bangladesh	-11.3581
▁behalf	-11.3581
▁binary	-11.3581
▁biosphere	-11.3581
▁boats	-11.3581
▁carpet	-11.3581
▁ceremony	-11.3581
▁clusters	-11.3581
▁collectively	-11.3581
▁comics	-11.3581
▁communicating	-11.3581
▁concerns	-11.3581
▁connectivity	-11.3581
▁correctly	-11.3581
▁coverage	-11.3581
▁defend	-11.3581
▁dominated	-11.3581
▁drag	-11.3581
▁drops	-11.3581
▁electrodes	-11.3581
▁empowered	-11.3581
▁engineered	-11.3581
▁enjoyed	-11.3581
▁hierarchy	-11.3581
▁ibm	-11.3581
▁icon	-11.3581
▁installed	-11.3581
▁joint	-11.3581
▁laptops	-11.3581
▁lg	-11.3581
▁loads	-11.3581
▁lock	-11.3581
▁magnificent	-11.3581
▁november	-11.3581
▁origins	-11.3581
▁overnight	-11.3581
▁posted	-11.3581
▁pray	-11.3581
▁predator	-11.3581
▁printed	-11.3581
▁proven	-11.3581
▁receiving	-11.3581
▁relief	-11.3581
▁safely	-11.3581
▁sale	-11.3581
▁sanitation	-11.3581
▁scanner	-11.3581
▁seemingly	-11.3581
▁simpler	-11.3581
▁smiling	-11.3581
▁sons	-11.3581
▁stretch	-11.3581
▁summit	-11.3581
▁sustain	-11.3581
▁vaccines	-11.3581
▁ve	-11.3581
▁via	-11.3581
▁volunteer	-11.3581
▁voting	-11.3581
▁worrying	-11.3581
▁zones	-11.3581
▁40,000	-11.3805
▁abraham	-11.3805
▁adapted	-11.3805
▁advances	-11.3805
▁aesthetic	-11.3805
▁agreement	-11.3805
▁algae	-11.3805
▁amy	-11.3805
▁anticipate	-11.3805
▁bite	-11.3805
▁calories	-11.3805
▁catching	-11.3805
▁chile	-11.3805
▁consumed	-11.3805
▁controversial	-11.3805
▁criminals	-11.3805
▁curves	-11.3805
▁deals	-11.3805
▁desperately	-11.3805
▁diameter	-11.3805
▁dilemma	-11.3805
▁disabled	-11.3805
▁exposure	-11.3805
▁formation	-11.3805
▁frequently	-11.3805
▁genomes	-11.3805
▁harry	-11.3805
▁heading	-11.3805
▁hunt	-11.3805
▁injuries	-11.3805
▁intent	-11.3805
▁irony	-11.3805
▁kindness	-11.3805
▁leaf	-11.3805
▁legitimate	-11.3805
▁logical	-11.3805
▁meals	-11.3805
▁medication	-11.3805
▁minus	-11.3805
▁mount	-11.3805
▁observed	-11.3805
▁occurring	-11.3805
▁officials	-11.3805
▁overhead	-11.3805
▁partnership	-11.3805
▁philanthropy	-11.3805
▁powered	-11.3805
▁programmers	-11.3805
▁randomly	-11.3805
▁reactor	-11.3805
▁readers	-11.3805
▁recycled	-11.3805
▁relatives	-11.3805
▁renewable	-11.3805
▁residents	-11.3805
▁roles	-11.3805
▁sadly	-11.3805
▁simplest	-11.3805
▁spiders	-11.3805
▁spill	-11.3805
▁strings	-11.3805
▁suspended	-11.3805
▁tables	-11.3805
▁titan	-11.3805
▁trace	-11.3805
▁transmit	-11.3805
▁trivial	-11.3805
▁upside	-11.3805
▁usage	-11.3805
▁variations	-11.3805
▁vice	-11.3805
▁watson	-11.3805
▁activists	-11.4035
▁album	-11.4035
▁alpha	-11.4035
▁amazingly	-11.4035
▁banking	-11.4035
▁biomass	-11.4035
▁bother	-11.4035
▁brazilian	-11.4035
▁breakthrough	-11.4035
▁bridges	-11.4035
▁calm	-11.4035
▁camel	-11.4035
▁cap	-11.4035
▁clinics	-11.4035
▁clubs	-11.4035
▁coastal	-11.4035
▁comparing	-11.4035
▁crap	-11.4035
▁deployed	-11.4035
▁distinction	-11.4035
▁diving	-11.4035
▁doubled	-11.4035
▁educate	-11.4035
▁estimated	-11.4035
▁heal	-11.4035
▁huh	-11.4035
▁illustrate	-11.4035
▁indonesia	-11.4035
▁likelihood	-11.4035
▁locally	-11.4035
▁manager	-11.4035
▁mankind	-11.4035
▁manual	-11.4035
▁microbial	-11.4035
▁monterey	-11.4035
▁motivated	-11.4035
▁observations	-11.4035
▁pants	-11.4035
▁passage	-11.4035
▁peaceful	-11.4035
▁peer	-11.4035
▁pulse	-11.4035
▁realization	-11.4035
▁reflected	-11.4035
▁rick	-11.4035
▁sake	-11.4035
▁scanning	-11.4035
▁seawater	-11.4035
▁seti	-11.4035
▁sexy	-11.4035
▁shakespeare	-11.4035
▁shocking	-11.4035
▁spinning	-11.4035
▁taxes	-11.4035
▁telescopes	-11.4035
▁temperatures	-11.4035
▁temple	-11.4035
▁terrain	-11.4035
▁textbooks	-11.4035
▁theoretical	-11.4035
▁tiger	-11.4035
▁transformative	-11.4035
▁two-thirds	-11.4035
▁useless	-11.4035
▁venture	-11.4035
▁1980	-11.4271
▁1998	-11.4271
▁accomplished	-11.4271
▁acknowledge	-11.4271
▁activate	-11.4271
▁approved	-11.4271
▁approximately	-11.4271
▁aristotle	-11.4271
▁attitudes	-11.4271
▁batteries	-11.4271
▁bedroom	-11.4271
▁belongs	-11.4271
▁broader	-11.4271
▁brooklyn	-11.4271
▁bulb	-11.4271
▁claims	-11.4271
▁clinton	-11.4271
▁cluster	-11.4271
▁coach	-11.4271
▁continuously	-11.4271
▁deception	-11.4271
▁denial	-11.4271
▁diagnosis	-11.4271
▁disagree	-11.4271
▁downtown	-11.4271
▁duck	-11.4271
▁el	-11.4271
▁emails	-11.4271
▁embarrassing	-11.4271
▁emergence	-11.4271
▁fisheries	-11.4271
▁fluorescent	-11.4271
▁funds	-11.4271
▁grades	-11.4271
▁helium	-11.4271
▁humanitarian	-11.4271
▁ill	-11.4271
▁inch	-11.4271
▁intact	-11.4271
▁intensity	-11.4271
▁item	-11.4271
▁lego	-11.4271
▁literacy	-11.4271
▁loving	-11.4271
▁ma	-11.4271
▁manner	-11.4271
▁mathematician	-11.4271
▁maximum	-11.4271
▁measurements	-11.4271
▁nevertheless	-11.4271
▁nitrogen	-11.4271
▁norms	-11.4271
▁opinions	-11.4271
▁phenomenal	-11.4271
▁pill	-11.4271
▁planetary	-11.4271
▁planted	-11.4271
▁poison	-11.4271
▁politically	-11.4271
▁promised	-11.4271
▁proposal	-11.4271
▁recommend	-11.4271
▁regard	-11.4271
▁request	-11.4271
▁reserves	-11.4271
▁right-hand	-11.4271
▁scaling	-11.4271
▁schizophrenia	-11.4271
▁seal	-11.4271
▁singapore	-11.4271
▁sperm	-11.4271
▁spreads	-11.4271
▁structural	-11.4271
▁surgeries	-11.4271
▁switzerland	-11.4271
▁teaches	-11.4271
▁texture	-11.4271
▁ties	-11.4271
▁touching	-11.4271
▁trapped	-11.4271
▁universes	-11.4271
▁virginia	-11.4271
▁visualize	-11.4271
▁winner	-11.4271
▁woods	-11.4271
▁1999	-11.4512
▁2030	-11.4512
▁abundance	-11.4512
▁alternatives	-11.4512
▁assembly	-11.4512
▁asteroids	-11.4512
▁barriers	-11.4512
▁benjamin	-11.4512
▁boundary	-11.4512
▁bulbs	-11.4512
▁carries	-11.4512
▁commodity	-11.4512
▁computational	-11.4512
▁corners	-11.4512
▁corporation	-11.4512
▁criteria	-11.4512
▁cube	-11.4512
▁cuts	-11.4512
▁cylinder	-11.4512
▁cyrus	-11.4512
▁detroit	-11.4512
▁dirt	-11.4512
▁division	-11.4512
▁documented	-11.4512
▁donors	-11.4512
▁dropping	-11.4512
▁empower	-11.4512
▁exceptions	-11.4512
▁exploit	-11.4512
▁filling	-11.4512
▁findings	-11.4512
▁foster	-11.4512
▁frightening	-11.4512
▁gandhi	-11.4512
▁glimpse	-11.4512
▁gorgeous	-11.4512
▁handful	-11.4512
▁happily	-11.4512
▁horses	-11.4512
▁hostile	-11.4512
▁intention	-11.4512
▁jones	-11.4512
▁l.a.	-11.4512
▁landing	-11.4512
▁lion	-11.4512
▁lists	-11.4512
▁logo	-11.4512
▁longevity	-11.4512
▁machinery	-11.4512
▁masses	-11.4512
▁microphone	-11.4512
▁multiply	-11.4512
▁murder	-11.4512
▁nigerian	-11.4512
▁olympics	-11.4512
▁pie	-11.4512
▁pulls	-11.4512
▁realistic	-11.4512
▁redwood	-11.4512
▁resistant	-11.4512
▁revealed	-11.4512
▁rewards	-11.4512
▁ridge	-11.4512
▁riding	-11.4512
▁scott	-11.4512
▁secretary	-11.4512
▁seventh	-11.4512
▁shoulders	-11.4512
▁shy	-11.4512
▁staring	-11.4512
▁stephen	-11.4512
▁stomach	-11.4512
▁striking	-11.4512
▁suggestion	-11.4512
▁systematically	-11.4512
▁tear	-11.4512
▁therapies	-11.4512
▁tony	-11.4512
▁twin	-11.4512
▁websites	-11.4512
▁welfare	-11.4512
▁whoever	-11.4512
▁william	-11.4512
▁48	-11.4759
▁abandoned	-11.4759
▁accelerating	-11.4759
▁answering	-11.4759
▁apps	-11.4759
▁arabia	-11.4759
▁arthur	-11.4759
▁attracted	-11.4759
▁award	-11.4759
▁bold	-11.4759
▁candidate	-11.4759
▁chronic	-11.4759
▁contribution	-11.4759
▁cooling	-11.4759
▁cooperative	-11.4759
▁creator	-11.4759
▁crossed	-11.4759
▁crows	-11.4759
▁cruel	-11.4759
▁deepest	-11.4759
▁destroying	-11.4759
▁determines	-11.4759
▁devastating	-11.4759
▁diarrhea	-11.4759
▁discussing	-11.4759
▁discussions	-11.4759
▁elegant	-11.4759
▁entry	-11.4759
▁fantasy	-11.4759
▁favorites	-11.4759
▁fence	-11.4759
▁gains	-11.4759
▁grave	-11.4759
▁hemisphere	-11.4759
▁hormones	-11.4759
▁horror	-11.4759
▁incident	-11.4759
▁indicate	-11.4759
▁informal	-11.4759
▁interpret	-11.4759
▁introduction	-11.4759
▁involve	-11.4759
▁juice	-11.4759
▁kong	-11.4759
▁labeled	-11.4759
▁laughed	-11.4759
▁livestock	-11.4759
▁mcdonald	-11.4759
▁melt	-11.4759
▁mentor	-11.4759
▁messy	-11.4759
▁mimic	-11.4759
▁ministry	-11.4759
▁minority	-11.4759
▁mushrooms	-11.4759
▁nearest	-11.4759
▁nonetheless	-11.4759
▁obese	-11.4759
▁overwhelming	-11.4759
▁paradox	-11.4759
▁periods	-11.4759
▁picks	-11.4759
▁prey	-11.4759
▁privileged	-11.4759
▁racing	-11.4759
▁reaches	-11.4759
▁regularly	-11.4759
▁repeated	-11.4759
▁representative	-11.4759
▁royal	-11.4759
▁sectors	-11.4759
▁sends	-11.4759
▁sequences	-11.4759
▁sexually	-11.4759
▁shoe	-11.4759
▁sometime	-11.4759
▁spacecraft	-11.4759
▁steven	-11.4759
▁strands	-11.4759
▁tedtalk	-11.4759
▁texts	-11.4759
▁trauma	-11.4759
▁u.k	-11.4759
▁unconscious	-11.4759
▁understands	-11.4759
▁visually	-11.4759
▁voted	-11.4759
▁watts	-11.4759
▁wishes	-11.4759
▁2020	-11.5012
▁350	-11.5012
▁55	-11.5012
▁accuracy	-11.5012
▁acquire	-11.5012
▁allies	-11.5012
▁ambitious	-11.5012
▁associate	-11.5012
▁astronomy	-11.5012
▁authentic	-11.5012
▁autistic	-11.5012
▁autonomy	-11.5012
▁blew	-11.5012
▁bullet	-11.5012
▁cables	-11.5012
▁cage	-11.5012
▁canvas	-11.5012
▁cattle	-11.5012
▁charlie	-11.5012
▁cheat	-11.5012
▁chess	-11.5012
▁christians	-11.5012
▁convicted	-11.5012
▁couples	-11.5012
▁cream	-11.5012
▁decision-making	-11.5012
▁diplomacy	-11.5012
▁disgust	-11.5012
▁dose	-11.5012
▁dough	-11.5012
▁dp	-11.5012
▁enterprise	-11.5012
▁expanded	-11.5012
▁expressed	-11.5012
▁frames	-11.5012
▁geography	-11.5012
▁grant	-11.5012
▁greece	-11.5012
▁heavily	-11.5012
▁hopeful	-11.5012
▁hopes	-11.5012
▁horizontal	-11.5012
▁iconic	-11.5012
▁imagining	-11.5012
▁immense	-11.5012
▁indus	-11.5012
▁interconnected	-11.5012
▁israeli	-11.5012
▁kevin	-11.5012
▁kidding	-11.5012
▁kidney	-11.5012
▁lebanon	-11.5012
▁logging	-11.5012
▁loose	-11.5012
▁loses	-11.5012
▁mating	-11.5012
▁meets	-11.5012
▁mesh	-11.5012
▁migration	-11.5012
▁momentum	-11.5012
▁mutations	-11.5012
▁naive	-11.5012
▁newton	-11.5012
▁nutrition	-11.5012
▁olympic	-11.5012
▁organizing	-11.5012
▁panic	-11.5012
▁parkinson	-11.5012
▁patents	-11.5012
▁pencil	-11.5012
▁pharmaceutical	-11.5012
▁pouring	-11.5012
▁preparation	-11.5012
▁prisoner	-11.5012
▁prosthetic	-11.5012
▁resist	-11.5012
▁responded	-11.5012
▁ritual	-11.5012
▁rome	-11.5012
▁rotate	-11.5012
▁sam	-11.5012
▁screaming	-11.5012
▁select	-11.5012
▁shower	-11.5012
▁sizes	-11.5012
▁smells	-11.5012
▁specialized	-11.5012
▁steam	-11.5012
▁terrific	-11.5012
▁terrified	-11.5012
▁tolerance	-11.5012
▁ton	-11.5012
▁trading	-11.5012
▁wins	-11.5012
▁youngest	-11.5012
▁150,000	-11.5271
▁1950	-11.5271
▁25,000	-11.5271
▁29	-11.5271
▁accountability	-11.5271
▁afghan	-11.5271
▁analyzed	-11.5271
▁andrew	-11.5271
▁angiogenesis	-11.5271
▁attach	-11.5271
▁belly	-11.5271
▁berkeley	-11.5271
▁bound	-11.5271
▁brands	-11.5271
▁bruno	-11.5271
▁calculus	-11.5271
▁canyon	-11.5271
▁cape	-11.5271
▁choir	-11.5271
▁commission	-11.5271
▁commons	-11.5271
▁concentrate	-11.5271
▁condoms	-11.5271
▁coordination	-11.5271
▁counter	-11.5271
▁daniel	-11.5271
▁dare	-11.5271
▁deforestation	-11.5271
▁detector	-11.5271
▁dictionaries	-11.5271
▁ed	-11.5271
▁emotionally	-11.5271
▁enforcement	-11.5271
▁fault	-11.5271
▁flavor	-11.5271
▁folding	-11.5271
▁format	-11.5271
▁frogs	-11.5271
▁girlfriend	-11.5271
▁gross	-11.5271
▁hated	-11.5271
▁heating	-11.5271
▁households	-11.5271
▁ingredient	-11.5271
▁integrate	-11.5271
▁investments	-11.5271
▁ja	-11.5271
▁jeff	-11.5271
▁kindergarten	-11.5271
▁lifted	-11.5271
▁loan	-11.5271
▁lottery	-11.5271
▁mask	-11.5271
▁matched	-11.5271
▁mozart	-11.5271
▁mumbai	-11.5271
▁mutation	-11.5271
▁negotiate	-11.5271
▁neutral	-11.5271
▁norden	-11.5271
▁overwhelmed	-11.5271
▁parachute	-11.5271
▁parasite	-11.5271
▁plates	-11.5271
▁pleased	-11.5271
▁posed	-11.5271
▁practicing	-11.5271
▁priority	-11.5271
▁professors	-11.5271
▁prototypes	-11.5271
▁reasoning	-11.5271
▁recall	-11.5271
▁rejected	-11.5271
▁renewables	-11.5271
▁rent	-11.5271
▁representing	-11.5271
▁rethink	-11.5271
▁risky	-11.5271
▁seattle	-11.5271
▁selves	-11.5271
▁separation	-11.5271
▁server	-11.5271
▁slower	-11.5271
▁squid	-11.5271
▁strip	-11.5271
▁switched	-11.5271
▁symphony	-11.5271
▁themes	-11.5271
▁thrilled	-11.5271
▁triangle	-11.5271
▁unfortunate	-11.5271
▁utterly	-11.5271
▁weigh	-11.5271
▁wet	-11.5271
▁witnessed	-11.5271
▁worthy	-11.5271
▁12,000	-11.5538
▁1984	-11.5538
▁36	-11.5538
▁abed	-11.5538
▁acids	-11.5538
▁actively	-11.5538
▁adopt	-11.5538
▁adoption	-11.5538
▁aims	-11.5538
▁alarm	-11.5538
▁alice	-11.5538
▁aliens	-11.5538
▁assumed	-11.5538
▁atlanta	-11.5538
▁atom	-11.5538
▁barrel	-11.5538
▁bathroom	-11.5538
▁blowing	-11.5538
▁borrow	-11.5538
▁burst	-11.5538
▁candidates	-11.5538
▁cared	-11.5538
▁cares	-11.5538
▁cheating	-11.5538
▁chef	-11.5538
▁chemotherapy	-11.5538
▁cholera	-11.5538
▁climbed	-11.5538
▁composition	-11.5538
▁compute	-11.5538
▁converted	-11.5538
▁cope	-11.5538
▁copies	-11.5538
▁counts	-11.5538
▁critically	-11.5538
▁delivering	-11.5538
▁desperate	-11.5538
▁destination	-11.5538
▁disasters	-11.5538
▁drum	-11.5538
▁drunk	-11.5538
▁economically	-11.5538
▁eliminate	-11.5538
▁embracing	-11.5538
▁equals	-11.5538
▁evolving	-11.5538
▁famine	-11.5538
▁foie	-11.5538
▁freezing	-11.5538
▁gras	-11.5538
▁hackers	-11.5538
▁highlight	-11.5538
▁iceland	-11.5538
▁intimate	-11.5538
▁inventor	-11.5538
▁ipod	-11.5538
▁jews	-11.5538
▁joseph	-11.5538
▁korean	-11.5538
▁liberty	-11.5538
▁lifespan	-11.5538
▁lit	-11.5538
▁marks	-11.5538
▁marrow	-11.5538
▁masters	-11.5538
▁meme	-11.5538
▁mentally	-11.5538
▁metabolism	-11.5538
▁networking	-11.5538
▁occasion	-11.5538
▁occupy	-11.5538
▁optical	-11.5538
▁pathways	-11.5538
▁philosophical	-11.5538
▁phoenix	-11.5538
▁platforms	-11.5538
▁priorities	-11.5538
▁probe	-11.5538
▁rains	-11.5538
▁raises	-11.5538
▁relativity	-11.5538
▁roofs	-11.5538
▁sarah	-11.5538
▁sculptures	-11.5538
▁shifts	-11.5538
▁shore	-11.5538
▁slice	-11.5538
▁squares	-11.5538
▁stake	-11.5538
▁tags	-11.5538
▁targeted	-11.5538
▁tedtalks	-11.5538
▁tide	-11.5538
▁tim	-11.5538
▁transported	-11.5538
▁uh	-11.5538
▁ultraviolet	-11.5538
▁unseen	-11.5538
▁usa	-11.5538
▁variable	-11.5538
▁weighs	-11.5538
▁whoa	-11.5538
▁42	-11.5812
▁60,000	-11.5812
▁accelerate	-11.5812
▁acquired	-11.5812
▁adds	-11.5812
▁airline	-11.5812
▁alongside	-11.5812
▁alphabet	-11.5812
▁archive	-11.5812
▁argued	-11.5812
▁boards	-11.5812
▁broadcast	-11.5812
▁candy	-11.5812
▁celebration	-11.5812
▁coin	-11.5812
▁columns	-11.5812
▁conduct	-11.5812
▁contributing	-11.5812
▁copenhagen	-11.5812
▁cups	-11.5812
▁damaged	-11.5812
▁deadly	-11.5812
▁default	-11.5812
▁democracies	-11.5812
▁digging	-11.5812
▁documentary	-11.5812
▁encyclopedia	-11.5812
▁enormously	-11.5812
▁everest	-11.5812
▁exotic	-11.5812
▁filters	-11.5812
▁fishermen	-11.5812
▁formal	-11.5812
▁frontier	-11.5812
▁generates	-11.5812
▁grace	-11.5812
▁greenland	-11.5812
▁guards	-11.5812
▁hawaii	-11.5812
▁ideology	-11.5812
▁implant	-11.5812
▁infant	-11.5812
▁integration	-11.5812
▁interventions	-11.5812
▁iranian	-11.5812
▁joshua	-11.5812
▁larry	-11.5812
▁losses	-11.5812
▁maintenance	-11.5812
▁non-zero-sum	-11.5812
▁offspring	-11.5812
▁pad	-11.5812
▁palestinian	-11.5812
▁pays	-11.5812
▁philosophers	-11.5812
▁pipe	-11.5812
▁planned	-11.5812
▁pour	-11.5812
▁practically	-11.5812
▁publicly	-11.5812
▁revolutions	-11.5812
▁scans	-11.5812
▁sheer	-11.5812
▁shining	-11.5812
▁shops	-11.5812
▁significance	-11.5812
▁spare	-11.5812
▁statistical	-11.5812
▁stolen	-11.5812
▁streams	-11.5812
▁symmetrical	-11.5812
▁symmetries	-11.5812
▁systematic	-11.5812
▁translator	-11.5812
▁travels	-11.5812
▁trips	-11.5812
▁trusted	-11.5812
▁vegetable	-11.5812
▁visiting	-11.5812
▁yards	-11.5812
▁achieving	-11.6094
▁acres	-11.6094
▁affairs	-11.6094
▁albert	-11.6094
▁angles	-11.6094
▁appeal	-11.6094
▁artifacts	-11.6094
▁artwork	-11.6094
▁authors	-11.6094
▁bacterium	-11.6094
▁beam	-11.6094
▁beetle	-11.6094
▁beetles	-11.6094
▁blown	-11.6094
▁catastrophic	-11.6094
▁celebrity	-11.6094
▁census	-11.6094
▁chase	-11.6094
▁collaborate	-11.6094
▁collision	-11.6094
▁compound	-11.6094
▁confronted	-11.6094
▁considering	-11.6094
▁convenient	-11.6094
▁copied	-11.6094
▁corresponds	-11.6094
▁counted	-11.6094
▁countless	-11.6094
▁crude	-11.6094
▁dancers	-11.6094
▁deaf	-11.6094
▁editor	-11.6094
▁elaborate	-11.6094
▁embarrassed	-11.6094
▁employment	-11.6094
▁entities	-11.6094
▁establish	-11.6094
▁exam	-11.6094
▁feeds	-11.6094
▁fired	-11.6094
▁firing	-11.6094
▁flights	-11.6094
▁frustration	-11.6094
▁gasoline	-11.6094
▁gestures	-11.6094
▁grains	-11.6094
▁hans	-11.6094
▁headquarters	-11.6094
▁implement	-11.6094
▁indicates	-11.6094
▁infectious	-11.6094
▁injured	-11.6094
▁innovate	-11.6094
▁install	-11.6094
▁instruction	-11.6094
▁integrity	-11.6094
▁intentions	-11.6094
▁interfaces	-11.6094
▁jerusalem	-11.6094
▁journalism	-11.6094
▁jungle	-11.6094
▁left-hand	-11.6094
▁lethal	-11.6094
▁ll	-11.6094
▁lonely	-11.6094
▁managing	-11.6094
▁mapped	-11.6094
▁mastery	-11.6094
▁membrane	-11.6094
▁mexican	-11.6094
▁millennium	-11.6094
▁monday	-11.6094
▁mud	-11.6094
▁mycelium	-11.6094
▁nasty	-11.6094
▁owners	-11.6094
▁parenting	-11.6094
▁passes	-11.6094
▁peculiar	-11.6094
▁pigeon	-11.6094
▁pipeline	-11.6094
▁pleasant	-11.6094
▁predicting	-11.6094
▁pressures	-11.6094
▁preventing	-11.6094
▁principal	-11.6094
▁producers	-11.6094
▁recognizing	-11.6094
▁refuse	-11.6094
▁replacing	-11.6094
▁reporting	-11.6094
▁republicans	-11.6094
▁returns	-11.6094
▁richest	-11.6094
▁rob	-11.6094
▁screening	-11.6094
▁sensitivity	-11.6094
▁sequencing	-11.6094
▁shorter	-11.6094
▁sierra	-11.6094
▁slope	-11.6094
▁snake	-11.6094
▁span	-11.6094
▁stewart	-11.6094
▁talents	-11.6094
▁tangible	-11.6094
▁tight	-11.6094
▁tokyo	-11.6094
▁towers	-11.6094
▁tuesday	-11.6094
▁unfair	-11.6094
▁vacation	-11.6094
▁visions	-11.6094
▁vocabulary	-11.6094
▁waited	-11.6094
▁ward	-11.6094
▁weekend	-11.6094
▁wrapped	-11.6094
▁wrist	-11.6094
▁yeast	-11.6094
▁130	-11.6384
▁1930s	-11.6384
▁1995	-11.6384
▁a.m.	-11.6384
▁abroad	-11.6384
▁absorb	-11.6384
▁accomplish	-11.6384
▁ag	-11.6384
▁altered	-11.6384
▁apes	-11.6384
▁assemble	-11.6384
▁attempts	-11.6384
▁belt	-11.6384
▁beside	-11.6384
▁canadian	-11.6384
▁caps	-11.6384
▁cardiac	-11.6384
▁catholic	-11.6384
▁charged	-11.6384
▁checking	-11.6384
▁chromosome	-11.6384
▁clarity	-11.6384
▁congestion	-11.6384
▁consuming	-11.6384
▁contained	-11.6384
▁convention	-11.6384
▁copper	-11.6384
▁decent	-11.6384
▁decides	-11.6384
▁deciding	-11.6384
▁defining	-11.6384
▁describing	-11.6384
▁desktop	-11.6384
▁disappears	-11.6384
▁dishes	-11.6384
▁disturbing	-11.6384
▁dome	-11.6384
▁ego	-11.6384
▁egyptian	-11.6384
▁encountered	-11.6384
▁endless	-11.6384
▁entrance	-11.6384
▁eternal	-11.6384
▁exhibit	-11.6384
▁explored	-11.6384
▁fatal	-11.6384
▁finishing	-11.6384
▁float	-11.6384
▁folded	-11.6384
▁gate	-11.6384
▁grabbed	-11.6384
▁grocery	-11.6384
▁habitats	-11.6384
▁hallucinations	-11.6384
▁hmm	-11.6384
▁hoped	-11.6384
▁hugely	-11.6384
▁humility	-11.6384
▁improvements	-11.6384
▁intimacy	-11.6384
▁investigation	-11.6384
▁ironic	-11.6384
▁irrational	-11.6384
▁laden	-11.6384
▁lectures	-11.6384
▁leopard	-11.6384
▁loans	-11.6384
▁lobby	-11.6384
▁log	-11.6384
▁luther	-11.6384
▁magazines	-11.6384
▁memorial	-11.6384
▁mere	-11.6384
▁millennia	-11.6384
▁mixing	-11.6384
▁netherlands	-11.6384
▁node	-11.6384
▁nonsense	-11.6384
▁obsolete	-11.6384
▁ordered	-11.6384
▁portraits	-11.6384
▁potent	-11.6384
▁prescription	-11.6384
▁programmed	-11.6384
▁projection	-11.6384
▁promoting	-11.6384
▁protest	-11.6384
▁punch	-11.6384
▁regional	-11.6384
▁responding	-11.6384
▁revenues	-11.6384
▁rolled	-11.6384
▁satisfaction	-11.6384
▁sensing	-11.6384
▁settle	-11.6384
▁shifted	-11.6384
▁simulate	-11.6384
▁sketch	-11.6384
▁spatial	-11.6384
▁spell	-11.6384
▁squeeze	-11.6384
▁stadium	-11.6384
▁sticking	-11.6384
▁sulfide	-11.6384
▁surveys	-11.6384
▁syria	-11.6384
▁tagged	-11.6384
▁tanks	-11.6384
▁texting	-11.6384
▁tomato	-11.6384
▁towns	-11.6384
▁vary	-11.6384
▁virtue	-11.6384
▁warmer	-11.6384
▁wasted	-11.6384
▁wore	-11.6384
▁wright	-11.6384
▁zoo	-11.6384
▁1,500	-11.6682
▁1900	-11.6682
▁alaska	-11.6682
▁aluminum	-11.6682
▁anesthesia	-11.6682
▁apartments	-11.6682
▁apples	-11.6682
▁appreciation	-11.6682
▁asleep	-11.6682
▁asset	-11.6682
▁assuming	-11.6682
▁authenticity	-11.6682
▁authoritarian	-11.6682
▁awe	-11.6682
▁basement	-11.6682
▁beef	-11.6682
▁behold	-11.6682
▁blessed	-11.6682
▁buses	-11.6682
▁calculation	-11.6682
▁cardboard	-11.6682
▁cart	-11.6682
▁chapters	-11.6682
▁clips	-11.6682
▁clues	-11.6682
▁coca-cola	-11.6682
▁configuration	-11.6682
▁consensus	-11.6682
▁couch	-11.6682
▁cracks	-11.6682
▁critic	-11.6682
▁daddy	-11.6682
▁danny	-11.6682
▁deficit	-11.6682
▁demo	-11.6682
▁diamonds	-11.6682
▁disabilities	-11.6682
▁disciplines	-11.6682
▁disruptive	-11.6682
▁drama	-11.6682
▁dvd	-11.6682
▁edit	-11.6682
▁editors	-11.6682
▁elevator	-11.6682
▁empowering	-11.6682
▁empowerment	-11.6682
▁equity	-11.6682
▁exercises	-11.6682
▁exponentially	-11.6682
▁farther	-11.6682
▁fever	-11.6682
▁filmed	-11.6682
▁forgive	-11.6682
▁frequencies	-11.6682
▁full-time	-11.6682
▁fungi	-11.6682
▁goodness	-11.6682
▁graphs	-11.6682
▁gravitational	-11.6682
▁greatly	-11.6682
▁guard	-11.6682
▁handed	-11.6682
▁hurricane	-11.6682
▁hybrid	-11.6682
▁implemented	-11.6682
▁inherent	-11.6682
▁inherently	-11.6682
▁instinct	-11.6682
▁investigate	-11.6682
▁judgments	-11.6682
▁jumping	-11.6682
▁junk	-11.6682
▁kennedy	-11.6682
▁kicked	-11.6682
▁laboratories	-11.6682
▁magician	-11.6682
▁mammal	-11.6682
▁manipulation	-11.6682
▁markers	-11.6682
▁melting	-11.6682
▁metals	-11.6682
▁milky	-11.6682
▁milo	-11.6682
▁mirrors	-11.6682
▁mixture	-11.6682
▁mo	-11.6682
▁modeling	-11.6682
▁monster	-11.6682
▁motivate	-11.6682
▁neanderthals	-11.6682
▁noisy	-11.6682
▁observing	-11.6682
▁orientation	-11.6682
▁participating	-11.6682
▁penalty	-11.6682
▁perspectives	-11.6682
▁pipes	-11.6682
▁portugal	-11.6682
▁pot	-11.6682
▁praying	-11.6682
▁precision	-11.6682
▁progression	-11.6682
▁reader	-11.6682
▁receptor	-11.6682
▁rehabilitation	-11.6682
▁resilient	-11.6682
▁rises	-11.6682
▁saturday	-11.6682
▁scheme	-11.6682
▁scientifically	-11.6682
▁seals	-11.6682
▁secondary	-11.6682
▁serves	-11.6682
▁shaking	-11.6682
▁shelves	-11.6682
▁slept	-11.6682
▁spiral	-11.6682
▁spray	-11.6682
▁stare	-11.6682
▁strikes	-11.6682
▁submit	-11.6682
▁surgical	-11.6682
▁surround	-11.6682
▁symbolic	-11.6682
▁talented	-11.6682
▁tar	-11.6682
▁tightly	-11.6682
▁traces	-11.6682
▁transit	-11.6682
▁uniform	-11.6682
▁verb	-11.6682
▁viewed	-11.6682
▁warrior	-11.6682
▁worm	-11.6682
▁yemen	-11.6682
▁z	-11.6682
▁1.2	-11.699
▁1.5	-11.699
▁18th	-11.699
▁accumulate	-11.699
▁activated	-11.699
▁addressing	-11.699
▁ambition	-11.699
▁anniversary	-11.699
▁applies	-11.699
▁arena	-11.699
▁arrow	-11.699
▁avatar	-11.699
▁bonds	-11.699
▁boost	-11.699
▁bottom-up	-11.699
▁bribe	-11.699
▁broccoli	-11.699
▁budgets	-11.699
▁bugs	-11.699
▁charter	-11.699
▁chasing	-11.699
▁columbia	-11.699
▁consent	-11.699
▁consists	-11.699
▁container	-11.699
▁copying	-11.699
▁correlation	-11.699
▁craig	-11.699
▁crashes	-11.699
▁delay	-11.699
▁disney	-11.699
▁displays	-11.699
▁draws	-11.699
▁drought	-11.699
▁electromagnetic	-11.699
▁elizabeth	-11.699
▁embodied	-11.699
▁ethic	-11.699
▁eve	-11.699
▁famously	-11.699
▁feminist	-11.699
▁friction	-11.699
▁frightened	-11.699
▁functioning	-11.699
▁gardens	-11.699
▁goat	-11.699
▁honored	-11.699
▁hut	-11.699
▁intriguing	-11.699
▁inventions	-11.699
▁jane	-11.699
▁jumps	-11.699
▁jupiter	-11.699
▁kansas	-11.699
▁knees	-11.699
▁lately	-11.699
▁low-cost	-11.699
▁marathon	-11.699
▁marker	-11.699
▁massively	-11.699
▁matches	-11.699
▁menu	-11.699
▁metabolic	-11.699
▁microscopic	-11.699
▁moreover	-11.699
▁mosquitos	-11.699
▁mouths	-11.699
▁multinational	-11.699
▁museums	-11.699
▁numerous	-11.699
▁owe	-11.699
▁ph	-11.699
▁playful	-11.699
▁poems	-11.699
▁poll	-11.699
▁pound	-11.699
▁prayer	-11.699
▁presidential	-11.699
▁prevalence	-11.699
▁primate	-11.699
▁processor	-11.699
▁profitable	-11.699
▁propaganda	-11.699
▁protocell	-11.699
▁psychiatric	-11.699
▁qaeda	-11.699
▁ratings	-11.699
▁real-time	-11.699
▁reflective	-11.699
▁reforms	-11.699
▁refused	-11.699
▁regulate	-11.699
▁regulations	-11.699
▁remotely	-11.699
▁renaissance	-11.699
▁responsibilities	-11.699
▁returning	-11.699
▁salary	-11.699
▁segment	-11.699
▁shoots	-11.699
▁sooner	-11.699
▁spaghetti	-11.699
▁speeds	-11.699
▁spontaneously	-11.699
▁staircase	-11.699
▁stairs	-11.699
▁stepping	-11.699
▁summarize	-11.699
▁surviving	-11.699
▁sweat	-11.699
▁sylvia	-11.699
▁tale	-11.699
▁therapist	-11.699
▁thereby	-11.699
▁thermal	-11.699
▁thinkers	-11.699
▁timing	-11.699
▁twist	-11.699
▁typing	-11.699
▁uniquely	-11.699
▁upward	-11.699
▁viable	-11.699
▁yard	-11.699
▁15,000	-11.7307
▁1994	-11.7307
▁abundant	-11.7307
▁acceptance	-11.7307
▁ak	-11.7307
▁alex	-11.7307
▁alright	-11.7307
▁analyzing	-11.7307
▁angels	-11.7307
▁assure	-11.7307
▁astronomers	-11.7307
▁bananas	-11.7307
▁bangalore	-11.7307
▁banned	-11.7307
▁baseline	-11.7307
▁beneficial	-11.7307
▁bj	-11.7307
▁boots	-11.7307
▁buddha	-11.7307
▁buttons	-11.7307
▁celebrated	-11.7307
▁chains	-11.7307
▁checks	-11.7307
▁circular	-11.7307
▁cloth	-11.7307
▁collaborators	-11.7307
▁committee	-11.7307
▁compounds	-11.7307
▁connectome	-11.7307
▁cosmos	-11.7307
▁delight	-11.7307
▁deserves	-11.7307
▁dial	-11.7307
▁disappointed	-11.7307
▁disk	-11.7307
▁dr	-11.7307
▁earning	-11.7307
▁eats	-11.7307
▁emerges	-11.7307
▁emphasize	-11.7307
▁ethics	-11.7307
▁explanations	-11.7307
▁fda	-11.7307
▁fertilizer	-11.7307
▁festival	-11.7307
▁fifty	-11.7307
▁flesh	-11.7307
▁fruits	-11.7307
▁g	-11.7307
▁galapagos	-11.7307
▁generic	-11.7307
▁gigantic	-11.7307
▁grammar	-11.7307
▁guitar	-11.7307
▁helmet	-11.7307
▁hooked	-11.7307
▁iceberg	-11.7307
▁incidentally	-11.7307
▁invitation	-11.7307
▁involving	-11.7307
▁isolation	-11.7307
▁knock	-11.7307
▁lane	-11.7307
▁lean	-11.7307
▁lewis	-11.7307
▁lighter	-11.7307
▁longest	-11.7307
▁minerals	-11.7307
▁nike	-11.7307
▁noises	-11.7307
▁norm	-11.7307
▁odor	-11.7307
▁pan	-11.7307
▁paths	-11.7307
▁patience	-11.7307
▁perceptions	-11.7307
▁physiology	-11.7307
▁pit	-11.7307
▁powerpoint	-11.7307
▁premise	-11.7307
▁presenting	-11.7307
▁pricing	-11.7307
▁primates	-11.7307
▁purchase	-11.7307
▁rays	-11.7307
▁realities	-11.7307
▁reflects	-11.7307
▁relates	-11.7307
▁replacement	-11.7307
▁routine	-11.7307
▁sahara	-11.7307
▁sang	-11.7307
▁scream	-11.7307
▁sexuality	-11.7307
▁shed	-11.7307
▁soccer	-11.7307
▁statistically	-11.7307
▁storms	-11.7307
▁stressed	-11.7307
▁substantial	-11.7307
▁sufficient	-11.7307
▁supportive	-11.7307
▁sustained	-11.7307
▁tasmanian	-11.7307
▁thailand	-11.7307
▁torture	-11.7307
▁touches	-11.7307
▁traditionally	-11.7307
▁update	-11.7307
▁vitamin	-11.7307
▁well-known	-11.7307
▁whistle	-11.7307
▁wk	-11.7307
▁20s	-11.7635
▁30s	-11.7635
▁31	-11.7635
▁8,000	-11.7635
▁96	-11.7635
▁98	-11.7635
▁accurately	-11.7635
▁adaptation	-11.7635
▁altruism	-11.7635
▁ancestor	-11.7635
▁apollo	-11.7635
▁applause	-11.7635
▁ashamed	-11.7635
▁asthma	-11.7635
▁attacking	-11.7635
▁ban	-11.7635
▁bankers	-11.7635
▁basking	-11.7635
▁bonus	-11.7635
▁brad	-11.7635
▁brush	-11.7635
▁calculating	-11.7635
▁ceos	-11.7635
▁cerebral	-11.7635
▁characteristic	-11.7635
▁chickens	-11.7635
▁chop	-11.7635
▁complaining	-11.7635
▁composed	-11.7635
▁confined	-11.7635
▁contents	-11.7635
▁crab	-11.7635
▁cuba	-11.7635
▁debris	-11.7635
▁deliberately	-11.7635
▁democrats	-11.7635
▁dependence	-11.7635
▁detected	-11.7635
▁documenting	-11.7635
▁dragonflies	-11.7635
▁dreamed	-11.7635
▁earned	-11.7635
▁easiest	-11.7635
▁endeavor	-11.7635
▁equilibrium	-11.7635
▁expense	-11.7635
▁forum	-11.7635
▁fuzzy	-11.7635
▁generosity	-11.7635
▁genuine	-11.7635
▁goliath	-11.7635
▁greeks	-11.7635
▁hatred	-11.7635
▁humble	-11.7635
▁illusions	-11.7635
▁impulse	-11.7635
▁infinity	-11.7635
▁infrared	-11.7635
▁intervene	-11.7635
▁interviewer	-11.7635
▁jefferson	-11.7635
▁jeopardy	-11.7635
▁joining	-11.7635
▁juvenile	-11.7635
▁kiss	-11.7635
▁kit	-11.7635
▁kosovo	-11.7635
▁lagos	-11.7635
▁lightning	-11.7635
▁linking	-11.7635
▁magnet	-11.7635
▁marijuana	-11.7635
▁metric	-11.7635
▁miracles	-11.7635
▁modest	-11.7635
▁needles	-11.7635
▁nick	-11.7635
▁nightmare	-11.7635
▁obsession	-11.7635
▁octopus	-11.7635
▁onstage	-11.7635
▁operated	-11.7635
▁partnerships	-11.7635
▁passions	-11.7635
▁pat	-11.7635
▁personalities	-11.7635
▁persons	-11.7635
▁piles	-11.7635
▁pity	-11.7635
▁plankton	-11.7635
▁planting	-11.7635
▁politician	-11.7635
▁pond	-11.7635
▁pose	-11.7635
▁powder	-11.7635
▁prince	-11.7635
▁processed	-11.7635
▁promises	-11.7635
▁pumps	-11.7635
▁rainforests	-11.7635
▁recognizes	-11.7635
▁register	-11.7635
▁reproduction	-11.7635
▁researching	-11.7635
▁respected	-11.7635
▁reveals	-11.7635
▁revolutionary	-11.7635
▁rover	-11.7635
▁sadness	-11.7635
▁screens	-11.7635
▁sells	-11.7635
▁shadows	-11.7635
▁shepherd	-11.7635
▁siblings	-11.7635
▁smartphone	-11.7635
▁snakes	-11.7635
▁spite	-11.7635
▁statements	-11.7635
▁stigma	-11.7635
▁stimulate	-11.7635
▁storyteller	-11.7635
▁subjective	-11.7635
▁supreme	-11.7635
▁textbook	-11.7635
▁tips	-11.7635
▁transmitted	-11.7635
▁tuned	-11.7635
▁twins	-11.7635
▁variables	-11.7635
▁venus	-11.7635
▁visitors	-11.7635
▁washed	-11.7635
▁wiped	-11.7635
▁wives	-11.7635
▁wonders	-11.7635
▁acceptable	-11.7974
▁accounting	-11.7974
▁acumen	-11.7974
▁adolescence	-11.7974
▁advocate	-11.7974
▁alike	-11.7974
▁analog	-11.7974
▁apologize	-11.7974
▁apparent	-11.7974
▁argentina	-11.7974
▁assistant	-11.7974
▁automatic	-11.7974
▁bare	-11.7974
▁basketball	-11.7974
▁beds	-11.7974
▁biases	-11.7974
▁blend	-11.7974
▁bloody	-11.7974
▁breakdown	-11.7974
▁breed	-11.7974
▁browser	-11.7974
▁buddhist	-11.7974
▁cathedral	-11.7974
▁chromosomes	-11.7974
▁cinema	-11.7974
▁codes	-11.7974
▁colorful	-11.7974
▁commonly	-11.7974
▁complain	-11.7974
▁constitution	-11.7974
▁controversy	-11.7974
▁cookie	-11.7974
▁cousin	-11.7974
▁cousins	-11.7974
▁cried	-11.7974
▁dean	-11.7974
▁denmark	-11.7974
▁diagnostic	-11.7974
▁diamond	-11.7974
▁diego	-11.7974
▁disappearing	-11.7974
▁disgusting	-11.7974
▁displaced	-11.7974
▁distorted	-11.7974
▁divine	-11.7974
▁divorce	-11.7974
▁ebay	-11.7974
▁eighth	-11.7974
▁employ	-11.7974
▁enthusiasm	-11.7974
▁entrepreneurial	-11.7974
▁equipped	-11.7974
▁examine	-11.7974
▁expectation	-11.7974
▁explode	-11.7974
▁floors	-11.7974
▁folds	-11.7974
▁friendship	-11.7974
▁frontal	-11.7974
▁frustrating	-11.7974
▁galleries	-11.7974
▁govern	-11.7974
▁guardian	-11.7974
▁guilt	-11.7974
▁hack	-11.7974
▁headline	-11.7974
▁herd	-11.7974
▁heroin	-11.7974
▁honesty	-11.7974
▁impressed	-11.7974
▁independently	-11.7974
▁individually	-11.7974
▁inform	-11.7974
▁intersection	-11.7974
▁jewelry	-11.7974
▁kilometer	-11.7974
▁lama	-11.7974
▁lap	-11.7974
▁laying	-11.7974
▁league	-11.7974
▁libraries	-11.7974
▁limestone	-11.7974
▁lips	-11.7974
▁mac	-11.7974
▁manufacture	-11.7974
▁manufacturers	-11.7974
▁mature	-11.7974
▁meditation	-11.7974
▁michelangelo	-11.7974
▁mild	-11.7974
▁millimeter	-11.7974
▁moma	-11.7974
▁montana	-11.7974
▁ms	-11.7974
▁natasha	-11.7974
▁nicely	-11.7974
▁northeast	-11.7974
▁notions	-11.7974
▁nucleus	-11.7974
▁obstacle	-11.7974
▁operates	-11.7974
▁operator	-11.7974
▁outbreak	-11.7974
▁oven	-11.7974
▁paste	-11.7974
▁patch	-11.7974
▁pathway	-11.7974
▁pedestrian	-11.7974
▁philip	-11.7974
▁pilots	-11.7974
▁port	-11.7974
▁practiced	-11.7974
▁pressing	-11.7974
▁procedures	-11.7974
▁producer	-11.7974
▁projected	-11.7974
▁purely	-11.7974
▁pursuing	-11.7974
▁quantities	-11.7974
▁questioning	-11.7974
▁rainfall	-11.7974
▁rap	-11.7974
▁recovered	-11.7974
▁refrigerator	-11.7974
▁regenerate	-11.7974
▁regulation	-11.7974
▁reinvent	-11.7974
▁remembering	-11.7974
▁rigid	-11.7974
▁rna	-11.7974
▁rockets	-11.7974
▁sections	-11.7974
▁sequenced	-11.7974
▁singer	-11.7974
▁skeptical	-11.7974
▁slight	-11.7974
▁slowing	-11.7974
▁spark	-11.7974
▁staggering	-11.7974
▁standpoint	-11.7974
▁steady	-11.7974
▁stimulation	-11.7974
▁strengths	-11.7974
▁struggled	-11.7974
▁successes	-11.7974
▁sudan	-11.7974
▁suits	-11.7974
▁supports	-11.7974
▁swedish	-11.7974
▁tattoo	-11.7974
▁temporal	-11.7974
▁thread	-11.7974
▁toss	-11.7974
▁towel	-11.7974
▁tricky	-11.7974
▁unified	-11.7974
▁viewing	-11.7974
▁voluntary	-11.7974
▁von	-11.7974
▁voters	-11.7974
▁widespread	-11.7974
▁willingness	-11.7974
▁wished	-11.7974
▁wonderfully	-11.7974
▁1991	-11.8325
▁250,000	-11.8325
▁43	-11.8325
▁acceleration	-11.8325
▁acoustic	-11.8325
▁adaptive	-11.8325
▁aggregate	-11.8325
▁alert	-11.8325
▁anatomy	-11.8325
▁arise	-11.8325
▁arrest	-11.8325
▁athletes	-11.8325
▁attend	-11.8325
▁attributes	-11.8325
▁balanced	-11.8325
▁bandwidth	-11.8325
▁benign	-11.8325
▁blocked	-11.8325
▁bluefin	-11.8325
▁bombsight	-11.8325
▁calendar	-11.8325
▁candle	-11.8325
▁careers	-11.8325
▁catastrophe	-11.8325
▁celebrating	-11.8325
▁chaotic	-11.8325
▁cigarette	-11.8325
▁coincidence	-11.8325
▁coined	-11.8325
▁collaborator	-11.8325
▁commodities	-11.8325
▁comparable	-11.8325
▁conferences	-11.8325
▁consistently	-11.8325
▁convincing	-11.8325
▁countryside	-11.8325
▁cracked	-11.8325
▁crushed	-11.8325
▁cybercriminals	-11.8325
▁d.c.	-11.8325
▁dalai	-11.8325
▁dates	-11.8325
▁daylight	-11.8325
▁declared	-11.8325
▁depths	-11.8325
▁desires	-11.8325
▁devoted	-11.8325
▁directors	-11.8325
▁distinguish	-11.8325
▁doses	-11.8325
▁doubling	-11.8325
▁edinburgh	-11.8325
▁elders	-11.8325
▁entrepreneurship	-11.8325
▁ethanol	-11.8325
▁evaluate	-11.8325
▁excess	-11.8325
▁exploded	-11.8325
▁fails	-11.8325
▁finland	-11.8325
▁firms	-11.8325
▁fixing	-11.8325
▁flexibility	-11.8325
▁fragments	-11.8325
▁gamma	-11.8325
▁gentle	-11.8325
▁globalized	-11.8325
▁glow	-11.8325
▁gosh	-11.8325
▁graduates	-11.8325
▁guinea	-11.8325
▁hairs	-11.8325
▁harmful	-11.8325
▁harness	-11.8325
▁harvesting	-11.8325
▁hence	-11.8325
▁humankind	-11.8325
▁imperative	-11.8325
▁improvise	-11.8325
▁inclusive	-11.8325
▁inject	-11.8325
▁intend	-11.8325
▁introducing	-11.8325
▁johnny	-11.8325
▁jokes	-11.8325
▁judges	-11.8325
▁ken	-11.8325
▁labels	-11.8325
▁lakes	-11.8325
▁leone	-11.8325
▁lhc	-11.8325
▁louder	-11.8325
▁louis	-11.8325
▁mama	-11.8325
▁michigan	-11.8325
▁modified	-11.8325
▁moms	-11.8325
▁monsoon	-11.8325
▁morally	-11.8325
▁multiverse	-11.8325
▁mythology	-11.8325
▁nectar	-11.8325
▁ngo	-11.8325
▁oecd	-11.8325
▁parameters	-11.8325
▁philadelphia	-11.8325
▁pin	-11.8325
▁posture	-11.8325
▁potatoes	-11.8325
▁presents	-11.8325
▁preserved	-11.8325
▁prisons	-11.8325
▁reject	-11.8325
▁relax	-11.8325
▁releases	-11.8325
▁releasing	-11.8325
▁repeatedly	-11.8325
▁rescued	-11.8325
▁retina	-11.8325
▁short-term	-11.8325
▁shrink	-11.8325
▁sidewalk	-11.8325
▁skilled	-11.8325
▁skip	-11.8325
▁slave	-11.8325
▁slaves	-11.8325
▁solo	-11.8325
▁sounded	-11.8325
▁spends	-11.8325
▁spike	-11.8325
▁spontaneous	-11.8325
▁sputnik	-11.8325
▁stealing	-11.8325
▁sticky	-11.8325
▁strangely	-11.8325
▁sucks	-11.8325
▁summary	-11.8325
▁surplus	-11.8325
▁swing	-11.8325
▁tesla	-11.8325
▁tibet	-11.8325
▁tickets	-11.8325
▁trap	-11.8325
▁tribal	-11.8325
▁truths	-11.8325
▁two-dimensional	-11.8325
▁unemployment	-11.8325
▁victory	-11.8325
▁violin	-11.8325
▁warren	-11.8325
▁wells	-11.8325
▁zimbabwe	-11.8325
▁1.3	-11.8689
▁2015	-11.8689
▁400,000	-11.8689
▁52	-11.8689
▁86	-11.8689
▁absurd	-11.8689
▁accepting	-11.8689
▁accountable	-11.8689
▁acute	-11.8689
▁agrees	-11.8689
▁alter	-11.8689
▁anytime	-11.8689
▁arbitrary	-11.8689
▁arose	-11.8689
▁articulate	-11.8689
▁assembled	-11.8689
▁astronomical	-11.8689
▁attraction	-11.8689
▁biased	-11.8689
▁biologically	-11.8689
▁blocking	-11.8689
▁blogging	-11.8689
▁boson	-11.8689
▁brick	-11.8689
▁brutal	-11.8689
▁calcium	-11.8689
▁carl	-11.8689
▁cartilage	-11.8689
▁cement	-11.8689
▁champion	-11.8689
▁checked	-11.8689
▁climbers	-11.8689
▁cocktail	-11.8689
▁coding	-11.8689
▁compressed	-11.8689
▁conductor	-11.8689
▁conscience	-11.8689
▁conservatives	-11.8689
▁consideration	-11.8689
▁contradiction	-11.8689
▁corrupt	-11.8689
▁craft	-11.8689
▁crystal	-11.8689
▁dancer	-11.8689
▁delighted	-11.8689
▁demographics	-11.8689
▁destructive	-11.8689
▁diplomat	-11.8689
▁discussed	-11.8689
▁divergence	-11.8689
▁donated	-11.8689
▁dreaming	-11.8689
▁dump	-11.8689
▁edi	-11.8689
▁educators	-11.8689
▁elbow	-11.8689
▁enhance	-11.8689
▁enlightenment	-11.8689
▁eradication	-11.8689
▁exclusive	-11.8689
▁executed	-11.8689
▁expose	-11.8689
▁f	-11.8689
▁fame	-11.8689
▁fans	-11.8689
▁fights	-11.8689
▁fossils	-11.8689
▁glaciers	-11.8689
▁glory	-11.8689
▁governor	-11.8689
▁graffiti	-11.8689
▁hacker	-11.8689
▁heck	-11.8689
▁heights	-11.8689
▁high-speed	-11.8689
▁honeybees	-11.8689
▁impaired	-11.8689
▁intrinsic	-11.8689
▁issued	-11.8689
▁jar	-11.8689
▁jaw	-11.8689
▁keith	-11.8689
▁knocked	-11.8689
▁ladder	-11.8689
▁larvae	-11.8689
▁laundry	-11.8689
▁lawn	-11.8689
▁listed	-11.8689
▁maintaining	-11.8689
▁mammography	-11.8689
▁midst	-11.8689
▁minor	-11.8689
▁missions	-11.8689
▁mysteries	-11.8689
▁namibia	-11.8689
▁nepal	-11.8689
▁ninth	-11.8689
▁noble	-11.8689
▁nsa	-11.8689
▁oops	-11.8689
▁opposition	-11.8689
▁optimize	-11.8689
▁parasites	-11.8689
▁peaks	-11.8689
▁pearl	-11.8689
▁persuade	-11.8689
▁playground	-11.8689
▁pollutants	-11.8689
▁posters	-11.8689
▁pregnancy	-11.8689
▁princeton	-11.8689
▁problematic	-11.8689
▁promising	-11.8689
▁puberty	-11.8689
▁randomness	-11.8689
▁reduces	-11.8689
▁refined	-11.8689
▁regrets	-11.8689
▁reporter	-11.8689
▁retreat	-11.8689
▁reviews	-11.8689
▁rolls	-11.8689
▁sailing	-11.8689
▁sands	-11.8689
▁sb	-11.8689
▁scanned	-11.8689
▁scope	-11.8689
▁seafood	-11.8689
▁self-assembly	-11.8689
▁sin	-11.8689
▁slowed	-11.8689
▁slum	-11.8689
▁sms	-11.8689
▁spades	-11.8689
▁spheres	-11.8689
▁spouse	-11.8689
▁squared	-11.8689
▁stamp	-11.8689
▁stunt	-11.8689
▁superior	-11.8689
▁terminal	-11.8689
▁thirdly	-11.8689
▁tracked	-11.8689
▁tweet	-11.8689
▁twenty	-11.8689
▁unacceptable	-11.8689
▁undergraduate	-11.8689
▁unemployed	-11.8689
▁upright	-11.8689
▁urgent	-11.8689
▁utility	-11.8689
▁varieties	-11.8689
▁vegas	-11.8689
▁velocity	-11.8689
▁votes	-11.8689
▁wi-fi	-11.8689
▁winners	-11.8689
▁workshop	-11.8689
▁wounded	-11.8689
▁11th	-11.9066
▁125	-11.9066
▁1945	-11.9066
▁300,000	-11.9066
▁accompanied	-11.9066
▁admire	-11.9066
▁african-american	-11.9066
▁afterward	-11.9066
▁agnostic	-11.9066
▁amateur	-11.9066
▁annoying	-11.9066
▁aquatic	-11.9066
▁aspirations	-11.9066
▁assessment	-11.9066
▁automobiles	-11.9066
▁avenue	-11.9066
▁babbage	-11.9066
▁backs	-11.9066
▁baker	-11.9066
▁banana	-11.9066
▁blade	-11.9066
▁bosnia	-11.9066
▁bounce	-11.9066
▁bucket	-11.9066
▁camels	-11.9066
▁canal	-11.9066
▁caribbean	-11.9066
▁cellphone	-11.9066
▁certainty	-11.9066
▁civilian	-11.9066
▁clapping	-11.9066
▁cleaning	-11.9066
▁commands	-11.9066
▁conceptual	-11.9066
▁conclusions	-11.9066
▁crispr	-11.9066
▁custom	-11.9066
▁declining	-11.9066
▁defeat	-11.9066
▁demanding	-11.9066
▁deploy	-11.9066
▁diagnose	-11.9066
▁differ	-11.9066
▁doug	-11.9066
▁drilling	-11.9066
▁duty	-11.9066
▁enabling	-11.9066
▁entity	-11.9066
▁envelope	-11.9066
▁environmentally	-11.9066
▁episode	-11.9066
▁erectus	-11.9066
▁explicitly	-11.9066
▁fighters	-11.9066
▁filmmaker	-11.9066
▁firmly	-11.9066
▁fog	-11.9066
▁forcing	-11.9066
▁founding	-11.9066
▁fundraising	-11.9066
▁funeral	-11.9066
▁gallon	-11.9066
▁gaze	-11.9066
▁geometric	-11.9066
▁grassroots	-11.9066
▁gratitude	-11.9066
▁ham	-11.9066
▁hamburger	-11.9066
▁happiest	-11.9066
▁harsh	-11.9066
▁heavens	-11.9066
▁heroic	-11.9066
▁hotter	-11.9066
▁humanities	-11.9066
▁hurts	-11.9066
▁illnesses	-11.9066
▁implanted	-11.9066
▁instances	-11.9066
▁inviting	-11.9066
▁irrigation	-11.9066
▁jordan	-11.9066
▁juggling	-11.9066
▁justify	-11.9066
▁kilograms	-11.9066
▁lasts	-11.9066
▁lee	-11.9066
▁liberals	-11.9066
▁liberia	-11.9066
▁likewise	-11.9066
▁limbs	-11.9066
▁literal	-11.9066
▁low-income	-11.9066
▁marked	-11.9066
▁metrics	-11.9066
▁midnight	-11.9066
▁migrate	-11.9066
▁misery	-11.9066
▁mundane	-11.9066
▁n	-11.9066
▁negotiation	-11.9066
▁neocortex	-11.9066
▁nuclei	-11.9066
▁nurturing	-11.9066
▁painter	-11.9066
▁paralysis	-11.9066
▁pervasive	-11.9066
▁pesticides	-11.9066
▁petition	-11.9066
▁photographers	-11.9066
▁pittsburgh	-11.9066
▁potato	-11.9066
▁programmer	-11.9066
▁province	-11.9066
▁punish	-11.9066
▁radar	-11.9066
▁receiver	-11.9066
▁recycle	-11.9066
▁redefine	-11.9066
▁referred	-11.9066
▁reinventing	-11.9066
▁relevance	-11.9066
▁republican	-11.9066
▁resonance	-11.9066
▁rig	-11.9066
▁ruins	-11.9066
▁russians	-11.9066
▁schooling	-11.9066
▁selective	-11.9066
▁sensible	-11.9066
▁sessions	-11.9066
▁settled	-11.9066
▁shipped	-11.9066
▁shouting	-11.9066
▁simulated	-11.9066
▁singers	-11.9066
▁skies	-11.9066
▁southeast	-11.9066
▁spaceship	-11.9066
▁specialists	-11.9066
▁spine	-11.9066
▁steer	-11.9066
▁stumbled	-11.9066
▁submitted	-11.9066
▁suburban	-11.9066
▁sunshine	-11.9066
▁survivors	-11.9066
▁taboo	-11.9066
▁taller	-11.9066
▁tastes	-11.9066
▁tedsters	-11.9066
▁thankfully	-11.9066
▁theirs	-11.9066
▁thirds	-11.9066
▁titles	-11.9066
▁tooth	-11.9066
▁tourist	-11.9066
▁unintended	-11.9066
▁unstable	-11.9066
▁urbanization	-11.9066
▁veterans	-11.9066
▁vibrating	-11.9066
▁visceral	-11.9066
▁vocal	-11.9066
▁volumes	-11.9066
▁wandering	-11.9066
▁wilson	-11.9066
▁140	-11.9459
▁2.5	-11.9459
▁abandon	-11.9459
▁accelerated	-11.9459
▁addicts	-11.9459
▁addressed	-11.9459
▁aesthetics	-11.9459
▁altogether	-11.9459
▁ambiguity	-11.9459
▁animations	-11.9459
▁antibodies	-11.9459
▁ao	-11.9459
▁appliances	-11.9459
▁appreciated	-11.9459
▁appropriately	-11.9459
▁arrows	-11.9459
▁atheist	-11.9459
▁attachment	-11.9459
▁auditorium	-11.9459
▁awake	-11.9459
▁beaches	-11.9459
▁bikes	-11.9459
▁bind	-11.9459
▁booth	-11.9459
▁broadly	-11.9459
▁bust	-11.9459
▁cabinet	-11.9459
▁cafe	-11.9459
▁caltech	-11.9459
▁campaigns	-11.9459
▁carnegie	-11.9459
▁chemist	-11.9459
▁chunk	-11.9459
▁cigarettes	-11.9459
▁circulation	-11.9459
▁cleaned	-11.9459
▁co	-11.9459
▁cognition	-11.9459
▁comprehensive	-11.9459
▁condom	-11.9459
▁continually	-11.9459
▁coordinate	-11.9459
▁cop	-11.9459
▁courts	-11.9459
▁criticism	-11.9459
▁cues	-11.9459
▁culturally	-11.9459
▁darwinian	-11.9459
▁delicate	-11.9459
▁deny	-11.9459
▁departments	-11.9459
▁developmental	-11.9459
▁digits	-11.9459
▁disconnected	-11.9459
▁discrimination	-11.9459
▁donations	-11.9459
▁dragged	-11.9459
▁drift	-11.9459
▁ease	-11.9459
▁editing	-11.9459
▁efficiently	-11.9459
▁egyptians	-11.9459
▁enters	-11.9459
▁eradicate	-11.9459
▁executive	-11.9459
▁exit	-11.9459
▁exquisite	-11.9459
▁faint	-11.9459
▁falcon	-11.9459
▁flood	-11.9459
▁flourish	-11.9459
▁forbid	-11.9459
▁franklin	-11.9459
▁gaining	-11.9459
▁genomics	-11.9459
▁georgia	-11.9459
▁grabs	-11.9459
▁grey	-11.9459
▁halls	-11.9459
▁hammer	-11.9459
▁hawking	-11.9459
▁holiday	-11.9459
▁hopeless	-11.9459
▁hotels	-11.9459
▁hung	-11.9459
▁hunters	-11.9459
▁identities	-11.9459
▁ideological	-11.9459
▁idiot	-11.9459
▁improvisation	-11.9459
▁indication	-11.9459
▁infinitely	-11.9459
▁influences	-11.9459
▁initiatives	-11.9459
▁insisted	-11.9459
▁instincts	-11.9459
▁ironically	-11.9459
▁irrelevant	-11.9459
▁jerry	-11.9459
▁kilos	-11.9459
▁kings	-11.9459
▁kyoto	-11.9459
▁lasted	-11.9459
▁launching	-11.9459
▁learns	-11.9459
▁lobe	-11.9459
▁malnutrition	-11.9459
▁manages	-11.9459
▁marvelous	-11.9459
▁matt	-11.9459
▁meaningless	-11.9459
▁mentors	-11.9459
▁mosque	-11.9459
▁mustache	-11.9459
▁mustard	-11.9459
▁mutual	-11.9459
▁myths	-11.9459
▁nanotechnology	-11.9459
▁needing	-11.9459
▁negotiating	-11.9459
▁neurogenesis	-11.9459
▁newly	-11.9459
▁nicole	-11.9459
▁non-lethal	-11.9459
▁nonviolent	-11.9459
▁obtained	-11.9459
▁organizational	-11.9459
▁packaging	-11.9459
▁palestine	-11.9459
▁paradise	-11.9459
▁pc	-11.9459
▁pennsylvania	-11.9459
▁pentagon	-11.9459
▁portable	-11.9459
▁post-conflict	-11.9459
▁pr	-11.9459
▁prefrontal	-11.9459
▁prizes	-11.9459
▁projections	-11.9459
▁quad	-11.9459
▁quietly	-11.9459
▁radius	-11.9459
▁reactors	-11.9459
▁reasonably	-11.9459
▁registered	-11.9459
▁rejection	-11.9459
▁remix	-11.9459
▁requirement	-11.9459
▁rhythms	-11.9459
▁ringing	-11.9459
▁riots	-11.9459
▁routinely	-11.9459
▁samuel	-11.9459
▁satisfied	-11.9459
▁scenarios	-11.9459
▁scotland	-11.9459
▁screw	-11.9459
▁scripts	-11.9459
▁seasons	-11.9459
▁self-esteem	-11.9459
▁settings	-11.9459
▁shout	-11.9459
▁shuttle	-11.9459
▁simon	-11.9459
▁sketches	-11.9459
▁ski	-11.9459
▁skype	-11.9459
▁snap	-11.9459
▁somalia	-11.9459
▁sought	-11.9459
▁southwest	-11.9459
▁sp	-11.9459
▁specialist	-11.9459
▁statue	-11.9459
▁stereotypes	-11.9459
▁stressful	-11.9459
▁strictly	-11.9459
▁sue	-11.9459
▁survivor	-11.9459
▁synapses	-11.9459
▁synthesis	-11.9459
▁tenth	-11.9459
▁teszler	-11.9459
▁toll	-11.9459
▁treasure	-11.9459
▁treaty	-11.9459
▁tremendously	-11.9459
▁triangles	-11.9459
▁unpredictable	-11.9459
▁ushahidi	-11.9459
▁utter	-11.9459
▁valued	-11.9459
▁vegetation	-11.9459
▁volcanic	-11.9459
▁volcano	-11.9459
▁voyage	-11.9459
▁warfare	-11.9459
▁wolfram	-11.9459
▁writes	-11.9459
▁-	-11.9867
▁1993	-11.9867
▁34	-11.9867
▁40s	-11.9867
▁450	-11.9867
▁academics	-11.9867
▁achievements	-11.9867
▁agile	-11.9867
▁alan	-11.9867
▁anxious	-11.9867
▁appearing	-11.9867
▁approval	-11.9867
▁athlete	-11.9867
▁axes	-11.9867
▁balloons	-11.9867
▁bamboo	-11.9867
▁bands	-11.9867
▁banjo	-11.9867
▁barrels	-11.9867
▁beethoven	-11.9867
▁beginnings	-11.9867
▁bench	-11.9867
▁bent	-11.9867
▁biotechnology	-11.9867
▁bitter	-11.9867
▁blast	-11.9867
▁blink	-11.9867
▁breakthroughs	-11.9867
▁bump	-11.9867
▁bumps	-11.9867
▁calculator	-11.9867
▁censorship	-11.9867
▁certified	-11.9867
▁charities	-11.9867
▁citizenship	-11.9867
▁collar	-11.9867
▁combinations	-11.9867
▁competitors	-11.9867
▁composer	-11.9867
▁confusion	-11.9867
▁contagious	-11.9867
▁contest	-11.9867
▁cooked	-11.9867
▁cooler	-11.9867
▁crashing	-11.9867
▁crawling	-11.9867
▁crowded	-11.9867
▁curator	-11.9867
▁dealt	-11.9867
▁delta	-11.9867
▁deserts	-11.9867
▁distribute	-11.9867
▁donation	-11.9867
▁drowning	-11.9867
▁dude	-11.9867
▁duration	-11.9867
▁edited	-11.9867
▁educating	-11.9867
▁embraced	-11.9867
▁entitled	-11.9867
▁envision	-11.9867
▁epidemics	-11.9867
▁everglades	-11.9867
▁excellence	-11.9867
▁explorers	-11.9867
▁fg	-11.9867
▁finite	-11.9867
▁flock	-11.9867
▁fox	-11.9867
▁francis	-11.9867
▁gallons	-11.9867
▁gifts	-11.9867
▁glucose	-11.9867
▁guaranteed	-11.9867
▁h	-11.9867
▁helpless	-11.9867
▁hg	-11.9867
▁hippocampus	-11.9867
▁histories	-11.9867
▁holocaust	-11.9867
▁horrific	-11.9867
▁icons	-11.9867
▁imaginary	-11.9867
▁industrialized	-11.9867
▁inflation	-11.9867
▁injustice	-11.9867
▁innovators	-11.9867
▁instability	-11.9867
▁intel	-11.9867
▁intrigued	-11.9867
▁intrinsically	-11.9867
▁ipad	-11.9867
▁jay	-11.9867
▁jill	-11.9867
▁ka	-11.9867
▁kibera	-11.9867
▁lenses	-11.9867
▁libya	-11.9867
▁limitation	-11.9867
▁linux	-11.9867
▁lo	-11.9867
▁loaded	-11.9867
▁loneliness	-11.9867
▁mammoth	-11.9867
▁massachusetts	-11.9867
▁meanings	-11.9867
▁metaphors	-11.9867
▁minimal	-11.9867
▁ministers	-11.9867
▁mum	-11.9867
▁nairobi	-11.9867
▁negotiations	-11.9867
▁nerd	-11.9867
▁neurological	-11.9867
▁northwest	-11.9867
▁norwegian	-11.9867
▁noticing	-11.9867
▁nurture	-11.9867
▁one-third	-11.9867
▁operational	-11.9867
▁orgasm	-11.9867
▁outdoor	-11.9867
▁p.m.	-11.9867
▁penis	-11.9867
▁pets	-11.9867
▁pioneer	-11.9867
▁placebo	-11.9867
▁pools	-11.9867
▁poorly	-11.9867
▁pop-up	-11.9867
▁pops	-11.9867
▁poses	-11.9867
▁propulsion	-11.9867
▁prospect	-11.9867
▁protective	-11.9867
▁prototyping	-11.9867
▁publication	-11.9867
▁qualified	-11.9867
▁queens	-11.9867
▁quo	-11.9867
▁quotes	-11.9867
▁redesign	-11.9867
▁repertoire	-11.9867
▁reproductive	-11.9867
▁restricted	-11.9867
▁retire	-11.9867
▁risd	-11.9867
▁roman	-11.9867
▁romance	-11.9867
▁ross	-11.9867
▁sapiens	-11.9867
▁satisfy	-11.9867
▁satisfying	-11.9867
▁scholars	-11.9867
▁scholarship	-11.9867
▁shallow	-11.9867
▁sj	-11.9867
▁slip	-11.9867
▁slogan	-11.9867
▁sovereign	-11.9867
▁streaming	-11.9867
▁strict	-11.9867
▁suggestions	-11.9867
▁sums	-11.9867
▁surprises	-11.9867
▁surroundings	-11.9867
▁susan	-11.9867
▁suspicious	-11.9867
▁swallowed	-11.9867
▁temptation	-11.9867
▁tennis	-11.9867
▁testosterone	-11.9867
▁theft	-11.9867
▁threaten	-11.9867
▁threatening	-11.9867
▁thrive	-11.9867
▁thylacine	-11.9867
▁tick	-11.9867
▁toast	-11.9867
▁toxins	-11.9867
▁transcend	-11.9867
▁triggered	-11.9867
▁tuberculosis	-11.9867
▁um	-11.9867
▁valid	-11.9867
▁variability	-11.9867
▁venezuela	-11.9867
▁venice	-11.9867
▁wage	-11.9867
▁wasting	-11.9867
▁worthwhile	-11.9867
▁x-rays	-11.9867
▁180	-12.0292
▁1968	-12.0292
▁1989	-12.0292
▁21st-century	-12.0292
▁38	-12.0292
▁900	-12.0292
▁abu	-12.0292
▁addicted	-12.0292
▁adjacent	-12.0292
▁agnes	-12.0292
▁allen	-12.0292
▁alliance	-12.0292
▁ambassador	-12.0292
▁amino	-12.0292
▁amsterdam	-12.0292
▁arrangement	-12.0292
▁assigned	-12.0292
▁auditory	-12.0292
▁automotive	-12.0292
▁beloved	-12.0292
▁bioluminescence	-12.0292
▁blows	-12.0292
▁bmw	-12.0292
▁boiling	-12.0292
▁bruce	-12.0292
▁bulk	-12.0292
▁burns	-12.0292
▁cambodia	-12.0292
▁chord	-12.0292
▁collider	-12.0292
▁coma	-12.0292
▁commandments	-12.0292
▁complained	-12.0292
▁confusing	-12.0292
▁conspiracy	-12.0292
▁contacts	-12.0292
▁contexts	-12.0292
▁contracts	-12.0292
▁convenience	-12.0292
▁corridors	-12.0292
▁courageous	-12.0292
▁creators	-12.0292
▁cubic	-12.0292
▁cultivate	-12.0292
▁cyber	-12.0292
▁dallas	-12.0292
▁darfur	-12.0292
▁darpa	-12.0292
▁day-to-day	-12.0292
▁defines	-12.0292
▁degraded	-12.0292
▁denied	-12.0292
▁desertification	-12.0292
▁detectors	-12.0292
▁developments	-12.0292
▁dining	-12.0292
▁distress	-12.0292
▁dug	-12.0292
▁dumped	-12.0292
▁edward	-12.0292
▁emergent	-12.0292
▁emily	-12.0292
▁employed	-12.0292
▁employee	-12.0292
▁envy	-12.0292
▁epiphany	-12.0292
▁equator	-12.0292
▁erosion	-12.0292
▁evaluation	-12.0292
▁execution	-12.0292
▁executives	-12.0292
▁exhausted	-12.0292
▁expands	-12.0292
▁experimenting	-12.0292
▁explorer	-12.0292
▁expressing	-12.0292
▁extensive	-12.0292
▁fatty	-12.0292
▁favelas	-12.0292
▁fictional	-12.0292
▁fingertips	-12.0292
▁flown	-12.0292
▁folk	-12.0292
▁fool	-12.0292
▁germans	-12.0292
▁germs	-12.0292
▁goats	-12.0292
▁gram	-12.0292
▁grim	-12.0292
▁grip	-12.0292
▁handy	-12.0292
▁himalayas	-12.0292
▁hint	-12.0292
▁historian	-12.0292
▁hug	-12.0292
▁hypothetical	-12.0292
▁i.q.	-12.0292
▁impose	-12.0292
▁inadequate	-12.0292
▁incomplete	-12.0292
▁indoor	-12.0292
▁injection	-12.0292
▁inmates	-12.0292
▁inputs	-12.0292
▁intangible	-12.0292
▁interviewing	-12.0292
▁investigating	-12.0292
▁jersey	-12.0292
▁jury	-12.0292
▁kidneys	-12.0292
▁kiribati	-12.0292
▁las	-12.0292
▁lazy	-12.0292
▁legally	-12.0292
▁lined	-12.0292
▁loops	-12.0292
▁manifestation	-12.0292
▁manufacturer	-12.0292
▁marcus	-12.0292
▁margins	-12.0292
▁matching	-12.0292
▁mathematically	-12.0292
▁maximize	-12.0292
▁meadow	-12.0292
▁medications	-12.0292
▁metropolitan	-12.0292
▁migraine	-12.0292
▁mind-wandering	-12.0292
▁missile	-12.0292
▁murray	-12.0292
▁observer	-12.0292
▁occupied	-12.0292
▁officers	-12.0292
▁optimal	-12.0292
▁orleans	-12.0292
▁orphanage	-12.0292
▁overlap	-12.0292
▁ozone	-12.0292
▁pancreatic	-12.0292
▁partial	-12.0292
▁personnel	-12.0292
▁peru	-12.0292
▁pirate	-12.0292
▁placing	-12.0292
▁pneumonia	-12.0292
▁poland	-12.0292
▁policing	-12.0292
▁poured	-12.0292
▁preventable	-12.0292
▁prevents	-12.0292
▁priest	-12.0292
▁prioritize	-12.0292
▁progressive	-12.0292
▁rabbits	-12.0292
▁races	-12.0292
▁railway	-12.0292
▁reagan	-12.0292
▁realizes	-12.0292
▁reflecting	-12.0292
▁replied	-12.0292
▁resolved	-12.0292
▁respiratory	-12.0292
▁retail	-12.0292
▁rl	-12.0292
▁rod	-12.0292
▁rooted	-12.0292
▁scaled	-12.0292
▁scarce	-12.0292
▁scare	-12.0292
▁schedule	-12.0292
▁sealed	-12.0292
▁sebastian	-12.0292
▁secular	-12.0292
▁shares	-12.0292
▁shells	-12.0292
▁siberia	-12.0292
▁similarities	-12.0292
▁snowden	-12.0292
▁societal	-12.0292
▁space-time	-12.0292
▁sri	-12.0292
▁starbucks	-12.0292
▁sterile	-12.0292
▁stimulus	-12.0292
▁stocks	-12.0292
▁stunts	-12.0292
▁suburbs	-12.0292
▁sydney	-12.0292
▁tagging	-12.0292
▁tales	-12.0292
▁telephones	-12.0292
▁throws	-12.0292
▁titanic	-12.0292
▁top-down	-12.0292
▁toronto	-12.0292
▁tr	-12.0292
▁trait	-12.0292
▁triple	-12.0292
▁triumph	-12.0292
▁tropics	-12.0292
▁tunisia	-12.0292
▁ucla	-12.0292
▁unity	-12.0292
▁varied	-12.0292
▁waking	-12.0292
▁wallet	-12.0292
▁weekends	-12.0292
▁weekly	-12.0292
▁whistling	-12.0292
▁wolves	-12.0292
▁worldview	-12.0292
▁yale	-12.0292
▁zipcar	-12.0292
▁15th	-12.0737
▁1996	-12.0737
▁2.0	-12.0737
▁59	-12.0737
▁absorbed	-12.0737
▁abused	-12.0737
▁abusive	-12.0737
▁adventures	-12.0737
▁aerial	-12.0737
▁appealing	-12.0737
▁arithmetic	-12.0737
▁arizona	-12.0737
▁australian	-12.0737
▁austria	-12.0737
▁avoiding	-12.0737
▁backgrounds	-12.0737
▁backward	-12.0737
▁balancing	-12.0737
▁barack	-12.0737
▁barefoot	-12.0737
▁bc	-12.0737
▁beekeepers	-12.0737
▁billboard	-12.0737
▁bioluminescent	-12.0737
▁bless	-12.0737
▁blob	-12.0737
▁brakes	-12.0737
▁buys	-12.0737
▁capacities	-12.0737
▁cardiovascular	-12.0737
▁caregivers	-12.0737
▁cartoonist	-12.0737
▁checklist	-12.0737
▁clap	-12.0737
▁clicking	-12.0737
▁clicks	-12.0737
▁cockroach	-12.0737
▁commerce	-12.0737
▁commercials	-12.0737
▁constrained	-12.0737
▁contributions	-12.0737
▁costa	-12.0737
▁costly	-12.0737
▁crank	-12.0737
▁crashed	-12.0737
▁critics	-12.0737
▁cruise	-12.0737
▁curtain	-12.0737
▁curved	-12.0737
▁cutting-edge	-12.0737
▁dam	-12.0737
▁dave	-12.0737
▁depended	-12.0737
▁developer	-12.0737
▁developers	-12.0737
▁develops	-12.0737
▁di	-12.0737
▁disconnect	-12.0737
▁dodo	-12.0737
▁dove	-12.0737
▁drinks	-12.0737
▁dunes	-12.0737
▁dylan	-12.0737
▁eliminated	-12.0737
▁emphasis	-12.0737
▁encryption	-12.0737
▁enlightened	-12.0737
▁enzyme	-12.0737
▁evan	-12.0737
▁excuses	-12.0737
▁existential	-12.0737
▁faculty	-12.0737
▁fairy	-12.0737
▁feared	-12.0737
▁fellows	-12.0737
▁fishery	-12.0737
▁flooding	-12.0737
▁fluctuations	-12.0737
▁focuses	-12.0737
▁followers	-12.0737
▁foraging	-12.0737
▁foreground	-12.0737
▁founder	-12.0737
▁freeze	-12.0737
▁gecko	-12.0737
▁geese	-12.0737
▁generator	-12.0737
▁grief	-12.0737
▁grounded	-12.0737
▁guidance	-12.0737
▁heel	-12.0737
▁highways	-12.0737
▁hitler	-12.0737
▁hubble	-12.0737
▁ideals	-12.0737
▁ikea	-12.0737
▁illustrates	-12.0737
▁illustration	-12.0737
▁im	-12.0737
▁imf	-12.0737
▁immortality	-12.0737
▁implication	-12.0737
▁inefficient	-12.0737
▁inherited	-12.0737
▁internationally	-12.0737
▁invaded	-12.0737
▁ivan	-12.0737
▁jam	-12.0737
▁jc	-12.0737
▁joyful	-12.0737
▁k	-12.0737
▁katrina	-12.0737
▁keen	-12.0737
▁kelly	-12.0737
▁l	-12.0737
▁lasting	-12.0737
▁lastly	-12.0737
▁learner	-12.0737
▁lesters	-12.0737
▁lied	-12.0737
▁literary	-12.0737
▁lure	-12.0737
▁manifest	-12.0737
▁marriages	-12.0737
▁meantime	-12.0737
▁measurement	-12.0737
▁mediterranean	-12.0737
▁melody	-12.0737
▁mermaid	-12.0737
▁mid-	-12.0737
▁mill	-12.0737
▁minimize	-12.0737
▁mm	-12.0737
▁mola	-12.0737
▁motorcycle	-12.0737
▁needless	-12.0737
▁nests	-12.0737
▁newborn	-12.0737
▁offshore	-12.0737
▁old-fashioned	-12.0737
▁olive	-12.0737
▁one-on-one	-12.0737
▁oregon	-12.0737
▁outrageous	-12.0737
▁parked	-12.0737
▁passport	-12.0737
▁paulo	-12.0737
▁pepsi	-12.0737
▁periodic	-12.0737
▁permanently	-12.0737
▁poorer	-12.0737
▁pope	-12.0737
▁popped	-12.0737
▁potter	-12.0737
▁praise	-12.0737
▁preferred	-12.0737
▁presentations	-12.0737
▁pristine	-12.0737
▁protocol	-12.0737
▁quantity	-12.0737
▁ranging	-12.0737
▁reads	-12.0737
▁rebel	-12.0737
▁reconstruct	-12.0737
▁recruited	-12.0737
▁regimes	-12.0737
▁relaxed	-12.0737
▁rendering	-12.0737
▁retired	-12.0737
▁revealing	-12.0737
▁routes	-12.0737
▁rs	-12.0737
▁ruin	-12.0737
▁sail	-12.0737
▁salmon	-12.0737
▁settlement	-12.0737
▁shaping	-12.0737
▁shrinking	-12.0737
▁smiles	-12.0737
▁spills	-12.0737
▁statistic	-12.0737
▁steering	-12.0737
▁storycorps	-12.0737
▁strains	-12.0737
▁supernova	-12.0737
▁swamp	-12.0737
▁switching	-12.0737
▁sympathy	-12.0737
▁sync	-12.0737
▁t-shirt	-12.0737
▁taiwan	-12.0737
▁tamiflu	-12.0737
▁thirty	-12.0737
▁timber	-12.0737
▁tourism	-12.0737
▁trailer	-12.0737
▁transferred	-12.0737
▁transistors	-12.0737
▁trunk	-12.0737
▁turtle	-12.0737
▁ultrasound	-12.0737
▁underway	-12.0737
▁unlock	-12.0737
▁uploaded	-12.0737
▁valve	-12.0737
▁vastly	-12.0737
▁veil	-12.0737
▁verbal	-12.0737
▁verge	-12.0737
▁vinci	-12.0737
▁virtues	-12.0737
▁vivid	-12.0737
▁wages	-12.0737
▁williams	-12.0737
▁worship	-12.0737
▁1985	-12.1202
▁1986	-12.1202
▁44	-12.1202
▁500,000	-12.1202
▁58	-12.1202
▁80,000	-12.1202
▁93	-12.1202
▁94	-12.1202
▁a-rhythm-etic	-12.1202
▁accent	-12.1202
▁accidental	-12.1202
▁accused	-12.1202
▁acknowledged	-12.1202
▁advantages	-12.1202
▁aged	-12.1202
▁algebra	-12.1202
▁amateurs	-12.1202
▁ambulance	-12.1202
▁ancestry	-12.1202
▁antenna	-12.1202
▁anticipated	-12.1202
▁aquarium	-12.1202
▁armor	-12.1202
▁arranged	-12.1202
▁artery	-12.1202
▁aspiration	-12.1202
▁ass	-12.1202
▁assign	-12.1202
▁atrazine	-12.1202
▁attempted	-12.1202
▁augmented	-12.1202
▁availability	-12.1202
▁basin	-12.1202
▁bath	-12.1202
▁battlefield	-12.1202
▁bhutan	-12.1202
▁bites	-12.1202
▁bl	-12.1202
▁bleeding	-12.1202
▁blessing	-12.1202
▁blueprint	-12.1202
▁bono	-12.1202
▁bonobos	-12.1202
▁breasts	-12.1202
▁bronze	-12.1202
▁centimeter	-12.1202
▁certificate	-12.1202
▁chalk	-12.1202
▁charcoal	-12.1202
▁chat	-12.1202
▁christ	-12.1202
▁claws	-12.1202
▁cnn	-12.1202
▁cochlear	-12.1202
▁combining	-12.1202
▁commissioned	-12.1202
▁conditioning	-12.1202
▁conducting	-12.1202
▁continuum	-12.1202
▁corresponding	-12.1202
▁crosses	-12.1202
▁crowds	-12.1202
▁cue	-12.1202
▁currents	-12.1202
▁databases	-12.1202
▁decentralized	-12.1202
▁desalination	-12.1202
▁dick	-12.1202
▁differentiate	-12.1202
▁disposal	-12.1202
▁distinctive	-12.1202
▁diver	-12.1202
▁doodling	-12.1202
▁duke	-12.1202
▁dune	-12.1202
▁easter	-12.1202
▁elevated	-12.1202
▁eliminating	-12.1202
▁embassy	-12.1202
▁en	-12.1202
▁enjoyable	-12.1202
▁eradicated	-12.1202
▁erase	-12.1202
▁establishment	-12.1202
▁estrogen	-12.1202
▁explicit	-12.1202
▁extraction	-12.1202
▁extremes	-12.1202
▁fertility	-12.1202
▁financially	-12.1202
▁fiscal	-12.1202
▁floods	-12.1202
▁fonts	-12.1202
▁forecast	-12.1202
▁fractal	-12.1202
▁freak	-12.1202
▁frequent	-12.1202
▁fulfilling	-12.1202
▁furthermore	-12.1202
▁gangs	-12.1202
▁gifted	-12.1202
▁giussani	-12.1202
▁glorious	-12.1202
▁guatemala	-12.1202
▁hadron	-12.1202
▁hats	-12.1202
▁hood	-12.1202
▁hunter	-12.1202
▁ideo	-12.1202
▁ignorant	-12.1202
▁imaginative	-12.1202
▁immensely	-12.1202
▁improves	-12.1202
▁incorporate	-12.1202
▁inexpensive	-12.1202
▁infect	-12.1202
▁ingenuity	-12.1202
▁insecure	-12.1202
▁integrating	-12.1202
▁intentional	-12.1202
▁invasive	-12.1202
▁involvement	-12.1202
▁iranians	-12.1202
▁jaws	-12.1202
▁jeans	-12.1202
▁kenyan	-12.1202
▁lakota	-12.1202
▁leds	-12.1202
▁lesbian	-12.1202
▁liberation	-12.1202
▁lump	-12.1202
▁margaret	-12.1202
▁max	-12.1202
▁medieval	-12.1202
▁methodology	-12.1202
▁middle-class	-12.1202
▁mineral	-12.1202
▁mites	-12.1202
▁monopoly	-12.1202
▁monthly	-12.1202
▁moses	-12.1202
▁muhammad	-12.1202
▁nano	-12.1202
▁navy	-12.1202
▁neanderthal	-12.1202
▁neuroscientists	-12.1202
▁norman	-12.1202
▁notation	-12.1202
▁novels	-12.1202
▁novelty	-12.1202
▁numb	-12.1202
▁overseas	-12.1202
▁overweight	-12.1202
▁owns	-12.1202
▁oxide	-12.1202
▁pads	-12.1202
▁panbanisha	-12.1202
▁peel	-12.1202
▁penetrate	-12.1202
▁photographing	-12.1202
▁poles	-12.1202
▁presumably	-12.1202
▁prevalent	-12.1202
▁promotion	-12.1202
▁psychopath	-12.1202
▁puppet	-12.1202
▁railroad	-12.1202
▁reacting	-12.1202
▁rectangle	-12.1202
▁references	-12.1202
▁regain	-12.1202
▁remembers	-12.1202
▁reminder	-12.1202
▁representatives	-12.1202
▁requests	-12.1202
▁resemble	-12.1202
▁respects	-12.1202
▁restrictions	-12.1202
▁richness	-12.1202
▁rightly	-12.1202
▁rigorous	-12.1202
▁roger	-12.1202
▁rotating	-12.1202
▁ruled	-12.1202
▁saint	-12.1202
▁sars	-12.1202
▁saves	-12.1202
▁scuba	-12.1202
▁self-organizing	-12.1202
▁senate	-12.1202
▁shield	-12.1202
▁shortage	-12.1202
▁simplistic	-12.1202
▁six-year-old	-12.1202
▁slate	-12.1202
▁slices	-12.1202
▁smartest	-12.1202
▁spirits	-12.1202
▁standardized	-12.1202
▁starvation	-12.1202
▁state-of-the-art	-12.1202
▁stated	-12.1202
▁strand	-12.1202
▁straw	-12.1202
▁stretched	-12.1202
▁substantially	-12.1202
▁supercomputer	-12.1202
▁superhero	-12.1202
▁sweeping	-12.1202
▁symptom	-12.1202
▁synesthesia	-12.1202
▁taxi	-12.1202
▁tehran	-12.1202
▁testimony	-12.1202
▁textile	-12.1202
▁thoroughly	-12.1202
▁thrust	-12.1202
▁tortured	-12.1202
▁traded	-12.1202
▁translates	-12.1202
▁tunas	-12.1202
▁turtles	-12.1202
▁tweets	-12.1202
▁underestimate	-12.1202
▁unsustainable	-12.1202
▁upwards	-12.1202
▁urine	-12.1202
▁vents	-12.1202
▁vietnamese	-12.1202
▁visualizing	-12.1202
▁volcanoes	-12.1202
▁wastewater	-12.1202
▁wipe	-12.1202
▁wiring	-12.1202
▁world-class	-12.1202
▁worries	-12.1202
▁wounds	-12.1202
▁yves	-12.1202
▁1,100	-12.169
▁1,200	-12.169
▁110	-12.169
▁12th	-12.169
▁160	-12.169
▁abnormal	-12.169
▁adequate	-12.169
▁adolescents	-12.169
▁airports	-12.169
▁analytical	-12.169
▁andy	-12.169
▁animated	-12.169
▁arc	-12.169
▁archives	-12.169
▁arises	-12.169
▁armstrong	-12.169
▁arteries	-12.169
▁assess	-12.169
▁attribute	-12.169
▁automated	-12.169
▁av	-12.169
▁aviation	-12.169
▁backed	-12.169
▁ballet	-12.169
▁banker	-12.169
▁barry	-12.169
▁basics	-12.169
▁bbc	-12.169
▁beans	-12.169
▁beats	-12.169
▁behaving	-12.169
▁boil	-12.169
▁broadcasting	-12.169
▁browsing	-12.169
▁c.	-12.169
▁cairo	-12.169
▁cameron	-12.169
▁cane	-12.169
▁capturing	-12.169
▁carved	-12.169
▁cassini	-12.169
▁catalog	-12.169
▁cc	-12.169
▁centralized	-12.169
▁charts	-12.169
▁cia	-12.169
▁circuitry	-12.169
▁cod	-12.169
▁collections	-12.169
▁colorado	-12.169
▁commentary	-12.169
▁communal	-12.169
▁compatible	-12.169
▁concerts	-12.169
▁confession	-12.169
▁containers	-12.169
▁contaminated	-12.169
▁continuity	-12.169
▁cooper	-12.169
▁correspond	-12.169
▁cosmology	-12.169
▁cost-effective	-12.169
▁crabs	-12.169
▁crawl	-12.169
▁credible	-12.169
▁criticized	-12.169
▁crystals	-12.169
▁deceased	-12.169
▁deer	-12.169
▁delete	-12.169
▁deliberate	-12.169
▁depressing	-12.169
▁derived	-12.169
▁descriptions	-12.169
▁effectiveness	-12.169
▁elder	-12.169
▁enceladus	-12.169
▁europa	-12.169
▁europeans	-12.169
▁euros	-12.169
▁exams	-12.169
▁experimenter	-12.169
▁extracellular	-12.169
▁fairness	-12.169
▁fees	-12.169
▁fertilizers	-12.169
▁filmmakers	-12.169
▁firsthand	-12.169
▁flap	-12.169
▁flickr	-12.169
▁footprints	-12.169
▁forehead	-12.169
▁fort	-12.169
▁freedoms	-12.169
▁fulfill	-12.169
▁fungus	-12.169
▁galileo	-12.169
▁gaza	-12.169
▁geek	-12.169
▁gently	-12.169
▁genuinely	-12.169
▁ghost	-12.169
▁gordon	-12.169
▁grandma	-12.169
▁guerrillas	-12.169
▁gyrus	-12.169
▁hallway	-12.169
▁helicopters	-12.169
▁hives	-12.169
▁hop	-12.169
▁humane	-12.169
▁husbands	-12.169
▁hypotheses	-12.169
▁identification	-12.169
▁identifying	-12.169
▁incomes	-12.169
▁incremental	-12.169
▁indoors	-12.169
▁inhabitants	-12.169
▁insist	-12.169
▁interference	-12.169
▁invasion	-12.169
▁inventors	-12.169
▁ivory	-12.169
▁jl	-12.169
▁julia	-12.169
▁junior	-12.169
▁kepler	-12.169
▁landfill	-12.169
▁learners	-12.169
▁lesterland	-12.169
▁lever	-12.169
▁lifelong	-12.169
▁linguistic	-12.169
▁lithium	-12.169
▁makeup	-12.169
▁maldives	-12.169
▁manipulated	-12.169
▁mantis	-12.169
▁mantra	-12.169
▁manuscript	-12.169
▁marshall	-12.169
▁measurable	-12.169
▁mentality	-12.169
▁messaging	-12.169
▁movember	-12.169
▁murdered	-12.169
▁mutually	-12.169
▁nathan	-12.169
▁neuroscientist	-12.169
▁occupation	-12.169
▁palace	-12.169
▁payload	-12.169
▁payment	-12.169
▁perceptual	-12.169
▁performances	-12.169
▁performers	-12.169
▁persist	-12.169
▁persistent	-12.169
▁pinpoint	-12.169
▁poets	-12.169
▁polite	-12.169
▁popping	-12.169
▁prayers	-12.169
▁prejudice	-12.169
▁preservation	-12.169
▁princess	-12.169
▁protects	-12.169
▁protests	-12.169
▁protocells	-12.169
▁proves	-12.169
▁proving	-12.169
▁quantitative	-12.169
▁quarters	-12.169
▁questioned	-12.169
▁racial	-12.169
▁radioactive	-12.169
▁rail	-12.169
▁recipes	-12.169
▁reed	-12.169
▁refers	-12.169
▁rendered	-12.169
▁reply	-12.169
▁responds	-12.169
▁responsive	-12.169
▁resulted	-12.169
▁retain	-12.169
▁reuse	-12.169
▁rg	-12.169
▁rift	-12.169
▁rng	-12.169
▁ron	-12.169
▁scalable	-12.169
▁scottish	-12.169
▁searches	-12.169
▁sewage	-12.169
▁signing	-12.169
▁sole	-12.169
▁sony	-12.169
▁sponsor	-12.169
▁sr	-12.169
▁stakes	-12.169
▁stereo	-12.169
▁strokes	-12.169
▁strongest	-12.169
▁submarine	-12.169
▁submersible	-12.169
▁suitable	-12.169
▁sunny	-12.169
▁supposedly	-12.169
▁surfing	-12.169
▁swap	-12.169
▁tails	-12.169
▁tattoos	-12.169
▁tedx	-12.169
▁telecommunications	-12.169
▁thumbs	-12.169
▁tigers	-12.169
▁tiniest	-12.169
▁titus	-12.169
▁tougher	-12.169
▁toyota	-12.169
▁trail	-12.169
▁transistor	-12.169
▁trek	-12.169
▁troubled	-12.169
▁trusting	-12.169
▁ts	-12.169
▁understandable	-12.169
▁unhealthy	-12.169
▁upload	-12.169
▁urgency	-12.169
▁versa	-12.169
▁vertically	-12.169
▁vicious	-12.169
▁victorian	-12.169
▁warn	-12.169
▁watches	-12.169
▁wetlands	-12.169
▁wilderness	-12.169
▁xl	-12.169
▁yields	-12.169
▁zip	-12.169
▁2,500	-12.2203
▁64	-12.2203
▁accidentally	-12.2203
▁accommodate	-12.2203
▁acquisition	-12.2203
▁activism	-12.2203
▁ai	-12.2203
▁alarming	-12.2203
▁ambiguous	-12.2203
▁angel	-12.2203
▁announce	-12.2203
▁announcement	-12.2203
▁antennae	-12.2203
▁assumes	-12.2203
▁atmospheric	-12.2203
▁bakery	-12.2203
▁basket	-12.2203
▁battles	-12.2203
▁biomimicry	-12.2203
▁biotech	-12.2203
▁bleed	-12.2203
▁boils	-12.2203
▁bonobo	-12.2203
▁bp	-12.2203
▁butt	-12.2203
▁capsule	-12.2203
▁centigrade	-12.2203
▁centimeters	-12.2203
▁cern	-12.2203
▁characterized	-12.2203
▁chariot	-12.2203
▁chewing	-12.2203
▁civilians	-12.2203
▁claimed	-12.2203
▁cliffs	-12.2203
▁cognitively	-12.2203
▁collapses	-12.2203
▁colombia	-12.2203
▁communist	-12.2203
▁competent	-12.2203
▁compose	-12.2203
▁confirm	-12.2203
▁congratulations	-12.2203
▁connecticut	-12.2203
▁containing	-12.2203
▁contributes	-12.2203
▁correlated	-12.2203
▁crises	-12.2203
▁declined	-12.2203
▁defending	-12.2203
▁degradation	-12.2203
▁destined	-12.2203
▁determination	-12.2203
▁determining	-12.2203
▁devastated	-12.2203
▁devised	-12.2203
▁devote	-12.2203
▁diagnostics	-12.2203
▁dictator	-12.2203
▁differential	-12.2203
▁difficulties	-12.2203
▁diffusion	-12.2203
▁digitize	-12.2203
▁displayed	-12.2203
▁dividing	-12.2203
▁dj	-12.2203
▁dominance	-12.2203
▁dumping	-12.2203
▁elites	-12.2203
▁empirical	-12.2203
▁enduring	-12.2203
▁enterprises	-12.2203
▁enthusiastic	-12.2203
▁enzymes	-12.2203
▁escaped	-12.2203
▁exceptional	-12.2203
▁experimentation	-12.2203
▁exploitation	-12.2203
▁explosions	-12.2203
▁export	-12.2203
▁extending	-12.2203
▁extracted	-12.2203
▁fast-forward	-12.2203
▁fibonacci	-12.2203
▁fitness	-12.2203
▁flags	-12.2203
▁flipped	-12.2203
▁flipping	-12.2203
▁flourishing	-12.2203
▁forage	-12.2203
▁foragers	-12.2203
▁foremost	-12.2203
▁fragmented	-12.2203
▁friedman	-12.2203
▁functionality	-12.2203
▁geeks	-12.2203
▁geological	-12.2203
▁giants	-12.2203
▁gloves	-12.2203
▁grandmothers	-12.2203
▁handsome	-12.2203
▁headaches	-12.2203
▁hebrew	-12.2203
▁high-resolution	-12.2203
▁hive	-12.2203
▁hosts	-12.2203
▁hudson	-12.2203
▁hygiene	-12.2203
▁ideally	-12.2203
▁illiterate	-12.2203
▁imbalance	-12.2203
▁import	-12.2203
▁improbable	-12.2203
▁innate	-12.2203
▁installations	-12.2203
▁intellect	-12.2203
▁interfere	-12.2203
▁interrupted	-12.2203
▁invade	-12.2203
▁inventing	-12.2203
▁iq	-12.2203
▁joel	-12.2203
▁julian	-12.2203
▁kindly	-12.2203
▁ks	-12.2203
▁lawrence	-12.2203
▁legos	-12.2203
▁lightweight	-12.2203
▁lining	-12.2203
▁madness	-12.2203
▁magnets	-12.2203
▁mahatma	-12.2203
▁mammogram	-12.2203
▁man-made	-12.2203
▁mattered	-12.2203
▁mechanically	-12.2203
▁merge	-12.2203
▁milliseconds	-12.2203
▁mimics	-12.2203
▁mister	-12.2203
▁mite	-12.2203
▁modes	-12.2203
▁modify	-12.2203
▁mrs.	-12.2203
▁mutant	-12.2203
▁nevada	-12.2203
▁obey	-12.2203
▁obligation	-12.2203
▁officially	-12.2203
▁oiled	-12.2203
▁orbiting	-12.2203
▁packaged	-12.2203
▁packing	-12.2203
▁partially	-12.2203
▁passengers	-12.2203
▁pathogens	-12.2203
▁payoff	-12.2203
▁performer	-12.2203
▁pies	-12.2203
▁pollination	-12.2203
▁pollinators	-12.2203
▁populated	-12.2203
▁predatory	-12.2203
▁predicts	-12.2203
▁prevented	-12.2203
▁primal	-12.2203
▁professions	-12.2203
▁profiles	-12.2203
▁providers	-12.2203
▁pulses	-12.2203
▁quoted	-12.2203
▁rage	-12.2203
▁rand	-12.2203
▁receives	-12.2203
▁recruit	-12.2203
▁regenerative	-12.2203
▁render	-12.2203
▁representations	-12.2203
▁requirements	-12.2203
▁residential	-12.2203
▁revelation	-12.2203
▁rides	-12.2203
▁rip	-12.2203
▁romo	-12.2203
▁rows	-12.2203
▁rsw	-12.2203
▁rushed	-12.2203
▁russell	-12.2203
▁sanitary	-12.2203
▁savanna	-12.2203
▁scholar	-12.2203
▁seminal	-12.2203
▁senator	-12.2203
▁sergio	-12.2203
▁serotonin	-12.2203
▁servant	-12.2203
▁severely	-12.2203
▁shook	-12.2203
▁shuffle	-12.2203
▁singular	-12.2203
▁skeletons	-12.2203
▁small-scale	-12.2203
▁soils	-12.2203
▁speeches	-12.2203
▁springs	-12.2203
▁stabilize	-12.2203
▁stand-up	-12.2203
▁steak	-12.2203
▁stole	-12.2203
▁stripped	-12.2203
▁subsequently	-12.2203
▁sucked	-12.2203
▁suitcase	-12.2203
▁swarm	-12.2203
▁switches	-12.2203
▁tahrir	-12.2203
▁technicians	-12.2203
▁tennessee	-12.2203
▁tense	-12.2203
▁tensions	-12.2203
▁thesis	-12.2203
▁thou	-12.2203
▁three-year-old	-12.2203
▁throat	-12.2203
▁time-lapse	-12.2203
▁timeline	-12.2203
▁toaster	-12.2203
▁tolerate	-12.2203
▁tops	-12.2203
▁translating	-12.2203
▁triggers	-12.2203
▁turkish	-12.2203
▁unaware	-12.2203
▁uncertain	-12.2203
▁unfamiliar	-12.2203
▁unfinished	-12.2203
▁unfold	-12.2203
▁unite	-12.2203
▁unpleasant	-12.2203
▁upgrade	-12.2203
▁vague	-12.2203
▁vibrant	-12.2203
▁viewers	-12.2203
▁visionary	-12.2203
▁wal-mart	-12.2203
▁walker	-12.2203
▁wander	-12.2203
▁warehouse	-12.2203
▁waterfall	-12.2203
▁weakness	-12.2203
▁workshops	-12.2203
▁101	-12.2744
▁10th	-12.2744
▁35,000	-12.2744
▁360	-12.2744
▁82	-12.2744
▁a.m	-12.2744
▁abalone	-12.2744
▁abstraction	-12.2744
▁accomplishment	-12.2744
▁ace	-12.2744
▁achilles	-12.2744
▁acronym	-12.2744
▁advancing	-12.2744
▁adversity	-12.2744
▁americas	-12.2744
▁anecdote	-12.2744
▁anthropologists	-12.2744
▁apparatus	-12.2744
▁arguably	-12.2744
▁ark	-12.2744
▁arrangements	-12.2744
▁arriving	-12.2744
▁astounding	-12.2744
▁astronauts	-12.2744
▁atheists	-12.2744
▁attended	-12.2744
▁auction	-12.2744
▁aunt	-12.2744
▁aura	-12.2744
▁avian	-12.2744
▁awards	-12.2744
▁babylon	-12.2744
▁backup	-12.2744
▁ballot	-12.2744
▁baltimore	-12.2744
▁beck	-12.2744
▁belonging	-12.2744
▁bending	-12.2744
▁bertie	-12.2744
▁biofuels	-12.2744
▁biography	-12.2744
▁blobs	-12.2744
▁bloggers	-12.2744
▁bombing	-12.2744
▁bookstore	-12.2744
▁booms	-12.2744
▁bothered	-12.2744
▁bullets	-12.2744
▁captures	-12.2744
▁carrot	-12.2744
▁carve	-12.2744
▁castle	-12.2744
▁causal	-12.2744
▁chapel	-12.2744
▁chunks	-12.2744
▁clarify	-12.2744
▁clash	-12.2744
▁cleaner	-12.2744
▁clinically	-12.2744
▁closet	-12.2744
▁coherent	-12.2744
▁collide	-12.2744
▁compact	-12.2744
▁conceive	-12.2744
▁concluded	-12.2744
▁cone	-12.2744
▁confirmed	-12.2744
▁confuse	-12.2744
▁contacted	-12.2744
▁conventions	-12.2744
▁convergence	-12.2744
▁cookies	-12.2744
▁counterintuitive	-12.2744
▁creatively	-12.2744
▁creepy	-12.2744
▁crocodile	-12.2744
▁crush	-12.2744
▁cuban	-12.2744
▁cult	-12.2744
▁cumulative	-12.2744
▁dads	-12.2744
▁damaging	-12.2744
▁dangers	-12.2744
▁danish	-12.2744
▁dealer	-12.2744
▁defeated	-12.2744
▁definitions	-12.2744
▁diagrams	-12.2744
▁diana	-12.2744
▁digitally	-12.2744
▁disbelief	-12.2744
▁disparate	-12.2744
▁disrupt	-12.2744
▁distracted	-12.2744
▁districts	-12.2744
▁divorced	-12.2744
▁downstairs	-12.2744
▁dreadful	-12.2744
▁dried	-12.2744
▁drip	-12.2744
▁drums	-12.2744
▁dubai	-12.2744
▁eager	-12.2744
▁eden	-12.2744
▁edible	-12.2744
▁encoded	-12.2744
▁endlessly	-12.2744
▁essay	-12.2744
▁evolves	-12.2744
▁excerpt	-12.2744
▁execute	-12.2744
▁expeditions	-12.2744
▁exposing	-12.2744
▁expressive	-12.2744
▁extends	-12.2744
▁feathers	-12.2744
▁fences	-12.2744
▁fifteen	-12.2744
▁files	-12.2744
▁filming	-12.2744
▁flames	-12.2744
▁fleet	-12.2744
▁follow-up	-12.2744
▁foxo	-12.2744
▁fraud	-12.2744
▁freeway	-12.2744
▁frontiers	-12.2744
▁funders	-12.2744
▁gadgets	-12.2744
▁galois	-12.2744
▁gears	-12.2744
▁germ	-12.2744
▁governed	-12.2744
▁greed	-12.2744
▁grounds	-12.2744
▁guessing	-12.2744
▁guidelines	-12.2744
▁handling	-12.2744
▁harlem	-12.2744
▁heartbeat	-12.2744
▁heated	-12.2744
▁holistic	-12.2744
▁hostility	-12.2744
▁hub	-12.2744
▁hyun-sook	-12.2744
▁id	-12.2744
▁illumination	-12.2744
▁imitation	-12.2744
▁immortal	-12.2744
▁implants	-12.2744
▁imposed	-12.2744
▁indicators	-12.2744
▁intricate	-12.2744
▁jacket	-12.2744
▁jackson	-12.2744
▁jazeera	-12.2744
▁jennifer	-12.2744
▁joints	-12.2744
▁josh	-12.2744
▁lamb	-12.2744
▁laughs	-12.2744
▁leaks	-12.2744
▁leveraging	-12.2744
▁levers	-12.2744
▁liberating	-12.2744
▁lifetimes	-12.2744
▁liking	-12.2744
▁lobes	-12.2744
▁locking	-12.2744
▁loser	-12.2744
▁loyalty	-12.2744
▁madagascar	-12.2744
▁mahmoud	-12.2744
▁mario	-12.2744
▁maternal	-12.2744
▁modeled	-12.2744
▁modular	-12.2744
▁mommy	-12.2744
▁monument	-12.2744
▁mortgage	-12.2744
▁motions	-12.2744
▁motivates	-12.2744
▁mounted	-12.2744
▁nation-state	-12.2744
▁notebook	-12.2744
▁nursing	-12.2744
▁oakland	-12.2744
▁oftentimes	-12.2744
▁oliver	-12.2744
▁oral	-12.2744
▁oscar	-12.2744
▁pains	-12.2744
▁pakistani	-12.2744
▁pantheon	-12.2744
▁participatory	-12.2744
▁passionately	-12.2744
▁pavilion	-12.2744
▁peanuts	-12.2744
▁peer-to-peer	-12.2744
▁pepper	-12.2744
▁periphery	-12.2744
▁personalization	-12.2744
▁petri	-12.2744
▁philippines	-12.2744
▁phrases	-12.2744
▁phthalates	-12.2744
▁pillar	-12.2744
▁pine	-12.2744
▁pitches	-12.2744
▁plotted	-12.2744
▁poetic	-12.2744
▁polls	-12.2744
▁polymer	-12.2744
▁pornography	-12.2744
▁portal	-12.2744
▁portland	-12.2744
▁posts	-12.2744
▁pragmatic	-12.2744
▁prescribe	-12.2744
▁presidents	-12.2744
▁prostitution	-12.2744
▁publisher	-12.2744
▁puppy	-12.2744
▁quicker	-12.2744
▁rachel	-12.2744
▁racism	-12.2744
▁rank	-12.2744
▁rear	-12.2744
▁relying	-12.2744
▁removing	-12.2744
▁rented	-12.2744
▁reporters	-12.2744
▁reptiles	-12.2744
▁resort	-12.2744
▁respectful	-12.2744
▁resulting	-12.2744
▁rewarded	-12.2744
▁rewarding	-12.2744
▁rhetoric	-12.2744
▁ripped	-12.2744
▁riverside	-12.2744
▁roosevelt	-12.2744
▁rosling	-12.2744
▁sandwiches	-12.2744
▁scarcity	-12.2744
▁scissors	-12.2744
▁scroll	-12.2744
▁se	-12.2744
▁secretly	-12.2744
▁sensations	-12.2744
▁separating	-12.2744
▁serial	-12.2744
▁shattered	-12.2744
▁shoreline	-12.2744
▁sideways	-12.2744
▁simulator	-12.2744
▁slaughter	-12.2744
▁snail	-12.2744
▁solomon	-12.2744
▁souls	-12.2744
▁specialize	-12.2744
▁spines	-12.2744
▁stirling	-12.2744
▁strips	-12.2744
▁subsidies	-12.2744
▁sulfur	-12.2744
▁supermarkets	-12.2744
▁supermassive	-12.2744
▁suppress	-12.2744
▁surf	-12.2744
▁surge	-12.2744
▁surrounds	-12.2744
▁survives	-12.2744
▁susceptible	-12.2744
▁swear	-12.2744
▁synthesize	-12.2744
▁thanksgiving	-12.2744
▁tilt	-12.2744
▁tofu	-12.2744
▁toothbrush	-12.2744
▁torn	-12.2744
▁transforms	-12.2744
▁traumatic	-12.2744
▁treadmill	-12.2744
▁treaties	-12.2744
▁twelve	-12.2744
▁undercover	-12.2744
▁underlies	-12.2744
▁unequal	-12.2744
▁unthinkable	-12.2744
▁uranium	-12.2744
▁vancouver	-12.2744
▁venter	-12.2744
▁verbs	-12.2744
▁vibrate	-12.2744
▁weaker	-12.2744
▁weighed	-12.2744
▁whilst	-12.2744
▁whistles	-12.2744
▁yo	-12.2744
▁yr	-12.2744
▁1918	-12.3315
▁1965	-12.3315
▁1982	-12.3315
▁1983	-12.3315
▁2013	-12.3315
▁50th	-12.3315
▁53	-12.3315
▁83	-12.3315
▁abc	-12.3315
▁accumulation	-12.3315
▁adapting	-12.3315
▁addict	-12.3315
▁admitted	-12.3315
▁adolescent	-12.3315
▁advancement	-12.3315
▁affection	-12.3315
▁alfred	-12.3315
▁announcing	-12.3315
▁annoyed	-12.3315
▁anthropology	-12.3315
▁antiangiogenic	-12.3315
▁archie	-12.3315
▁archimedes	-12.3315
▁arrange	-12.3315
▁artificially	-12.3315
▁assignments	-12.3315
▁astronaut	-12.3315
▁athletic	-12.3315
▁attendance	-12.3315
▁attending	-12.3315
▁aurora	-12.3315
▁awarded	-12.3315
▁backpack	-12.3315
▁barbara	-12.3315
▁benki	-12.3315
▁bicycles	-12.3315
▁blues	-12.3315
▁boreal	-12.3315
▁borrowed	-12.3315
▁broadband	-12.3315
▁browse	-12.3315
▁buddy	-12.3315
▁builder	-12.3315
▁cabin	-12.3315
▁carbonate	-12.3315
▁carrier	-12.3315
▁casualties	-12.3315
▁catalyst	-12.3315
▁charging	-12.3315
▁cheaply	-12.3315
▁cheated	-12.3315
▁chin	-12.3315
▁circumstance	-12.3315
▁classified	-12.3315
▁collaborating	-12.3315
▁commander	-12.3315
▁communism	-12.3315
▁compass	-12.3315
▁conception	-12.3315
▁converting	-12.3315
▁coordinated	-12.3315
▁coupled	-12.3315
▁cured	-12.3315
▁customization	-12.3315
▁dairy	-12.3315
▁dances	-12.3315
▁darker	-12.3315
▁dated	-12.3315
▁demonstrating	-12.3315
▁denser	-12.3315
▁deployment	-12.3315
▁desirable	-12.3315
▁desperation	-12.3315
▁dg	-12.3315
▁diary	-12.3315
▁dip	-12.3315
▁discomfort	-12.3315
▁dispute	-12.3315
▁disruption	-12.3315
▁distraction	-12.3315
▁dominate	-12.3315
▁doo	-12.3315
▁downloaded	-12.3315
▁downstream	-12.3315
▁drank	-12.3315
▁drifting	-12.3315
▁droughts	-12.3315
▁dysfunctional	-12.3315
▁electrode	-12.3315
▁emailed	-12.3315
▁embarrassment	-12.3315
▁embryo	-12.3315
▁embryonic	-12.3315
▁emission	-12.3315
▁emitted	-12.3315
▁encode	-12.3315
▁encrypted	-12.3315
▁enhanced	-12.3315
▁evident	-12.3315
▁excessive	-12.3315
▁exhilarating	-12.3315
▁extinctions	-12.3315
▁extracting	-12.3315
▁facilitate	-12.3315
▁fahrenheit	-12.3315
▁fascination	-12.3315
▁feminine	-12.3315
▁fills	-12.3315
▁fishes	-12.3315
▁flaws	-12.3315
▁fled	-12.3315
▁forged	-12.3315
▁forgetting	-12.3315
▁founders	-12.3315
▁ft	-12.3315
▁fulfilled	-12.3315
▁fur	-12.3315
▁gaming	-12.3315
▁gel	-12.3315
▁generalize	-12.3315
▁glowing	-12.3315
▁graham	-12.3315
▁grasses	-12.3315
▁gratification	-12.3315
▁guerrilla	-12.3315
▁guests	-12.3315
▁hacked	-12.3315
▁hears	-12.3315
▁hid	-12.3315
▁high-quality	-12.3315
▁hindu	-12.3315
▁hiring	-12.3315
▁hobby	-12.3315
▁hurry	-12.3315
▁hyperbolic	-12.3315
▁ignoring	-12.3315
▁incubator	-12.3315
▁ineffective	-12.3315
▁ingenious	-12.3315
▁inquiry	-12.3315
▁insert	-12.3315
▁instinctively	-12.3315
▁insult	-12.3315
▁intuitively	-12.3315
▁ipods	-12.3315
▁isaac	-12.3315
▁israelis	-12.3315
▁jamie	-12.3315
▁jason	-12.3315
▁jonas	-12.3315
▁jr	-12.3315
▁karl	-12.3315
▁khan	-12.3315
▁killers	-12.3315
▁kite	-12.3315
▁lacking	-12.3315
▁lasers	-12.3315
▁leak	-12.3315
▁lexicon	-12.3315
▁lousy	-12.3315
▁mandate	-12.3315
▁manipulating	-12.3315
▁manure	-12.3315
▁margin	-12.3315
▁maria	-12.3315
▁maryland	-12.3315
▁mba	-12.3315
▁melted	-12.3315
▁messed	-12.3315
▁microwave	-12.3315
▁middle-aged	-12.3315
▁miller	-12.3315
▁moisture	-12.3315
▁nail	-12.3315
▁navigation	-12.3315
▁nazi	-12.3315
▁neil	-12.3315
▁nm	-12.3315
▁nutritional	-12.3315
▁oblivious	-12.3315
▁obscure	-12.3315
▁offensive	-12.3315
▁onion	-12.3315
▁onset	-12.3315
▁orchestras	-12.3315
▁oyster	-12.3315
▁p	-12.3315
▁participant	-12.3315
▁participated	-12.3315
▁pasted	-12.3315
▁pastor	-12.3315
▁pathology	-12.3315
▁penicillin	-12.3315
▁perpetual	-12.3315
▁persistence	-12.3315
▁pessimistic	-12.3315
▁photons	-12.3315
▁photosynthesis	-12.3315
▁pillars	-12.3315
▁pioneers	-12.3315
▁plato	-12.3315
▁ponds	-12.3315
▁poop	-12.3315
▁pots	-12.3315
▁powerfully	-12.3315
▁preferences	-12.3315
▁pretending	-12.3315
▁progressively	-12.3315
▁projecting	-12.3315
▁proliferation	-12.3315
▁protocols	-12.3315
▁proudly	-12.3315
▁psychiatrist	-12.3315
▁psychiatry	-12.3315
▁puncture	-12.3315
▁puzzling	-12.3315
▁rabbi	-12.3315
▁rainwater	-12.3315
▁ram	-12.3315
▁real-world	-12.3315
▁rebuilding	-12.3315
▁reconcile	-12.3315
▁reconstructed	-12.3315
▁reconstruction	-12.3315
▁recordings	-12.3315
▁recreate	-12.3315
▁rediscover	-12.3315
▁referring	-12.3315
▁regarded	-12.3315
▁replicator	-12.3315
▁restoration	-12.3315
▁revenge	-12.3315
▁rode	-12.3315
▁rotten	-12.3315
▁rubble	-12.3315
▁salad	-12.3315
▁scaffold	-12.3315
▁scars	-12.3315
▁seasonal	-12.3315
▁seniors	-12.3315
▁seriousness	-12.3315
▁shade	-12.3315
▁shelters	-12.3315
▁shores	-12.3315
▁shortest	-12.3315
▁simplified	-12.3315
▁simplify	-12.3315
▁skiing	-12.3315
▁socket	-12.3315
▁solitary	-12.3315
▁spam	-12.3315
▁speeding	-12.3315
▁spirituality	-12.3315
▁spores	-12.3315
▁sprawl	-12.3315
▁stanley	-12.3315
▁startling	-12.3315
▁stimulated	-12.3315
▁sting	-12.3315
▁stockholm	-12.3315
▁storing	-12.3315
▁strain	-12.3315
▁strapped	-12.3315
▁styles	-12.3315
▁succeeding	-12.3315
▁suey	-12.3315
▁summed	-12.3315
▁superconductor	-12.3315
▁superpower	-12.3315
▁superstar	-12.3315
▁suspected	-12.3315
▁sweeney	-12.3315
▁tablet	-12.3315
▁technician	-12.3315
▁technologists	-12.3315
▁tedster	-12.3315
▁teens	-12.3315
▁theoretically	-12.3315
▁tin	-12.3315
▁tipping	-12.3315
▁titled	-12.3315
▁tm	-12.3315
▁tobacco	-12.3315
▁toughest	-12.3315
▁transformational	-12.3315
▁tribute	-12.3315
▁tutor	-12.3315
▁tutoring	-12.3315
▁typed	-12.3315
▁typeface	-12.3315
▁undermine	-12.3315
▁unfolding	-12.3315
▁unimaginable	-12.3315
▁unlimited	-12.3315
▁unnecessary	-12.3315
▁usda	-12.3315
▁utopian	-12.3315
▁vector	-12.3315
▁veteran	-12.3315
▁walkable	-12.3315
▁walmart	-12.3315
▁walter	-12.3315
▁waving	-12.3315
▁wax	-12.3315
▁westerners	-12.3315
▁wondrous	-12.3315
▁ze	-12.3315
▁zeros	-12.3315
▁15-year-old	-12.3921
▁1988	-12.3921
▁54	-12.3921
▁absent	-12.3921
▁academia	-12.3921
▁acted	-12.3921
▁adulthood	-12.3921
▁aerodynamic	-12.3921
▁aimed	-12.3921
▁aimee	-12.3921
▁al-qaeda	-12.3921
▁algorithmic	-12.3921
▁altruistic	-12.3921
▁amanda	-12.3921
▁animate	-12.3921
▁anticipation	-12.3921
▁apartheid	-12.3921
▁ape	-12.3921
▁arkansas	-12.3921
▁arousal	-12.3921
▁arrival	-12.3921
▁assured	-12.3921
▁astronomer	-12.3921
▁attempting	-12.3921
▁auto	-12.3921
▁automation	-12.3921
▁barbie	-12.3921
▁bases	-12.3921
▁bass	-12.3921
▁beard	-12.3921
▁believer	-12.3921
▁betting	-12.3921
▁biblical	-12.3921
▁blackberry	-12.3921
▁bloom	-12.3921
▁bombers	-12.3921
▁boomers	-12.3921
▁borrowing	-12.3921
▁botswana	-12.3921
▁boyfriend	-12.3921
▁brigades	-12.3921
▁brink	-12.3921
▁bureaucracy	-12.3921
▁butterflies	-12.3921
▁cafeteria	-12.3921
▁calculators	-12.3921
▁campaigning	-12.3921
▁cans	-12.3921
▁carol	-12.3921
▁carpenter	-12.3921
▁carriers	-12.3921
▁catches	-12.3921
▁cd	-12.3921
▁cds	-12.3921
▁centered	-12.3921
▁chad	-12.3921
▁chambers	-12.3921
▁charitable	-12.3921
▁cheapest	-12.3921
▁christopher	-12.3921
▁chuck	-12.3921
▁cochrane	-12.3921
▁collapsing	-12.3921
▁commute	-12.3921
▁comprised	-12.3921
▁concentrations	-12.3921
▁congolese	-12.3921
▁constructing	-12.3921
▁controller	-12.3921
▁conviction	-12.3921
▁copernicus	-12.3921
▁cords	-12.3921
▁criticize	-12.3921
▁crow	-12.3921
▁decoration	-12.3921
▁decreased	-12.3921
▁delusion	-12.3921
▁dictatorship	-12.3921
▁diets	-12.3921
▁diffuse	-12.3921
▁digest	-12.3921
▁diplomatic	-12.3921
▁directed	-12.3921
▁discourse	-12.3921
▁discrete	-12.3921
▁disturbed	-12.3921
▁divers	-12.3921
▁doha	-12.3921
▁donate	-12.3921
▁dragging	-12.3921
▁dragon	-12.3921
▁durable	-12.3921
▁dye	-12.3921
▁dynamically	-12.3921
▁e.	-12.3921
▁efficacy	-12.3921
▁eighty	-12.3921
▁elevation	-12.3921
▁empires	-12.3921
▁encounters	-12.3921
▁energetic	-12.3921
▁energies	-12.3921
▁exhibitions	-12.3921
▁exploding	-12.3921
▁expo	-12.3921
▁extremism	-12.3921
▁exxon	-12.3921
▁facade	-12.3921
▁face-to-face	-12.3921
▁fade	-12.3921
▁fee	-12.3921
▁festivals	-12.3921
▁fierce	-12.3921
▁finest	-12.3921
▁fingerprint	-12.3921
▁flashing	-12.3921
▁flush	-12.3921
▁focal	-12.3921
▁fooled	-12.3921
▁forgiveness	-12.3921
▁freespeech	-12.3921
▁fuck	-12.3921
▁fulfillment	-12.3921
▁gait	-12.3921
▁gando	-12.3921
▁gateway	-12.3921
▁geographical	-12.3921
▁giraffe	-12.3921
▁graves	-12.3921
▁greatness	-12.3921
▁guest	-12.3921
▁guides	-12.3921
▁guiding	-12.3921
▁guts	-12.3921
▁hamlet	-12.3921
▁harvested	-12.3921
▁headache	-12.3921
▁headphones	-12.3921
▁helix	-12.3921
▁hike	-12.3921
▁hiv-positive	-12.3921
▁hypertension	-12.3921
▁i.	-12.3921
▁ig	-12.3921
▁immigrant	-12.3921
▁immigrants	-12.3921
▁impress	-12.3921
▁impulses	-12.3921
▁inability	-12.3921
▁inappropriate	-12.3921
▁incidents	-12.3921
▁influential	-12.3921
▁inhabit	-12.3921
▁intensely	-12.3921
▁intergalactic	-12.3921
▁interrupt	-12.3921
▁intuitions	-12.3921
▁iraqi	-12.3921
▁irish	-12.3921
▁iteration	-12.3921
▁johns	-12.3921
▁journals	-12.3921
▁journeys	-12.3921
▁judaism	-12.3921
▁knives	-12.3921
▁kt	-12.3921
▁langley	-12.3921
▁lawns	-12.3921
▁left-handed	-12.3921
▁leisure	-12.3921
▁lengths	-12.3921
▁liberated	-12.3921
▁lifelike	-12.3921
▁lifting	-12.3921
▁lifts	-12.3921
▁listener	-12.3921
▁lol	-12.3921
▁lover	-12.3921
▁luke	-12.3921
▁maggots	-12.3921
▁mainframe	-12.3921
▁maintained	-12.3921
▁manufactured	-12.3921
▁masks	-12.3921
▁masterpiece	-12.3921
▁memorable	-12.3921
▁memorize	-12.3921
▁metaphorical	-12.3921
▁mic	-12.3921
▁midwest	-12.3921
▁miraculous	-12.3921
▁molas	-12.3921
▁monetary	-12.3921
▁monitors	-12.3921
▁moscow	-12.3921
▁ms.	-12.3921
▁multiplied	-12.3921
▁neglect	-12.3921
▁nine-year-old	-12.3921
▁nitric	-12.3921
▁nollywood	-12.3921
▁nuanced	-12.3921
▁ominous	-12.3921
▁oneself	-12.3921
▁oprah	-12.3921
▁optic	-12.3921
▁optics	-12.3921
▁osama	-12.3921
▁outrage	-12.3921
▁outward	-12.3921
▁overfishing	-12.3921
▁packs	-12.3921
▁parade	-12.3921
▁pardon	-12.3921
▁peanut	-12.3921
▁pedal	-12.3921
▁penny	-12.3921
▁pension	-12.3921
▁persuasive	-12.3921
▁pest	-12.3921
▁pharmaceuticals	-12.3921
▁phases	-12.3921
▁photographic	-12.3921
▁photoshop	-12.3921
▁physiological	-12.3921
▁pianist	-12.3921
▁picasso	-12.3921
▁pioneered	-12.3921
▁pisa	-12.3921
▁pleasures	-12.3921
▁plywood	-12.3921
▁policymakers	-12.3921
▁polish	-12.3921
▁postcards	-12.3921
▁premature	-12.3921
▁preserving	-12.3921
▁primordial	-12.3921
▁proceed	-12.3921
▁prone	-12.3921
▁prophet	-12.3921
▁proposing	-12.3921
▁provider	-12.3921
▁proximity	-12.3921
▁psychotic	-12.3921
▁publishers	-12.3921
▁pumping	-12.3921
▁purchasing	-12.3921
▁pushes	-12.3921
▁quarks	-12.3921
▁quiz	-12.3921
▁rainy	-12.3921
▁reacted	-12.3921
▁readily	-12.3921
▁recipient	-12.3921
▁reclaim	-12.3921
▁reconciliation	-12.3921
▁recovering	-12.3921
▁refine	-12.3921
▁reflex	-12.3921
▁reluctant	-12.3921
▁requiring	-12.3921
▁resonate	-12.3921
▁resting	-12.3921
▁restored	-12.3921
▁reviewed	-12.3921
▁rider	-12.3921
▁rockefeller	-12.3921
▁rouge	-12.3921
▁rupees	-12.3921
▁saddam	-12.3921
▁sampled	-12.3921
▁sampling	-12.3921
▁sank	-12.3921
▁satan	-12.3921
▁scaffolding	-12.3921
▁self-driving	-12.3921
▁semester	-12.3921
▁sequel	-12.3921
▁shocks	-12.3921
▁shortcut	-12.3921
▁sidewalks	-12.3921
▁skins	-12.3921
▁sliced	-12.3921
▁slick	-12.3921
▁snails	-12.3921
▁snapshot	-12.3921
▁socioeconomic	-12.3921
▁solely	-12.3921
▁solly	-12.3921
▁spikes	-12.3921
▁sponsored	-12.3921
▁spotted	-12.3921
▁stacks	-12.3921
▁stakeholders	-12.3921
▁stewardship	-12.3921
▁stratosphere	-12.3921
▁strengthen	-12.3921
▁strive	-12.3921
▁structured	-12.3921
▁struggles	-12.3921
▁substitute	-12.3921
▁sudhir	-12.3921
▁suffers	-12.3921
▁sugars	-12.3921
▁superman	-12.3921
▁suspects	-12.3921
▁sustaining	-12.3921
▁swarms	-12.3921
▁sweating	-12.3921
▁swept	-12.3921
▁synchrony	-12.3921
▁systemic	-12.3921
▁tactics	-12.3921
▁teapot	-12.3921
▁tearing	-12.3921
▁tectonic	-12.3921
▁temperate	-12.3921
▁tempting	-12.3921
▁terrestrial	-12.3921
▁thinker	-12.3921
▁three-quarters	-12.3921
▁thriving	-12.3921
▁ticking	-12.3921
▁tile	-12.3921
▁tires	-12.3921
▁tolerant	-12.3921
▁tourists	-12.3921
▁trustworthy	-12.3921
▁tucked	-12.3921
▁twisted	-12.3921
▁twists	-12.3921
▁two-way	-12.3921
▁universally	-12.3921
▁ventilation	-12.3921
▁vermeer	-12.3921
▁veterinarians	-12.3921
▁vibration	-12.3921
▁villagers	-12.3921
▁violation	-12.3921
▁virtuous	-12.3921
▁volts	-12.3921
▁voyager	-12.3921
▁warmth	-12.3921
▁warriors	-12.3921
▁watt	-12.3921
▁wavelength	-12.3921
▁wears	-12.3921
▁whereby	-12.3921
▁width	-12.3921
▁wreck	-12.3921
▁zambia	-12.3921
▁zero-sum	-12.3921
▁1.4	-12.4567
▁1969	-12.4567
▁1992	-12.4567
▁24-hour	-12.4567
▁46	-12.4567
▁600,000	-12.4567
▁9,000	-12.4567
▁accelerator	-12.4567
▁addresses	-12.4567
▁admission	-12.4567
▁admittedly	-12.4567
▁alabama	-12.4567
▁albeit	-12.4567
▁ali	-12.4567
▁aligned	-12.4567
▁alignment	-12.4567
▁alley	-12.4567
▁ambient	-12.4567
▁analogies	-12.4567
▁anthropologist	-12.4567
▁antidepressants	-12.4567
▁antidote	-12.4567
▁appointment	-12.4567
▁apprentice	-12.4567
▁arabs	-12.4567
▁aspen	-12.4567
▁associations	-12.4567
▁badge	-12.4567
▁bahamas	-12.4567
▁balances	-12.4567
▁bali	-12.4567
▁balkans	-12.4567
▁batman	-12.4567
▁bearing	-12.4567
▁beast	-12.4567
▁beaver	-12.4567
▁bells	-12.4567
▁biomedical	-12.4567
▁black-eyed	-12.4567
▁blaming	-12.4567
▁blanket	-12.4567
▁blogger	-12.4567
▁bribes	-12.4567
▁bricks	-12.4567
▁brightest	-12.4567
▁brightness	-12.4567
▁brilliance	-12.4567
▁bureau	-12.4567
▁bursts	-12.4567
▁bypass	-12.4567
▁candles	-12.4567
▁captcha	-12.4567
▁casually	-12.4567
▁champagne	-12.4567
▁coalition	-12.4567
▁cobra	-12.4567
▁cockpit	-12.4567
▁cockroaches	-12.4567
▁cohen	-12.4567
▁coins	-12.4567
▁collects	-12.4567
▁colleges	-12.4567
▁collisions	-12.4567
▁combustion	-12.4567
▁comet	-12.4567
▁commitments	-12.4567
▁complaints	-12.4567
▁complications	-12.4567
▁conflicting	-12.4567
▁confrontation	-12.4567
▁conquer	-12.4567
▁consultants	-12.4567
▁converge	-12.4567
▁cooled	-12.4567
▁counseling	-12.4567
▁counterparts	-12.4567
▁crappy	-12.4567
▁crown	-12.4567
▁crux	-12.4567
▁ct	-12.4567
▁cubicle	-12.4567
▁curiously	-12.4567
▁customized	-12.4567
▁cycling	-12.4567
▁daf-2	-12.4567
▁daunting	-12.4567
▁dedicate	-12.4567
▁deemed	-12.4567
▁demanded	-12.4567
▁dementia	-12.4567
▁demonstrations	-12.4567
▁deprivation	-12.4567
▁desks	-12.4567
▁dice	-12.4567
▁digitized	-12.4567
▁dimitri	-12.4567
▁diplomats	-12.4567
▁disclose	-12.4567
▁dismiss	-12.4567
▁dissolve	-12.4567
▁distinguished	-12.4567
▁dl	-12.4567
▁drowned	-12.4567
▁ducks	-12.4567
▁e.u.	-12.4567
▁echoes	-12.4567
▁elam	-12.4567
▁eleanor	-12.4567
▁elusive	-12.4567
▁encouragement	-12.4567
▁epic	-12.4567
▁epilepsy	-12.4567
▁evaporate	-12.4567
▁excites	-12.4567
▁financed	-12.4567
▁fins	-12.4567
▁fmri	-12.4567
▁forestry	-12.4567
▁formats	-12.4567
▁formerly	-12.4567
▁forty	-12.4567
▁forwards	-12.4567
▁framed	-12.4567
▁framing	-12.4567
▁freshwater	-12.4567
▁freud	-12.4567
▁fridge	-12.4567
▁fry	-12.4567
▁gamble	-12.4567
▁generators	-12.4567
▁geniuses	-12.4567
▁gharial	-12.4567
▁grading	-12.4567
▁guessed	-12.4567
▁gum	-12.4567
▁h5n1	-12.4567
▁hal	-12.4567
▁hands-on	-12.4567
▁heforshe	-12.4567
▁hiroshima	-12.4567
▁homeland	-12.4567
▁hopkins	-12.4567
▁hostage	-12.4567
▁hull	-12.4567
▁humidity	-12.4567
▁hump	-12.4567
▁hydrocarbons	-12.4567
▁imitate	-12.4567
▁immersed	-12.4567
▁immunity	-12.4567
▁imperfect	-12.4567
▁imposing	-12.4567
▁incidence	-12.4567
▁indicated	-12.4567
▁indicating	-12.4567
▁infants	-12.4567
▁inflate	-12.4567
▁innocence	-12.4567
▁inorganic	-12.4567
▁integral	-12.4567
▁intercept	-12.4567
▁investigative	-12.4567
▁ion	-12.4567
▁irregular	-12.4567
▁jarrett	-12.4567
▁jets	-12.4567
▁jimmy	-12.4567
▁joins	-12.4567
▁juan	-12.4567
▁judged	-12.4567
▁judging	-12.4567
▁julie	-12.4567
▁kabul	-12.4567
▁kanzi	-12.4567
▁kentucky	-12.4567
▁latter	-12.4567
▁lava	-12.4567
▁le	-12.4567
▁leo	-12.4567
▁leukemia	-12.4567
▁licensed	-12.4567
▁litigation	-12.4567
▁logically	-12.4567
▁logistics	-12.4567
▁lymph	-12.4567
▁maize	-12.4567
▁malignant	-12.4567
▁manuscripts	-12.4567
▁marble	-12.4567
▁marvel	-12.4567
▁maslow	-12.4567
▁massage	-12.4567
▁mates	-12.4567
▁maths	-12.4567
▁matthew	-12.4567
▁membranes	-12.4567
▁mercy	-12.4567
▁messing	-12.4567
▁miami	-12.4567
▁mighty	-12.4567
▁migrated	-12.4567
▁minnesota	-12.4567
▁misses	-12.4567
▁mississippi	-12.4567
▁misunderstood	-12.4567
▁mobilize	-12.4567
▁momentous	-12.4567
▁monitored	-12.4567
▁monsters	-12.4567
▁mop	-12.4567
▁mortal	-12.4567
▁motivating	-12.4567
▁nanoscale	-12.4567
▁nanotubes	-12.4567
▁neighboring	-12.4567
▁nerdy	-12.4567
▁neurologic	-12.4567
▁nickname	-12.4567
▁noah	-12.4567
▁non-profit	-12.4567
▁nonviolence	-12.4567
▁noted	-12.4567
▁nut	-12.4567
▁occasional	-12.4567
▁off-the-shelf	-12.4567
▁opaque	-12.4567
▁openly	-12.4567
▁operators	-12.4567
▁optimist	-12.4567
▁orangutan	-12.4567
▁outdated	-12.4567
▁packets	-12.4567
▁palestinians	-12.4567
▁paragraph	-12.4567
▁peek	-12.4567
▁pigmentation	-12.4567
▁pigmented	-12.4567
▁pinnacle	-12.4567
▁pioneering	-12.4567
▁pipa	-12.4567
▁pissed	-12.4567
▁pits	-12.4567
▁pixel	-12.4567
▁planners	-12.4567
▁popcorn	-12.4567
▁porn	-12.4567
▁positively	-12.4567
▁posting	-12.4567
▁preference	-12.4567
▁priests	-12.4567
▁problem-solving	-12.4567
▁processors	-12.4567
▁programmable	-12.4567
▁projector	-12.4567
▁prominent	-12.4567
▁propelled	-12.4567
▁proportional	-12.4567
▁protesters	-12.4567
▁protons	-12.4567
▁proxy	-12.4567
▁psyche	-12.4567
▁psychiatrists	-12.4567
▁psychologically	-12.4567
▁punished	-12.4567
▁purchases	-12.4567
▁qatar	-12.4567
▁queue	-12.4567
▁rainbow	-12.4567
▁rang	-12.4567
▁ranges	-12.4567
▁reception	-12.4567
▁rehearsal	-12.4567
▁relational	-12.4567
▁relies	-12.4567
▁relieved	-12.4567
▁repeating	-12.4567
▁repetitive	-12.4567
▁replicated	-12.4567
▁ronald	-12.4567
▁roommate	-12.4567
▁ropes	-12.4567
▁roughness	-12.4567
▁rounds	-12.4567
▁rovers	-12.4567
▁ruined	-12.4567
▁ruler	-12.4567
▁sally	-12.4567
▁sanctuary	-12.4567
▁sane	-12.4567
▁saturated	-12.4567
▁scheduled	-12.4567
▁searched	-12.4567
▁secrecy	-12.4567
▁sediment	-12.4567
▁self-organization	-12.4567
▁servers	-12.4567
▁settlements	-12.4567
▁shiny	-12.4567
▁sighted	-12.4567
▁similarity	-12.4567
▁sioux	-12.4567
▁skeptics	-12.4567
▁slam	-12.4567
▁sneak	-12.4567
▁sopa	-12.4567
▁specimens	-12.4567
▁speculation	-12.4567
▁stacked	-12.4567
▁starving	-12.4567
▁studios	-12.4567
▁stunned	-12.4567
▁subconscious	-12.4567
▁subset	-12.4567
▁substances	-12.4567
▁suburbia	-12.4567
▁sued	-12.4567
▁suite	-12.4567
▁supernovae	-12.4567
▁susie	-12.4567
▁swallow	-12.4567
▁swine	-12.4567
▁sword	-12.4567
▁synchronize	-12.4567
▁t.b.	-12.4567
▁taped	-12.4567
▁tasted	-12.4567
▁teamed	-12.4567
▁teddy	-12.4567
▁thoughtful	-12.4567
▁thursday	-12.4567
▁thylacines	-12.4567
▁tinkering	-12.4567
▁toolbox	-12.4567
▁trade-offs	-12.4567
▁trafficking	-12.4567
▁tragically	-12.4567
▁transfers	-12.4567
▁transformations	-12.4567
▁troubling	-12.4567
▁trunks	-12.4567
▁tunnels	-12.4567
▁turing	-12.4567
▁ubuntu	-12.4567
▁uk	-12.4567
▁uncles	-12.4567
▁uncover	-12.4567
▁underwear	-12.4567
▁unexplored	-12.4567
▁vaginas	-12.4567
▁valleys	-12.4567
▁verse	-12.4567
▁vibrations	-12.4567
▁vienna	-12.4567
▁visuals	-12.4567
▁vividly	-12.4567
▁vodka	-12.4567
▁wasteful	-12.4567
▁webcam	-12.4567
▁weibo	-12.4567
▁welcomed	-12.4567
▁withstand	-12.4567
▁worn	-12.4567
▁yelling	-12.4567
▁yo-yo	-12.4567
▁yoga	-12.4567
▁10-year-old	-12.5257
▁13th	-12.5257
▁14th	-12.5257
▁1949	-12.5257
▁1962	-12.5257
▁39	-12.5257
▁404	-12.5257
▁56	-12.5257
▁89	-12.5257
▁accumulating	-12.5257
▁activation	-12.5257
▁adhd	-12.5257
▁adjusted	-12.5257
▁administrative	-12.5257
▁advertise	-12.5257
▁advise	-12.5257
▁advocacy	-12.5257
▁advocating	-12.5257
▁aftermath	-12.5257
▁aisle	-12.5257
▁align	-12.5257
▁all-time	-12.5257
▁amplify	-12.5257
▁android	-12.5257
▁aroused	-12.5257
▁arrives	-12.5257
▁arrogant	-12.5257
▁artifact	-12.5257
▁asphalt	-12.5257
▁aspire	-12.5257
▁attorney	-12.5257
▁attracting	-12.5257
▁austin	-12.5257
▁autonomously	-12.5257
▁ba	-12.5257
▁ballast	-12.5257
▁bark	-12.5257
▁batch	-12.5257
▁beams	-12.5257
▁bedrock	-12.5257
▁behaves	-12.5257
▁bends	-12.5257
▁bihar	-12.5257
▁billy	-12.5257
▁blamed	-12.5257
▁blinded	-12.5257
▁blur	-12.5257
▁bomber	-12.5257
▁boot	-12.5257
▁braille	-12.5257
▁branching	-12.5257
▁broadmoor	-12.5257
▁built-in	-12.5257
▁burial	-12.5257
▁butter	-12.5257
▁buzz	-12.5257
▁capitalist	-12.5257
▁carter	-12.5257
▁cartoonists	-12.5257
▁casual	-12.5257
▁celestial	-12.5257
▁ceramics	-12.5257
▁cereal	-12.5257
▁chairman	-12.5257
▁charming	-12.5257
▁chicks	-12.5257
▁chiefs	-12.5257
▁classification	-12.5257
▁classmates	-12.5257
▁cleveland	-12.5257
▁cloned	-12.5257
▁close-up	-12.5257
▁collector	-12.5257
▁commandment	-12.5257
▁companion	-12.5257
▁compelled	-12.5257
▁competence	-12.5257
▁concentrating	-12.5257
▁conductive	-12.5257
▁congressional	-12.5257
▁considerably	-12.5257
▁constructive	-12.5257
▁contemplate	-12.5257
▁contractor	-12.5257
▁contradictions	-12.5257
▁conversely	-12.5257
▁costing	-12.5257
▁coup	-12.5257
▁courtyard	-12.5257
▁cpu	-12.5257
▁crane	-12.5257
▁crochet	-12.5257
▁cures	-12.5257
▁curtains	-12.5257
▁cymatics	-12.5257
▁danced	-12.5257
▁daytime	-12.5257
▁deadline	-12.5257
▁defy	-12.5257
▁degrading	-12.5257
▁delivers	-12.5257
▁den	-12.5257
▁dengue	-12.5257
▁denominator	-12.5257
▁dentist	-12.5257
▁derive	-12.5257
▁descendants	-12.5257
▁dials	-12.5257
▁disastrous	-12.5257
▁discarded	-12.5257
▁discriminate	-12.5257
▁dispersed	-12.5257
▁dividend	-12.5257
▁downhill	-12.5257
▁drain	-12.5257
▁drake	-12.5257
▁e8	-12.5257
▁earth-like	-12.5257
▁earthquakes	-12.5257
▁echo	-12.5257
▁ecologist	-12.5257
▁eeg	-12.5257
▁embodiment	-12.5257
▁emit	-12.5257
▁employer	-12.5257
▁employers	-12.5257
▁encourages	-12.5257
▁entertaining	-12.5257
▁environmentalists	-12.5257
▁exchanges	-12.5257
▁exclusively	-12.5257
▁exports	-12.5257
▁expresses	-12.5257
▁extremists	-12.5257
▁faiths	-12.5257
▁fearless	-12.5257
▁filed	-12.5257
▁firemen	-12.5257
▁fission	-12.5257
▁five-year-old	-12.5257
▁flame	-12.5257
▁flour	-12.5257
▁flowering	-12.5257
▁fluent	-12.5257
▁fluids	-12.5257
▁flutes	-12.5257
▁folder	-12.5257
▁forbidden	-12.5257
▁fountain	-12.5257
▁freaked	-12.5257
▁fred	-12.5257
▁futures	-12.5257
▁galvao	-12.5257
▁gamers	-12.5257
▁gardening	-12.5257
▁gary	-12.5257
▁gehry	-12.5257
▁genesis	-12.5257
▁geneva	-12.5257
▁genomic	-12.5257
▁geology	-12.5257
▁glenn	-12.5257
▁grabbing	-12.5257
▁graduation	-12.5257
▁grapes	-12.5257
▁grassland	-12.5257
▁grasslands	-12.5257
▁gratefulness	-12.5257
▁grove	-12.5257
▁growers	-12.5257
▁gyre	-12.5257
▁handwashing	-12.5257
▁hardwired	-12.5257
▁heterosexual	-12.5257
▁highlands	-12.5257
▁historians	-12.5257
▁hockey	-12.5257
▁hooks	-12.5257
▁horribly	-12.5257
▁hummingbird	-12.5257
▁humpback	-12.5257
▁hungarian	-12.5257
▁hurdles	-12.5257
▁hussein	-12.5257
▁idealism	-12.5257
▁imaginations	-12.5257
▁immersion	-12.5257
▁immersive	-12.5257
▁implementation	-12.5257
▁implicit	-12.5257
▁imprisoned	-12.5257
▁inconsistent	-12.5257
▁indirectly	-12.5257
▁initiated	-12.5257
▁injected	-12.5257
▁injecting	-12.5257
▁insignificant	-12.5257
▁instructor	-12.5257
▁intentionally	-12.5257
▁interacts	-12.5257
▁interstate	-12.5257
▁interval	-12.5257
▁intractable	-12.5257
▁invisibility	-12.5257
▁iv	-12.5257
▁jacques	-12.5257
▁jelly	-12.5257
▁joey	-12.5257
▁joking	-12.5257
▁julius	-12.5257
▁khmer	-12.5257
▁kissing	-12.5257
▁lanka	-12.5257
▁latitude	-12.5257
▁laureates	-12.5257
▁leaning	-12.5257
▁len	-12.5257
▁leymah	-12.5257
▁librarians	-12.5257
▁lightly	-12.5257
▁linda	-12.5257
▁locals	-12.5257
▁locate	-12.5257
▁lone	-12.5257
▁longing	-12.5257
▁low-tech	-12.5257
▁lowered	-12.5257
▁loyal	-12.5257
▁macro	-12.5257
▁maitreya	-12.5257
▁malware	-12.5257
▁mandarin	-12.5257
▁maneuver	-12.5257
▁mao	-12.5257
▁mat	-12.5257
▁maze	-12.5257
▁melts	-12.5257
▁memorized	-12.5257
▁metadata	-12.5257
▁micro	-12.5257
▁mills	-12.5257
▁mindfulness	-12.5257
▁mini	-12.5257
▁miniature	-12.5257
▁mismatch	-12.5257
▁mongolia	-12.5257
▁monks	-12.5257
▁moons	-12.5257
▁mosquitoes	-12.5257
▁multi-touch	-12.5257
▁multitasking	-12.5257
▁murderer	-12.5257
▁mystical	-12.5257
▁nails	-12.5257
▁nato	-12.5257
▁neglected	-12.5257
▁netra	-12.5257
▁networked	-12.5257
▁newtonian	-12.5257
▁observatory	-12.5257
▁occasions	-12.5257
▁ohio	-12.5257
▁one-two-three-four	-12.5257
▁originated	-12.5257
▁orthopedic	-12.5257
▁outdoors	-12.5257
▁outreach	-12.5257
▁pale	-12.5257
▁palms	-12.5257
▁passively	-12.5257
▁patented	-12.5257
▁payments	-12.5257
▁peacekeepers	-12.5257
▁pedestrians	-12.5257
▁penn	-12.5257
▁perpetrators	-12.5257
▁persuaded	-12.5257
▁persuasion	-12.5257
▁pesticide	-12.5257
▁ph.d	-12.5257
▁pixels	-12.5257
▁plague	-12.5257
▁plasticity	-12.5257
▁play-doh	-12.5257
▁pointer	-12.5257
▁poisoning	-12.5257
▁policemen	-12.5257
▁pollinate	-12.5257
▁positioning	-12.5257
▁possession	-12.5257
▁possessions	-12.5257
▁powerless	-12.5257
▁preach	-12.5257
▁predictive	-12.5257
▁prescriptions	-12.5257
▁pressed	-12.5257
▁prints	-12.5257
▁puppets	-12.5257
▁purse	-12.5257
▁puzzled	-12.5257
▁pyramids	-12.5257
▁quantify	-12.5257
▁rabbit	-12.5257
▁raging	-12.5257
▁reassuring	-12.5257
▁recruiting	-12.5257
▁redundancy	-12.5257
▁redwoods	-12.5257
▁refrigeration	-12.5257
▁regulating	-12.5257
▁rehab	-12.5257
▁reserved	-12.5257
▁resident	-12.5257
▁resurrection	-12.5257
▁rica	-12.5257
▁ridicule	-12.5257
▁rigged	-12.5257
▁rocking	-12.5257
▁rogue	-12.5257
▁rotates	-12.5257
▁rotation	-12.5257
▁rounded	-12.5257
▁roy	-12.5257
▁rude	-12.5257
▁rwandan	-12.5257
▁ryan	-12.5257
▁salaries	-12.5257
▁saul	-12.5257
▁scarf	-12.5257
▁seamlessly	-12.5257
▁seize	-12.5257
▁setup	-12.5257
▁shack	-12.5257
▁sights	-12.5257
▁simulations	-12.5257
▁sinister	-12.5257
▁sl	-12.5257
▁slightest	-12.5257
▁sm	-12.5257
▁smartphones	-12.5257
▁smelled	-12.5257
▁sobule	-12.5257
▁socks	-12.5257
▁someplace	-12.5257
▁sophistication	-12.5257
▁sovereignty	-12.5257
▁specialization	-12.5257
▁sporting	-12.5257
▁squeaks	-12.5257
▁statues	-12.5257
▁strangeness	-12.5257
▁stretching	-12.5257
▁stripes	-12.5257
▁stunning	-12.5257
▁suppliers	-12.5257
▁surrogate	-12.5257
▁swahili	-12.5257
▁sweater	-12.5257
▁synonymous	-12.5257
▁tackling	-12.5257
▁tactile	-12.5257
▁tallest	-12.5257
▁tarahumara	-12.5257
▁tasmania	-12.5257
▁taylor	-12.5257
▁tempest	-12.5257
▁template	-12.5257
▁temporarily	-12.5257
▁tended	-12.5257
▁threatens	-12.5257
▁tides	-12.5257
▁titanium	-12.5257
▁toe	-12.5257
▁token	-12.5257
▁tours	-12.5257
▁trade-off	-12.5257
▁trafficked	-12.5257
▁trance	-12.5257
▁transactions	-12.5257
▁transnational	-12.5257
▁transplants	-12.5257
▁trillions	-12.5257
▁troy	-12.5257
▁twentieth	-12.5257
▁two-year-old	-12.5257
▁ukraine	-12.5257
▁umbrella	-12.5257
▁unbelievably	-12.5257
▁unrelated	-12.5257
▁unto	-12.5257
▁updated	-12.5257
▁uv	-12.5257
▁v	-12.5257
▁v-day	-12.5257
▁valves	-12.5257
▁venom	-12.5257
▁vent	-12.5257
▁verify	-12.5257
▁visits	-12.5257
▁warner	-12.5257
▁wasp	-12.5257
▁wealthier	-12.5257
▁wednesday	-12.5257
▁wellness	-12.5257
▁whatnot	-12.5257
▁widow	-12.5257
▁windmill	-12.5257
▁worthless	-12.5257
▁wrinkles	-12.5257
▁yearning	-12.5257
▁yogurt	-12.5257
▁zk	-12.5257
▁0.1	-12.5998
▁1,600	-12.5998
▁12-year-old	-12.5998
▁1900s	-12.5998
▁1940s	-12.5998
▁1981	-12.5998
▁2.3	-12.5998
▁3.5	-12.5998
▁45,000	-12.5998
▁84	-12.5998
▁88	-12.5998
▁accenture	-12.5998
▁accumulated	-12.5998
▁accustomed	-12.5998
▁acoustics	-12.5998
▁adaptable	-12.5998
▁addictive	-12.5998
▁administrators	-12.5998
▁admired	-12.5998
▁advent	-12.5998
▁advocates	-12.5998
▁age-old	-12.5998
▁aiming	-12.5998
▁alexandria	-12.5998
▁analogous	-12.5998
▁ancestral	-12.5998
▁ann	-12.5998
▁antarctic	-12.5998
▁antiretroviral	-12.5998
▁apex	-12.5998
▁appalling	-12.5998
▁appetite	-12.5998
▁appointed	-12.5998
▁arthritis	-12.5998
▁atrocities	-12.5998
▁attributed	-12.5998
▁aversion	-12.5998
▁axe	-12.5998
▁aye	-12.5998
▁backing	-12.5998
▁balcony	-12.5998
▁bedtime	-12.5998
▁bid	-12.5998
▁biking	-12.5998
▁binds	-12.5998
▁bladder	-12.5998
▁blades	-12.5998
▁blogosphere	-12.5998
▁blunt	-12.5998
▁blurry	-12.5998
▁boeing	-12.5998
▁bollywood	-12.5998
▁bolt	-12.5998
▁bonuses	-12.5998
▁bothers	-12.5998
▁brainstorms	-12.5998
▁branding	-12.5998
▁bred	-12.5998
▁brilliantly	-12.5998
▁broadway	-12.5998
▁browne	-12.5998
▁buck	-12.5998
▁buffalo	-12.5998
▁bull	-12.5998
▁bushes	-12.5998
▁butterfly	-12.5998
▁buyers	-12.5998
▁calving	-12.5998
▁canary	-12.5998
▁carbs	-12.5998
▁carrots	-12.5998
▁casting	-12.5998
▁catadores	-12.5998
▁charismatic	-12.5998
▁charlotte	-12.5998
▁chefs	-12.5998
▁chemists	-12.5998
▁chemo	-12.5998
▁chk	-12.5998
▁chooses	-12.5998
▁claus	-12.5998
▁cleaners	-12.5998
▁cleared	-12.5998
▁cleverly	-12.5998
▁clicked	-12.5998
▁closes	-12.5998
▁cloudy	-12.5998
▁coconut	-12.5998
▁commercially	-12.5998
▁communicates	-12.5998
▁comparisons	-12.5998
▁complaint	-12.5998
▁completing	-12.5998
▁composite	-12.5998
▁compress	-12.5998
▁compromised	-12.5998
▁conceived	-12.5998
▁conserve	-12.5998
▁considerable	-12.5998
▁constitutes	-12.5998
▁consumerism	-12.5998
▁contemplating	-12.5998
▁contractors	-12.5998
▁conveniently	-12.5998
▁cops	-12.5998
▁cornell	-12.5998
▁corridor	-12.5998
▁cp	-12.5998
▁crater	-12.5998
▁craving	-12.5998
▁creek	-12.5998
▁crust	-12.5998
▁cubes	-12.5998
▁cursor	-12.5998
▁customs	-12.5998
▁cyclist	-12.5998
▁d.c	-12.5998
▁darkest	-12.5998
▁davis	-12.5998
▁ddt	-12.5998
▁decisive	-12.5998
▁declaration	-12.5998
▁declare	-12.5998
▁decode	-12.5998
▁decorative	-12.5998
▁degrade	-12.5998
▁desired	-12.5998
▁devils	-12.5998
▁devise	-12.5998
▁diaspora	-12.5998
▁dictators	-12.5998
▁disagreement	-12.5998
▁disc	-12.5998
▁doc	-12.5998
▁dolls	-12.5998
▁domains	-12.5998
▁domination	-12.5998
▁doubts	-12.5998
▁dragline	-12.5998
▁dressing	-12.5998
▁drifted	-12.5998
▁droplet	-12.5998
▁dropout	-12.5998
▁eagle	-12.5998
▁eb	-12.5998
▁eduardo	-12.5998
▁egos	-12.5998
▁elevators	-12.5998
▁embody	-12.5998
▁emits	-12.5998
▁emitting	-12.5998
▁emperor	-12.5998
▁erased	-12.5998
▁establishing	-12.5998
▁eternity	-12.5998
▁eu	-12.5998
▁eureka	-12.5998
▁evaluating	-12.5998
▁evolutionarily	-12.5998
▁examined	-12.5998
▁examining	-12.5998
▁experimented	-12.5998
▁eyesight	-12.5998
▁fashionable	-12.5998
▁favela	-12.5998
▁feasible	-12.5998
▁feather	-12.5998
▁feces	-12.5998
▁feminism	-12.5998
▁fertile	-12.5998
▁fireflies	-12.5998
▁firstly	-12.5998
▁fisherman	-12.5998
▁fitting	-12.5998
▁flooded	-12.5998
▁flute	-12.5998
▁foam	-12.5998
▁four-year-old	-12.5998
▁fractals	-12.5998
▁freaking	-12.5998
▁fried	-12.5998
▁fueled	-12.5998
▁fuller	-12.5998
▁fuse	-12.5998
▁geographically	-12.5998
▁geologists	-12.5998
▁georgetown	-12.5998
▁gorilla	-12.5998
▁governing	-12.5998
▁gphin	-12.5998
▁graduating	-12.5998
▁gravel	-12.5998
▁greg	-12.5998
▁hangs	-12.5998
▁hatch	-12.5998
▁herbie	-12.5998
▁heroism	-12.5998
▁high-end	-12.5998
▁hillis	-12.5998
▁hippie	-12.5998
▁hollow	-12.5998
▁homage	-12.5998
▁homer	-12.5998
▁hominid	-12.5998
▁homosexuality	-12.5998
▁horrified	-12.5998
▁hottest	-12.5998
▁humanoid	-12.5998
▁hunter-gatherer	-12.5998
▁hurting	-12.5998
▁hydrothermal	-12.5998
▁hyena	-12.5998
▁hype	-12.5998
▁hypertext	-12.5998
▁igbo	-12.5998
▁illinois	-12.5998
▁immigration	-12.5998
▁immoral	-12.5998
▁improvising	-12.5998
▁inconvenient	-12.5998
▁incra	-12.5998
▁increments	-12.5998
▁induced	-12.5998
▁inertia	-12.5998
▁infamous	-12.5998
▁inferior	-12.5998
▁inflection	-12.5998
▁infrastructures	-12.5998
▁inserted	-12.5998
▁inspirational	-12.5998
▁inspires	-12.5998
▁installing	-12.5998
▁insurgency	-12.5998
▁intellectually	-12.5998
▁interdependence	-12.5998
▁interpreted	-12.5998
▁intestine	-12.5998
▁intimately	-12.5998
▁invites	-12.5998
▁islamist	-12.5998
▁istanbul	-12.5998
▁jon	-12.5998
▁jose	-12.5998
▁judy	-12.5998
▁kate	-12.5998
▁kicks	-12.5998
▁kidnapped	-12.5998
▁kilogram	-12.5998
▁km	-12.5998
▁knocks	-12.5998
▁knot	-12.5998
▁laparoscopic	-12.5998
▁latent	-12.5998
▁laureate	-12.5998
▁leaking	-12.5998
▁lebanese	-12.5998
▁legendary	-12.5998
▁lesion	-12.5998
▁lettuce	-12.5998
▁liberties	-12.5998
▁limbic	-12.5998
▁limiting	-12.5998
▁lip	-12.5998
▁liters	-12.5998
▁logarithmic	-12.5998
▁lovers	-12.5998
▁madison	-12.5998
▁mainland	-12.5998
▁manageable	-12.5998
▁marched	-12.5998
▁marginalized	-12.5998
▁marx	-12.5998
▁masterpieces	-12.5998
▁mathematica	-12.5998
▁mbi	-12.5998
▁median	-12.5998
▁megawatts	-12.5998
▁merging	-12.5998
▁microphones	-12.5998
▁migrant	-12.5998
▁migrating	-12.5998
▁millimeters	-12.5998
▁mimicking	-12.5998
▁mind-blowing	-12.5998
▁missouri	-12.5998
▁mistaken	-12.5998
▁mitchell	-12.5998
▁mmm	-12.5998
▁moderate	-12.5998
▁modern-day	-12.5998
▁modernity	-12.5998
▁monarchy	-12.5998
▁monk	-12.5998
▁monologues	-12.5998
▁morgan	-12.5998
▁morocco	-12.5998
▁motivations	-12.5998
▁mp3	-12.5998
▁mubarak	-12.5998
▁multicultural	-12.5998
▁nanometers	-12.5998
▁napkin	-12.5998
▁necessity	-12.5998
▁negatives	-12.5998
▁nerds	-12.5998
▁nih	-12.5998
▁nomadic	-12.5998
▁non-verbal	-12.5998
▁obtain	-12.5998
▁odysseus	-12.5998
▁one-dimensional	-12.5998
▁opec	-12.5998
▁open-ended	-12.5998
▁opponents	-12.5998
▁orbital	-12.5998
▁orphans	-12.5998
▁outlet	-12.5998
▁outstanding	-12.5998
▁overboard	-12.5998
▁overwhelmingly	-12.5998
▁paintbrush	-12.5998
▁papua	-12.5998
▁pasting	-12.5998
▁peeling	-12.5998
▁perfection	-12.5998
▁philanthropic	-12.5998
▁pickle	-12.5998
▁piracy	-12.5998
▁pirates	-12.5998
▁piss	-12.5998
▁plank	-12.5998
▁plaque	-12.5998
▁plaza	-12.5998
▁plentiful	-12.5998
▁plots	-12.5998
▁poke	-12.5998
▁polarization	-12.5998
▁polluted	-12.5998
▁poo	-12.5998
▁pore	-12.5998
▁portray	-12.5998
▁portuguese	-12.5998
▁premium	-12.5998
▁prescribed	-12.5998
▁printers	-12.5998
▁privately	-12.5998
▁promoted	-12.5998
▁promotes	-12.5998
▁prop	-12.5998
▁prosperous	-12.5998
▁prostitutes	-12.5998
▁proteomics	-12.5998
▁provinces	-12.5998
▁provoke	-12.5998
▁psychotherapy	-12.5998
▁pumped	-12.5998
▁punched	-12.5998
▁purchased	-12.5998
▁qualify	-12.5998
▁ranch	-12.5998
▁ranger	-12.5998
▁reactive	-12.5998
▁receptors	-12.5998
▁recommended	-12.5998
▁recyclable	-12.5998
▁redefining	-12.5998
▁redesigning	-12.5998
▁refrigerators	-12.5998
▁reimagine	-12.5998
▁replicating	-12.5998
▁resembles	-12.5998
▁reservations	-12.5998
▁restorative	-12.5998
▁reusable	-12.5998
▁revolutionize	-12.5998
▁rex	-12.5998
▁ribbon	-12.5998
▁ripe	-12.5998
▁rooftop	-12.5998
▁rowing	-12.5998
▁ruby	-12.5998
▁ruling	-12.5998
▁sabbatical	-12.5998
▁salute	-12.5998
▁sandy	-12.5998
▁sao	-12.5998
▁schizophrenic	-12.5998
▁schwarzschild	-12.5998
▁scratching	-12.5998
▁scripture	-12.5998
▁sculptural	-12.5998
▁seductive	-12.5998
▁seeks	-12.5998
▁selecting	-12.5998
▁selectively	-12.5998
▁self-expression	-12.5998
▁self-worth	-12.5998
▁semen	-12.5998
▁sentient	-12.5998
▁shah	-12.5998
▁shredded	-12.5998
▁sickness	-12.5998
▁silks	-12.5998
▁simulating	-12.5998
▁skepticism	-12.5998
▁slot	-12.5998
▁slows	-12.5998
▁smash	-12.5998
▁soda	-12.5998
▁solar-powered	-12.5998
▁solves	-12.5998
▁soy	-12.5998
▁sparked	-12.5998
▁spelling	-12.5998
▁spit	-12.5998
▁sponge	-12.5998
▁spraying	-12.5998
▁stacking	-12.5998
▁stance	-12.5998
▁stiff	-12.5998
▁stimulating	-12.5998
▁stretches	-12.5998
▁styrofoam	-12.5998
▁sub	-12.5998
▁suicidal	-12.5998
▁sunset	-12.5998
▁superheroes	-12.5998
▁supernatural	-12.5998
▁surveyed	-12.5998
▁sushi	-12.5998
▁suspension	-12.5998
▁suspicion	-12.5998
▁sustainably	-12.5998
▁swam	-12.5998
▁sweep	-12.5998
▁swollen	-12.5998
▁symbiosis	-12.5998
▁sympathetic	-12.5998
▁syringe	-12.5998
▁tadpole	-12.5998
▁tapped	-12.5998
▁targeting	-12.5998
▁temples	-12.5998
▁tender	-12.5998
▁testament	-12.5998
▁theatre	-12.5998
▁thinner	-12.5998
▁threads	-12.5998
▁tickle	-12.5998
▁tire	-12.5998
▁toddler	-12.5998
▁tragedies	-12.5998
▁trails	-12.5998
▁transaction	-12.5998
▁translations	-12.5998
▁triceratops	-12.5998
▁tso	-12.5998
▁turbulent	-12.5998
▁twain	-12.5998
▁typewriter	-12.5998
▁uncommon	-12.5998
▁unconsciously	-12.5998
▁undersea	-12.5998
▁undoubtedly	-12.5998
▁unsafe	-12.5998
▁uprising	-12.5998
▁uptake	-12.5998
▁usb	-12.5998
▁utilitarian	-12.5998
▁utilize	-12.5998
▁vaccinated	-12.5998
▁variants	-12.5998
▁vascular	-12.5998
▁vc	-12.5998
▁victoria	-12.5998
▁violate	-12.5998
▁void	-12.5998
▁volunteered	-12.5998
▁welcoming	-12.5998
▁wetland	-12.5998
▁whaling	-12.5998
▁whip	-12.5998
▁whirlwind	-12.5998
▁whiskey	-12.5998
▁whisper	-12.5998
▁wholesale	-12.5998
▁wiser	-12.5998
▁witnesses	-12.5998
▁woody	-12.5998
▁wrapping	-12.5998
▁wrestle	-12.5998
▁writ	-12.5998
▁yell	-12.5998
▁yep	-12.5998
▁youngsters	-12.5998
▁00	-12.6798
▁1,300	-12.6798
▁1,800	-12.6798
▁16th	-12.6798
▁1800s	-12.6798
▁2014	-12.6798
▁3.3	-12.6798
▁61	-12.6798
▁68	-12.6798
▁90,000	-12.6798
▁a-rhythm	-12.6798
▁abyss	-12.6798
▁accessing	-12.6798
▁adams	-12.6798
▁admin	-12.6798
▁adopting	-12.6798
▁adore	-12.6798
▁adrenaline	-12.6798
▁advising	-12.6798
▁afforded	-12.6798
▁airbnb	-12.6798
▁alhambra	-12.6798
▁alligator	-12.6798
▁als	-12.6798
▁altar	-12.6798
▁alternate	-12.6798
▁anchor	-12.6798
▁anonymity	-12.6798
▁anthony	-12.6798
▁antibody	-12.6798
▁armies	-12.6798
▁assist	-12.6798
▁astrolabe	-12.6798
▁audacity	-12.6798
▁autobiographical	-12.6798
▁avoided	-12.6798
▁bach	-12.6798
▁bait	-12.6798
▁balconies	-12.6798
▁bald	-12.6798
▁band-aid	-12.6798
▁bathe	-12.6798
▁bathing	-12.6798
▁battling	-12.6798
▁baxter	-12.6798
▁beasts	-12.6798
▁beatles	-12.6798
▁beers	-12.6798
▁begging	-12.6798
▁belonged	-12.6798
▁benchmark	-12.6798
▁benefited	-12.6798
▁bilbao	-12.6798
▁biomaterials	-12.6798
▁bipolar	-12.6798
▁blackboard	-12.6798
▁boarding	-12.6798
▁bobby	-12.6798
▁bonding	-12.6798
▁bonnet	-12.6798
▁bore	-12.6798
▁bosses	-12.6798
▁bouncing	-12.6798
▁bride	-12.6798
▁brighter	-12.6798
▁brine	-12.6798
▁brutality	-12.6798
▁brutally	-12.6798
▁buffer	-12.6798
▁bulgaria	-12.6798
▁bumblebee	-12.6798
▁bunker	-12.6798
▁bureaucratic	-12.6798
▁burma	-12.6798
▁burnt	-12.6798
▁bury	-12.6798
▁businessman	-12.6798
▁busted	-12.6798
▁buyer	-12.6798
▁bye	-12.6798
▁calf	-12.6798
▁capitol	-12.6798
▁carcinogens	-12.6798
▁carving	-12.6798
▁celebrities	-12.6798
▁cellphones	-12.6798
▁cellulose	-12.6798
▁cheeks	-12.6798
▁cherish	-12.6798
▁childbirth	-12.6798
▁christianity	-12.6798
▁clark	-12.6798
▁clearer	-12.6798
▁climber	-12.6798
▁clinging	-12.6798
▁cloning	-12.6798
▁coated	-12.6798
▁coldest	-12.6798
▁commonplace	-12.6798
▁comparative	-12.6798
▁compensate	-12.6798
▁complexities	-12.6798
▁compost	-12.6798
▁concerning	-12.6798
▁conducive	-12.6798
▁considers	-12.6798
▁consistency	-12.6798
▁constituency	-12.6798
▁constraint	-12.6798
▁consult	-12.6798
▁consulting	-12.6798
▁contaminate	-12.6798
▁contested	-12.6798
▁contractions	-12.6798
▁coolest	-12.6798
▁corps	-12.6798
▁cortisol	-12.6798
▁craters	-12.6798
▁crease	-12.6798
▁creations	-12.6798
▁credibility	-12.6798
▁curate	-12.6798
▁curse	-12.6798
▁dana	-12.6798
▁darling	-12.6798
▁dawkins	-12.6798
▁daycare	-12.6798
▁deceptive	-12.6798
▁decipher	-12.6798
▁decorated	-12.6798
▁deep-sea	-12.6798
▁defect	-12.6798
▁delayed	-12.6798
▁democrat	-12.6798
▁democratization	-12.6798
▁demonstrates	-12.6798
▁densities	-12.6798
▁dental	-12.6798
▁dentists	-12.6798
▁depicted	-12.6798
▁descent	-12.6798
▁destroys	-12.6798
▁detecting	-12.6798
▁devoid	-12.6798
▁devotion	-12.6798
▁diagnosing	-12.6798
▁differentiated	-12.6798
▁dilemmas	-12.6798
▁dim	-12.6798
▁diminished	-12.6798
▁disappointment	-12.6798
▁discount	-12.6798
▁dismissed	-12.6798
▁disparity	-12.6798
▁dissent	-12.6798
▁distort	-12.6798
▁distortion	-12.6798
▁distractions	-12.6798
▁divides	-12.6798
▁diy	-12.6798
▁dizzy	-12.6798
▁doctrine	-12.6798
▁doomed	-12.6798
▁doorstep	-12.6798
▁dotcom	-12.6798
▁douglas	-12.6798
▁downside	-12.6798
▁draft	-12.6798
▁dull	-12.6798
▁dvds	-12.6798
▁dysfunction	-12.6798
▁dyslexic	-12.6798
▁economical	-12.6798
▁ecstasy	-12.6798
▁editorial	-12.6798
▁eiffel	-12.6798
▁elastic	-12.6798
▁elect	-12.6798
▁eleven	-12.6798
▁elvis	-12.6798
▁embryos	-12.6798
▁emmanuel	-12.6798
▁empathize	-12.6798
▁emulate	-12.6798
▁endure	-12.6798
▁energized	-12.6798
▁enhancement	-12.6798
▁enhances	-12.6798
▁enriched	-12.6798
▁enrolled	-12.6798
▁eruption	-12.6798
▁es	-12.6798
▁esg	-12.6798
▁esoteric	-12.6798
▁ethnicity	-12.6798
▁evoke	-12.6798
▁exaggeration	-12.6798
▁exceeds	-12.6798
▁excluded	-12.6798
▁exercising	-12.6798
▁exhibits	-12.6798
▁exquisitely	-12.6798
▁extraterrestrial	-12.6798
▁faked	-12.6798
▁fax	-12.6798
▁fearful	-12.6798
▁featured	-12.6798
▁fin	-12.6798
▁fireman	-12.6798
▁fitted	-12.6798
▁flashlight	-12.6798
▁flick	-12.6798
▁flop	-12.6798
▁forensic	-12.6798
▁forge	-12.6798
▁fragment	-12.6798
▁frustrations	-12.6798
▁fuss	-12.6798
▁gaga	-12.6798
▁gasses	-12.6798
▁geneticists	-12.6798
▁glance	-12.6798
▁goggles	-12.6798
▁gothic	-12.6798
▁governors	-12.6798
▁gracefully	-12.6798
▁grail	-12.6798
▁grams	-12.6798
▁granny	-12.6798
▁grazing	-12.6798
▁greeted	-12.6798
▁greeting	-12.6798
▁guesses	-12.6798
▁guided	-12.6798
▁guru	-12.6798
▁halved	-12.6798
▁han	-12.6798
▁handheld	-12.6798
▁handing	-12.6798
▁harmless	-12.6798
▁heels	-12.6798
▁helen	-12.6798
▁hers	-12.6798
▁hierarchical	-12.6798
▁high-level	-12.6798
▁high-performance	-12.6798
▁hillary	-12.6798
▁hillside	-12.6798
▁hindi	-12.6798
▁hip-hop	-12.6798
▁holidays	-12.6798
▁horrifying	-12.6798
▁hospice	-12.6798
▁hospitality	-12.6798
▁hubris	-12.6798
▁hyderabad	-12.6798
▁i.t.	-12.6798
▁idiots	-12.6798
▁imitating	-12.6798
▁immunization	-12.6798
▁impacted	-12.6798
▁impacting	-12.6798
▁impatient	-12.6798
▁implies	-12.6798
▁inadvertently	-12.6798
▁incarcerated	-12.6798
▁incarceration	-12.6798
▁indicator	-12.6798
▁indirect	-12.6798
▁influenza	-12.6798
▁insulation	-12.6798
▁intake	-12.6798
▁interconnectedness	-12.6798
▁intertwined	-12.6798
▁investigated	-12.6798
▁iowa	-12.6798
▁ira	-12.6798
▁isolate	-12.6798
▁jamaica	-12.6798
▁jams	-12.6798
▁jars	-12.6798
▁jean	-12.6798
▁jeep	-12.6798
▁jesse	-12.6798
▁jonathan	-12.6798
▁js	-12.6798
▁kamen	-12.6798
▁kicking	-12.6798
▁kittens	-12.6798
▁kiva	-12.6798
▁koreans	-12.6798
▁kuwait	-12.6798
▁lawsuit	-12.6798
▁leaked	-12.6798
▁legend	-12.6798
▁lemon	-12.6798
▁leviathan	-12.6798
▁liability	-12.6798
▁liars	-12.6798
▁liberate	-12.6798
▁life-saving	-12.6798
▁lifestyles	-12.6798
▁lineage	-12.6798
▁linguists	-12.6798
▁lisa	-12.6798
▁locomotion	-12.6798
▁long-distance	-12.6798
▁lyrics	-12.6798
▁magically	-12.6798
▁magnetism	-12.6798
▁maine	-12.6798
▁majesty	-12.6798
▁malaysia	-12.6798
▁malcolm	-12.6798
▁malleable	-12.6798
▁maltese	-12.6798
▁manchester	-12.6798
▁manifestations	-12.6798
▁manually	-12.6798
▁marco	-12.6798
▁marginal	-12.6798
▁marines	-12.6798
▁marketers	-12.6798
▁marketplaces	-12.6798
▁marshmallow	-12.6798
▁martian	-12.6798
▁mastered	-12.6798
▁medal	-12.6798
▁mellon	-12.6798
▁melodies	-12.6798
▁messenger	-12.6798
▁microfinance	-12.6798
▁min	-12.6798
▁mobilized	-12.6798
▁modernism	-12.6798
▁modules	-12.6798
▁monastery	-12.6798
▁mosques	-12.6798
▁motto	-12.6798
▁mutilated	-12.6798
▁mystic	-12.6798
▁navigating	-12.6798
▁negativity	-12.6798
▁negotiated	-12.6798
▁nesting	-12.6798
▁netflix	-12.6798
▁newest	-12.6798
▁ng	-12.6798
▁nicer	-12.6798
▁non-governmental	-12.6798
▁northeastern	-12.6798
▁notable	-12.6798
▁nudge	-12.6798
▁nutrient	-12.6798
▁nutritious	-12.6798
▁oasis	-12.6798
▁obligations	-12.6798
▁occupying	-12.6798
▁oddly	-12.6798
▁offline	-12.6798
▁one-way	-12.6798
▁opponent	-12.6798
▁oppression	-12.6798
▁opt	-12.6798
▁oranges	-12.6798
▁orangutans	-12.6798
▁organizers	-12.6798
▁orient	-12.6798
▁outliers	-12.6798
▁outskirts	-12.6798
▁outwards	-12.6798
▁overcoming	-12.6798
▁overflow	-12.6798
▁paints	-12.6798
▁palette	-12.6798
▁par	-12.6798
▁paradigms	-12.6798
▁paradoxically	-12.6798
▁parker	-12.6798
▁patches	-12.6798
▁pathetic	-12.6798
▁paycheck	-12.6798
▁peacebuilding	-12.6798
▁peril	-12.6798
▁peripheral	-12.6798
▁petals	-12.6798
▁pipelines	-12.6798
▁pirated	-12.6798
▁plains	-12.6798
▁planner	-12.6798
▁plugged	-12.6798
▁poachers	-12.6798
▁poker	-12.6798
▁policeman	-12.6798
▁polling	-12.6798
▁popularity	-12.6798
▁pork	-12.6798
▁portions	-12.6798
▁ports	-12.6798
▁posing	-12.6798
▁pottery	-12.6798
▁practitioners	-12.6798
▁precedent	-12.6798
▁prehistoric	-12.6798
▁preliminary	-12.6798
▁preventive	-12.6798
▁pro	-12.6798
▁proceeded	-12.6798
▁professionally	-12.6798
▁progeria	-12.6798
▁prolific	-12.6798
▁pronounced	-12.6798
▁proton	-12.6798
▁provocative	-12.6798
▁psychopathic	-12.6798
▁pub	-12.6798
▁puffs	-12.6798
▁quot	-12.6798
▁raining	-12.6798
▁rd	-12.6798
▁rearrange	-12.6798
▁rebellion	-12.6798
▁recess	-12.6798
▁reckless	-12.6798
▁recommendations	-12.6798
▁recreation	-12.6798
▁recurrent	-12.6798
▁refuge	-12.6798
▁regards	-12.6798
▁regulated	-12.6798
▁reinforce	-12.6798
▁reinforced	-12.6798
▁relay	-12.6798
▁reliably	-12.6798
▁remark	-12.6798
▁removes	-12.6798
▁repairability	-12.6798
▁replica	-12.6798
▁replication	-12.6798
▁resemblance	-12.6798
▁reservation	-12.6798
▁respecting	-12.6798
▁restless	-12.6798
▁restoring	-12.6798
▁rhex	-12.6798
▁ribs	-12.6798
▁riot	-12.6798
▁risked	-12.6798
▁rivals	-12.6798
▁rockett	-12.6798
▁role-play	-12.6798
▁rotting	-12.6798
▁rub	-12.6798
▁rubbish	-12.6798
▁rudder	-12.6798
▁runway	-12.6798
▁rushing	-12.6798
▁sabbath	-12.6798
▁sacks	-12.6798
▁sacrifices	-12.6798
▁scandal	-12.6798
▁scares	-12.6798
▁scattered	-12.6798
▁schematic	-12.6798
▁sculptor	-12.6798
▁sediments	-12.6798
▁seduction	-12.6798
▁sentiments	-12.6798
▁separates	-12.6798
▁serendipity	-12.6798
▁settling	-12.6798
▁sew	-12.6798
▁sewers	-12.6798
▁shaman	-12.6798
▁shareholders	-12.6798
▁silently	-12.6798
▁sincere	-12.6798
▁skycar	-12.6798
▁skydiving	-12.6798
▁slap	-12.6798
▁sleeve	-12.6798
▁slipped	-12.6798
▁slippery	-12.6798
▁smiley	-12.6798
▁sobering	-12.6798
▁sociologists	-12.6798
▁sofa	-12.6798
▁solidarity	-12.6798
▁spawning	-12.6798
▁spears	-12.6798
▁specialty	-12.6798
▁speculate	-12.6798
▁spelled	-12.6798
▁spells	-12.6798
▁splitting	-12.6798
▁spongy	-12.6798
▁squatter	-12.6798
▁stark	-12.6798
▁starve	-12.6798
▁steep	-12.6798
▁steroids	-12.6798
▁sticker	-12.6798
▁storytellers	-12.6798
▁stresses	-12.6798
▁striving	-12.6798
▁submarines	-12.6798
▁subsequent	-12.6798
▁sufi	-12.6798
▁suited	-12.6798
▁superpowers	-12.6798
▁surrender	-12.6798
▁swedes	-12.6798
▁synapse	-12.6798
▁t-shirts	-12.6798
▁t.	-12.6798
▁tapes	-12.6798
▁taps	-12.6798
▁taxpayer	-12.6798
▁tbp	-12.6798
▁td	-12.6798
▁teamwork	-12.6798
▁technologically	-12.6798
▁tedious	-12.6798
▁tedwomen	-12.6798
▁tempted	-12.6798
▁terence	-12.6798
▁therapists	-12.6798
▁thereafter	-12.6798
▁throwaway	-12.6798
▁thunder	-12.6798
▁tinker	-12.6798
▁tomatoes	-12.6798
▁tombstone	-12.6798
▁torch	-12.6798
▁towels	-12.6798
▁trajectories	-12.6798
▁transporting	-12.6798
▁traumatized	-12.6798
▁trickster	-12.6798
▁tripled	-12.6798
▁turbines	-12.6798
▁tvs	-12.6798
▁unchanged	-12.6798
▁underestimated	-12.6798
▁unfolds	-12.6798
▁unicorn	-12.6798
▁uniforms	-12.6798
▁unleashed	-12.6798
▁untouched	-12.6798
▁upstairs	-12.6798
▁uruguay	-12.6798
▁usable	-12.6798
▁vaccination	-12.6798
▁vanished	-12.6798
▁vapor	-12.6798
▁vegetarian	-12.6798
▁veins	-12.6798
▁violated	-12.6798
▁virgins	-12.6798
▁volatile	-12.6798
▁wakes	-12.6798
▁wales	-12.6798
▁warmed	-12.6798
▁wasps	-12.6798
▁weaknesses	-12.6798
▁weave	-12.6798
▁webs	-12.6798
▁wholly	-12.6798
▁win-win	-12.6798
▁wirelessly	-12.6798
▁wisconsin	-12.6798
▁wizard	-12.6798
▁writings	-12.6798
▁yellowstone	-12.6798
▁yemeni	-12.6798
▁0.2	-12.7668
▁1.8	-12.7668
▁11,000	-12.7668
▁14,000	-12.7668
▁16,000	-12.7668
▁1920s	-12.7668
▁1929	-12.7668
▁1966	-12.7668
▁2000s	-12.7668
▁24,000	-12.7668
▁240	-12.7668
▁2d	-12.7668
▁30-year	-12.7668
▁401	-12.7668
▁41	-12.7668
▁800,000	-12.7668
▁abdomen	-12.7668
▁absorbing	-12.7668
▁absorbs	-12.7668
▁accord	-12.7668
▁accounted	-12.7668
▁acquiring	-12.7668
▁acre	-12.7668
[...]
